{
  "version": "1.0",
  "truncation": null,
  "padding": null,
  "added_tokens": [
    {
      "id": 0,
      "content": "<eos>",
      "single_word": false,
      "lstrip": false,
      "rstrip": false,
      "normalized": false,
      "special": true
    }
  ],
  "normalizer": null,
  "pre_tokenizer": {
    "type": "Whitespace"
  },
  "post_processor": null,
  "decoder": null,
  "model": {
    "type": "BPE",
    "dropout": null,
    "unk_token": null,
    "continuing_subword_prefix": null,
    "end_of_word_suffix": null,
    "fuse_unk": false,
    "byte_fallback": false,
    "ignore_merges": false,
    "vocab": {
      "<eos>": 0,
      "!": 1,
      "$": 2,
      "&": 3,
      "'": 4,
      ",": 5,
      "-": 6,
      ".": 7,
      "3": 8,
      ":": 9,
      ";": 10,
      "?": 11,
      "A": 12,
      "B": 13,
      "C": 14,
      "D": 15,
      "E": 16,
      "F": 17,
      "G": 18,
      "H": 19,
      "I": 20,
      "J": 21,
      "K": 22,
      "L": 23,
      "M": 24,
      "N": 25,
      "O": 26,
      "P": 27,
      "Q": 28,
      "R": 29,
      "S": 30,
      "T": 31,
      "U": 32,
      "V": 33,
      "W": 34,
      "X": 35,
      "Y": 36,
      "Z": 37,
      "a": 38,
      "b": 39,
      "c": 40,
      "d": 41,
      "e": 42,
      "f": 43,
      "g": 44,
      "h": 45,
      "i": 46,
      "j": 47,
      "k": 48,
      "l": 49,
      "m": 50,
      "n": 51,
      "o": 52,
      "p": 53,
      "q": 54,
      "r": 55,
      "s": 56,
      "t": 57,
      "u": 58,
      "v": 59,
      "w": 60,
      "x": 61,
      "y": 62,
      "z": 63,
      "th": 64,
      "ou": 65,
      "er": 66,
      "in": 67,
      "an": 68,
      "the": 69,
      "or": 70,
      "is": 71,
      "en": 72,
      "ar": 73,
      "at": 74,
      "on": 75,
      "st": 76,
      "ll": 77,
      "me": 78,
      "to": 79,
      "and": 80,
      "he": 81,
      "you": 82,
      "es": 83,
      "no": 84,
      "se": 85,
      "ha": 86,
      "re": 87,
      "of": 88,
      "ve": 89,
      "it": 90,
      "ing": 91,
      "be": 92,
      "le": 93,
      "wi": 94,
      "my": 95,
      "hi": 96,
      "ow": 97,
      "ce": 98,
      "for": 99,
      "ay": 100,
      "as": 101,
      "ch": 102,
      "nd": 103,
      "ere": 104,
      "ld": 105,
      "ir": 106,
      "ed": 107,
      "ut": 108,
      "ro": 109,
      "not": 110,
      "li": 111,
      "de": 112,
      "we": 113,
      "hat": 114,
      "that": 115,
      "gh": 116,
      "And": 117,
      "ke": 118,
      "oo": 119,
      "our": 120,
      "with": 121,
      "ome": 122,
      "ent": 123,
      "his": 124,
      "ri": 125,
      "your": 126,
      "thou": 127,
      "ther": 128,
      "ad": 129,
      "al": 130,
      "et": 131,
      "all": 132,
      "ght": 133,
      "EN": 134,
      "ur": 135,
      "us": 136,
      "have": 137,
      "him": 138,
      "IN": 139,
      "ly": 140,
      "so": 141,
      "ra": 142,
      "this": 143,
      "IO": 144,
      "ord": 145,
      "do": 146,
      "un": 147,
      "ho": 148,
      "ma": 149,
      "ess": 150,
      "pe": 151,
      "fe": 152,
      "AR": 153,
      "ould": 154,
      "are": 155,
      "lo": 156,
      "here": 157,
      "ood": 158,
      "id": 159,
      "thy": 160,
      "ver": 161,
      "fa": 162,
      "ck": 163,
      "one": 164,
      "man": 165,
      "ti": 166,
      "The": 167,
      "sha": 168,
      "now": 169,
      "am": 170,
      "will": 171,
      "ne": 172,
      "ge": 173,
      "ain": 174,
      "but": 175,
      "su": 176,
      "ard": 177,
      "her": 178,
      "US": 179,
      "ter": 180,
      "con": 181,
      "pr": 182,
      "Th": 183,
      "To": 184,
      "end": 185,
      "by": 186,
      "thee": 187,
      "ue": 188,
      "om": 189,
      "la": 190,
      "shall": 191,
      "art": 192,
      "mor": 193,
      "up": 194,
      "UC": 195,
      "sh": 196,
      "come": 197,
      "po": 198,
      "ING": 199,
      "rom": 200,
      "own": 201,
      "AN": 202,
      "ust": 203,
      "That": 204,
      "ta": 205,
      "tr": 206,
      "what": 207,
      "ER": 208,
      "OR": 209,
      "ous": 210,
      "mo": 211,
      "sel": 212,
      "ET": 213,
      "te": 214,
      "ES": 215,
      "go": 216,
      "good": 217,
      "if": 218,
      "ill": 219,
      "But": 220,
      "ine": 221,
      "ath": 222,
      "hen": 223,
      "ble": 224,
      "ight": 225,
      "lord": 226,
      "ion": 227,
      "hich": 228,
      "king": 229,
      "What": 230,
      "was": 231,
      "bo": 232,
      "il": 233,
      "ant": 234,
      "KING": 235,
      "ven": 236,
      "she": 237,
      "ca": 238,
      "ul": 239,
      "from": 240,
      "bl": 241,
      "ong": 242,
      "more": 243,
      "For": 244,
      "well": 245,
      "sa": 246,
      "them": 247,
      "IC": 248,
      "ak": 249,
      "sir": 250,
      "self": 251,
      "ind": 252,
      "would": 253,
      "there": 254,
      "wor": 255,
      "love": 256,
      "can": 257,
      "know": 258,
      "per": 259,
      "ct": 260,
      "out": 261,
      "ive": 262,
      "EL": 263,
      "ate": 264,
      "com": 265,
      "say": 266,
      "then": 267,
      "see": 268,
      "IUS": 269,
      "let": 270,
      "ARD": 271,
      "their": 272,
      "My": 273,
      "di": 274,
      "than": 275,
      "ci": 276,
      "ry": 277,
      "--": 278,
      "they": 279,
      "fore": 280,
      "ence": 281,
      "ag": 282,
      "ep": 283,
      "ear": 284,
      "like": 285,
      "spe": 286,
      "Go": 287,
      "ers": 288,
      "hy": 289,
      "may": 290,
      "LO": 291,
      "bro": 292,
      "um": 293,
      "were": 294,
      "way": 295,
      "As": 296,
      "pro": 297,
      "ast": 298,
      "We": 299,
      "ves": 300,
      "ish": 301,
      "ink": 302,
      "KE": 303,
      "time": 304,
      "hath": 305,
      "II": 306,
      "qu": 307,
      "No": 308,
      "ure": 309,
      "irst": 310,
      "He": 311,
      "make": 312,
      "ol": 313,
      "ple": 314,
      "You": 315,
      "who": 316,
      "thing": 317,
      "row": 318,
      "must": 319,
      "gra": 320,
      "ound": 321,
      "ith": 322,
      "ap": 323,
      "ave": 324,
      "some": 325,
      "ook": 326,
      "should": 327,
      "OL": 328,
      "father": 329,
      "fi": 330,
      "LA": 331,
      "RO": 332,
      "TIO": 333,
      "use": 334,
      "ity": 335,
      "too": 336,
      "had": 337,
      "upon": 338,
      "son": 339,
      "did": 340,
      "CA": 341,
      "day": 342,
      "ig": 343,
      "ance": 344,
      "ward": 345,
      "ON": 346,
      "dis": 347,
      "how": 348,
      "wo": 349,
      "which": 350,
      "death": 351,
      "oun": 352,
      "reat": 353,
      "IS": 354,
      "word": 355,
      "fri": 356,
      "If": 357,
      "sp": 358,
      "when": 359,
      "est": 360,
      "men": 361,
      "speak": 362,
      "entle": 363,
      "In": 364,
      "heart": 365,
      "ICH": 366,
      "again": 367,
      "RICH": 368,
      "ful": 369,
      "vi": 370,
      "DU": 371,
      "DUKE": 372,
      "hand": 373,
      "yet": 374,
      "old": 375,
      "mar": 376,
      "el": 377,
      "Thou": 378,
      "UL": 379,
      "mine": 380,
      "very": 381,
      "think": 382,
      "RICHARD": 383,
      "ENTIO": 384,
      "take": 385,
      "Which": 386,
      "pl": 387,
      "si": 388,
      "swe": 389,
      "ac": 390,
      "God": 391,
      "hear": 392,
      "Be": 393,
      "With": 394,
      "ince": 395,
      "INC": 396,
      "str": 397,
      "ign": 398,
      "Why": 399,
      "give": 400,
      "Of": 401,
      "na": 402,
      "such": 403,
      "First": 404,
      "land": 405,
      "ang": 406,
      "AB": 407,
      "ness": 408,
      "uch": 409,
      "most": 410,
      "blood": 411,
      "des": 412,
      "ex": 413,
      "ster": 414,
      "brother": 415,
      "br": 416,
      "these": 417,
      "hea": 418,
      "tell": 419,
      "tis": 420,
      "any": 421,
      "ba": 422,
      "ey": 423,
      "UE": 424,
      "ise": 425,
      "onour": 426,
      "bre": 427,
      "other": 428,
      "im": 429,
      "where": 430,
      "How": 431,
      "que": 432,
      "llow": 433,
      "Come": 434,
      "less": 435,
      "ty": 436,
      "arm": 437,
      "life": 438,
      "This": 439,
      "TER": 440,
      "coun": 441,
      "look": 442,
      "new": 443,
      "So": 444,
      "ort": 445,
      "UCH": 446,
      "Who": 447,
      "friend": 448,
      "gentle": 449,
      "oul": 450,
      "GLO": 451,
      "ught": 452,
      "vo": 453,
      "UCES": 454,
      "GLOUCES": 455,
      "GLOUCESTER": 456,
      "chi": 457,
      "ars": 458,
      "af": 459,
      "mis": 460,
      "ving": 461,
      "hast": 462,
      "ady": 463,
      "Lord": 464,
      "ab": 465,
      "urse": 466,
      "ts": 467,
      "Rome": 468,
      "RY": 469,
      "night": 470,
      "rown": 471,
      "off": 472,
      "fair": 473,
      "made": 474,
      "age": 475,
      "LE": 476,
      "QUE": 477,
      "VINC": 478,
      "QUEEN": 479,
      "VINCENTIO": 480,
      "honour": 481,
      "OF": 482,
      "Se": 483,
      "much": 484,
      "ans": 485,
      "tion": 486,
      "ond": 487,
      "Is": 488,
      "Where": 489,
      "lie": 490,
      "urn": 491,
      "UM": 492,
      "LAN": 493,
      "stand": 494,
      "Mar": 495,
      "pre": 496,
      "HEN": 497,
      "cond": 498,
      "Now": 499,
      "che": 500,
      "name": 501,
      "tle": 502,
      "em": 503,
      "ef": 504,
      "HENRY": 505,
      "ng": 506,
      "ber": 507,
      "part": 508,
      "never": 509,
      "fear": 510,
      "io": 511,
      "Your": 512,
      "ces": 513,
      "ies": 514,
      "lt": 515,
      "live": 516,
      "ower": 517,
      "jo": 518,
      "ser": 519,
      "uke": 520,
      "It": 521,
      "call": 522,
      "great": 523,
      "ass": 524,
      "YOR": 525,
      "fo": 526,
      "head": 527,
      "YORK": 528,
      "ree": 529,
      "ment": 530,
      "und": 531,
      "Or": 532,
      "ation": 533,
      "INIUS": 534,
      "ever": 535,
      "pray": 536,
      "cannot": 537,
      "red": 538,
      "true": 539,
      "heaven": 540,
      "PET": 541,
      "ase": 542,
      "noble": 543,
      "fl": 544,
      "pa": 545,
      "been": 546,
      "sweet": 547,
      "fort": 548,
      "An": 549,
      "DW": 550,
      "EDW": 551,
      "co": 552,
      "EDWARD": 553,
      "GR": 554,
      "done": 555,
      "mer": 556,
      "bet": 557,
      ",--": 558,
      "TH": 559,
      "doth": 560,
      "iz": 561,
      "nor": 562,
      "ough": 563,
      "LUC": 564,
      "MEN": 565,
      "pt": 566,
      "res": 567,
      "Ay": 568,
      "da": 569,
      "pp": 570,
      "ull": 571,
      "war": 572,
      "ouse": 573,
      "There": 574,
      "ie": 575,
      "comm": 576,
      "gr": 577,
      "int": 578,
      "When": 579,
      "rest": 580,
      "Ed": 581,
      "wr": 582,
      "bear": 583,
      "ME": 584,
      "UT": 585,
      "grace": 586,
      "soul": 587,
      "before": 588,
      "ROME": 589,
      "Edward": 590,
      "ROMEO": 591,
      "By": 592,
      "sc": 593,
      "ss": 594,
      "ENIUS": 595,
      "both": 596,
      "world": 597,
      "MENENIUS": 598,
      "Ri": 599,
      "queen": 600,
      "ace": 601,
      "Here": 602,
      "Let": 603,
      "Then": 604,
      "comes": 605,
      "ughter": 606,
      "RUCH": 607,
      "down": 608,
      "pri": 609,
      "orn": 610,
      "dead": 611,
      "PETRUCH": 612,
      "PETRUCHIO": 613,
      "OM": 614,
      "ings": 615,
      "TES": 616,
      "long": 617,
      "ved": 618,
      "ite": 619,
      "pres": 620,
      "ake": 621,
      "ice": 622,
      "being": 623,
      "wick": 624,
      "Than": 625,
      "ru": 626,
      "leave": 627,
      "myself": 628,
      "hold": 629,
      "mother": 630,
      "Cl": 631,
      "HA": 632,
      "MAR": 633,
      "ore": 634,
      "set": 635,
      "cour": 636,
      "house": 637,
      "put": 638,
      "thus": 639,
      "cause": 640,
      "COR": 641,
      "IZ": 642,
      "op": 643,
      "ret": 644,
      "IOLAN": 645,
      "CORIOLAN": 646,
      "CORIOLANUS": 647,
      "Nor": 648,
      "tri": 649,
      "wife": 650,
      "Second": 651,
      "der": 652,
      "uck": 653,
      "whi": 654,
      "beg": 655,
      "eyes": 656,
      "deed": 657,
      "thought": 658,
      "BA": 659,
      "cl": 660,
      "Rich": 661,
      "dy": 662,
      "child": 663,
      "INA": 664,
      "poor": 665,
      "Do": 666,
      "She": 667,
      "itiz": 668,
      "die": 669,
      "itizen": 670,
      "foo": 671,
      "tra": 672,
      "led": 673,
      "away": 674,
      "IV": 675,
      "right": 676,
      "friends": 677,
      "ds": 678,
      "III": 679,
      "Sir": 680,
      "might": 681,
      "crown": 682,
      "ks": 683,
      "pla": 684,
      "atch": 685,
      "atter": 686,
      "stay": 687,
      "light": 688,
      "bid": 689,
      "ten": 690,
      "many": 691,
      "War": 692,
      "ft": 693,
      "ins": 694,
      "Warwick": 695,
      "ach": 696,
      "gri": 697,
      "lit": 698,
      "His": 699,
      "tre": 700,
      "Tis": 701,
      "ps": 702,
      "ison": 703,
      "pose": 704,
      "ELLA": 705,
      "cious": 706,
      "ISAB": 707,
      "ISABELLA": 708,
      "mi": 709,
      "ange": 710,
      "nothing": 711,
      "Romeo": 712,
      "daughter": 713,
      "RAN": 714,
      "bra": 715,
      "gone": 716,
      "kind": 717,
      "tal": 718,
      "tong": 719,
      "face": 720,
      "Well": 721,
      "mad": 722,
      "better": 723,
      "IET": 724,
      "JUL": 725,
      "kes": 726,
      "ose": 727,
      "par": 728,
      "ford": 729,
      "till": 730,
      "ONTES": 731,
      "LEONTES": 732,
      "JULIET": 733,
      "Nay": 734,
      "VI": 735,
      "gu": 736,
      "eng": 737,
      "though": 738,
      "prince": 739,
      "words": 740,
      "IL": 741,
      "ted": 742,
      "DY": 743,
      "able": 744,
      "ors": 745,
      "une": 746,
      "ears": 747,
      "LADY": 748,
      "CE": 749,
      "ST": 750,
      "VOL": 751,
      "wer": 752,
      "ENCE": 753,
      "show": 754,
      "BR": 755,
      "TA": 756,
      "ban": 757,
      "ither": 758,
      "tend": 759,
      "news": 760,
      "CL": 761,
      "Citizen": 762,
      "Ser": 763,
      "ic": 764,
      "sent": 765,
      "best": 766,
      "urder": 767,
      "against": 768,
      "Pro": 769,
      "those": 770,
      "joy": 771,
      "SIC": 772,
      "band": 773,
      "hour": 774,
      "sle": 775,
      "hence": 776,
      "lords": 777,
      "little": 778,
      "SICINIUS": 779,
      "far": 780,
      "tent": 781,
      "Sha": 782,
      "cy": 783,
      "ction": 784,
      "ardon": 785,
      "Un": 786,
      "pur": 787,
      "keep": 788,
      "tain": 789,
      "two": 790,
      "still": 791,
      "hel": 792,
      "char": 793,
      "dear": 794,
      "law": 795,
      "GRE": 796,
      "den": 797,
      "power": 798,
      "mean": 799,
      "forth": 800,
      "roy": 801,
      "himself": 802,
      "Not": 803,
      "full": 804,
      "Thy": 805,
      "back": 806,
      "LUCIO": 807,
      "its": 808,
      "unto": 809,
      "sub": 810,
      "Richard": 811,
      "Have": 812,
      "ech": 813,
      "peace": 814,
      "therefore": 815,
      "Will": 816,
      "bes": 817,
      "first": 818,
      "ren": 819,
      "iness": 820,
      "else": 821,
      "tongue": 822,
      "Yor": 823,
      "could": 824,
      "duke": 825,
      "high": 826,
      "ason": 827,
      "ried": 828,
      "hope": 829,
      "cut": 830,
      "hus": 831,
      "ought": 832,
      "ark": 833,
      "need": 834,
      "conf": 835,
      "find": 836,
      "lady": 837,
      "nat": 838,
      "thine": 839,
      "young": 840,
      "ETH": 841,
      "ELIZ": 842,
      "earth": 843,
      "ABETH": 844,
      "under": 845,
      "York": 846,
      "ELIZABETH": 847,
      "Good": 848,
      "cha": 849,
      "dre": 850,
      "thr": 851,
      "came": 852,
      "IAN": 853,
      "get": 854,
      "home": 855,
      "je": 856,
      "just": 857,
      "mind": 858,
      "ople": 859,
      "ran": 860,
      "master": 861,
      "Hen": 862,
      "Yet": 863,
      "once": 864,
      "people": 865,
      "husband": 866,
      "Henry": 867,
      "IA": 868,
      "pass": 869,
      "arewell": 870,
      "seem": 871,
      "place": 872,
      "PER": 873,
      "lay": 874,
      "sor": 875,
      "happ": 876,
      "qui": 877,
      "after": 878,
      "All": 879,
      "WAR": 880,
      "WIC": 881,
      "cle": 882,
      "fall": 883,
      "ste": 884,
      "Shall": 885,
      "WARWIC": 886,
      "WARWICK": 887,
      "vant": 888,
      "why": 889,
      "ister": 890,
      "bed": 891,
      "wel": 892,
      "fellow": 893,
      "follow": 894,
      "Nurse": 895,
      "last": 896,
      "none": 897,
      "They": 898,
      "please": 899,
      "HAM": 900,
      "PUL": 901,
      "dr": 902,
      "gi": 903,
      "hor": 904,
      "pardon": 905,
      "rep": 906,
      "hither": 907,
      "morrow": 908,
      "tru": 909,
      "said": 910,
      "CAPUL": 911,
      "CAPULET": 912,
      "bu": 913,
      "dou": 914,
      "every": 915,
      "gl": 916,
      "oud": 917,
      "hands": 918,
      "bring": 919,
      "MIO": 920,
      "gue": 921,
      "kill": 922,
      "pat": 923,
      "ousin": 924,
      "boy": 925,
      "woman": 926,
      "shi": 927,
      "shame": 928,
      "try": 929,
      "BUC": 930,
      "cent": 931,
      "mber": 932,
      "heard": 933,
      "tem": 934,
      "KINGHAM": 935,
      "UTUS": 936,
      "BRUTUS": 937,
      "BUCKINGHAM": 938,
      "BOL": 939,
      "BRO": 940,
      "From": 941,
      "TRAN": 942,
      "bus": 943,
      "clo": 944,
      "dra": 945,
      "ff": 946,
      "ius": 947,
      "jest": 948,
      "ates": 949,
      "INGBRO": 950,
      "ESS": 951,
      "LAU": 952,
      "BOLINGBRO": 953,
      "TRANIO": 954,
      "BOLINGBROKE": 955,
      "MIL": 956,
      "car": 957,
      "sand": 958,
      "uty": 959,
      "tears": 960,
      "whose": 961,
      "vost": 962,
      "present": 963,
      "Our": 964,
      "TIS": 965,
      "bri": 966,
      "ken": 967,
      "vy": 968,
      "maid": 969,
      "comp": 970,
      "royal": 971,
      "cer": 972,
      "cur": 973,
      "cess": 974,
      "sen": 975,
      "since": 976,
      "wit": 977,
      "state": 978,
      "lack": 979,
      "wrong": 980,
      "GAR": 981,
      "King": 982,
      "NE": 983,
      "fal": 984,
      "gar": 985,
      "meet": 986,
      "MARGAR": 987,
      "sorrow": 988,
      "MARGARET": 989,
      "ATH": 990,
      "gain": 991,
      "sun": 992,
      "prison": 993,
      "eye": 994,
      "On": 995,
      "vir": 996,
      "whom": 997,
      "CAL": 998,
      "while": 999,
      "help": 1000,
      "Bo": 1001,
      "GEL": 1002,
      "HOR": 1003,
      "gen": 1004,
      "les": 1005,
      "ning": 1006,
      "pi": 1007,
      "ting": 1008,
      "vere": 1009,
      "xt": 1010,
      "reme": 1011,
      "ition": 1012,
      "thousand": 1013,
      "ANGEL": 1014,
      "tress": 1015,
      "ORD": 1016,
      "selves": 1017,
      "gracious": 1018,
      "about": 1019,
      "answer": 1020,
      "Clar": 1021,
      "ANGELO": 1022,
      "CU": 1023,
      "Eng": 1024,
      "gre": 1025,
      "vil": 1026,
      "iss": 1027,
      "lies": 1028,
      "weep": 1029,
      "ARINA": 1030,
      "fool": 1031,
      "Clarence": 1032,
      "KATH": 1033,
      "mon": 1034,
      "wn": 1035,
      "ceive": 1036,
      "cius": 1037,
      "KATHARINA": 1038,
      "St": 1039,
      "over": 1040,
      "into": 1041,
      "vice": 1042,
      "gentleman": 1043,
      "Marcius": 1044,
      "cousin": 1045,
      "ged": 1046,
      "pet": 1047,
      "stri": 1048,
      "asure": 1049,
      "body": 1050,
      "Up": 1051,
      "turn": 1052,
      "ory": 1053,
      "sed": 1054,
      "ready": 1055,
      "form": 1056,
      "hate": 1057,
      "makes": 1058,
      "ESCAL": 1059,
      "spir": 1060,
      "grief": 1061,
      "ESCALUS": 1062,
      "Her": 1063,
      "Pr": 1064,
      "bt": 1065,
      "eld": 1066,
      "ud": 1067,
      "content": 1068,
      "anger": 1069,
      "ject": 1070,
      "Hath": 1071,
      "dost": 1072,
      "broke": 1073,
      "prove": 1074,
      "fortune": 1075,
      "AU": 1076,
      "DUCH": 1077,
      "Duke": 1078,
      "cra": 1079,
      "dow": 1080,
      "sl": 1081,
      "vill": 1082,
      "ery": 1083,
      "ary": 1084,
      "wilt": 1085,
      "DUCHESS": 1086,
      "pher": 1087,
      "rant": 1088,
      "itor": 1089,
      "unt": 1090,
      "pos": 1091,
      "ROS": 1092,
      "play": 1093,
      "Ange": 1094,
      "sleep": 1095,
      "kne": 1096,
      "sound": 1097,
      "anca": 1098,
      "faul": 1099,
      "thank": 1100,
      "times": 1101,
      "swear": 1102,
      "arms": 1103,
      "urderer": 1104,
      "Angelo": 1105,
      "eech": 1106,
      "ost": 1107,
      "wa": 1108,
      "indeed": 1109,
      "another": 1110,
      "ised": 1111,
      "grave": 1112,
      "CAMIL": 1113,
      "acc": 1114,
      "false": 1115,
      "CAMILLO": 1116,
      "Even": 1117,
      "Would": 1118,
      "bal": 1119,
      "even": 1120,
      "matter": 1121,
      "has": 1122,
      "comfort": 1123,
      "talk": 1124,
      "Provost": 1125,
      "happy": 1126,
      "pati": 1127,
      "Ty": 1128,
      "TEN": 1129,
      "fight": 1130,
      "med": 1131,
      "reason": 1132,
      "aint": 1133,
      "sure": 1134,
      "HORTEN": 1135,
      "vereign": 1136,
      "HORTENS": 1137,
      "FR": 1138,
      "IAR": 1139,
      "cor": 1140,
      "vent": 1141,
      "ouch": 1142,
      "only": 1143,
      "stra": 1144,
      "offi": 1145,
      "sovereign": 1146,
      "country": 1147,
      "banish": 1148,
      "Upon": 1149,
      "HORTENSIO": 1150,
      "FRIAR": 1151,
      ",'": 1152,
      "Are": 1153,
      "PTIS": 1154,
      "Thi": 1155,
      "care": 1156,
      "min": 1157,
      "send": 1158,
      "va": 1159,
      "wish": 1160,
      "years": 1161,
      "rather": 1162,
      "lieve": 1163,
      "BAPTIS": 1164,
      "truth": 1165,
      "virt": 1166,
      "BAPTISTA": 1167,
      "AUT": 1168,
      "CUS": 1169,
      "COM": 1170,
      "More": 1171,
      "YCUS": 1172,
      "bit": 1173,
      "ire": 1174,
      "sla": 1175,
      "reven": 1176,
      "onest": 1177,
      "got": 1178,
      "OLYCUS": 1179,
      "business": 1180,
      "AUTOLYCUS": 1181,
      "COMINIUS": 1182,
      ".'": 1183,
      "At": 1184,
      "EY": 1185,
      "hang": 1186,
      "ious": 1187,
      "rd": 1188,
      "spo": 1189,
      "wom": 1190,
      "want": 1191,
      "ene": 1192,
      "ARENCE": 1193,
      "shalt": 1194,
      "deser": 1195,
      "CLARENCE": 1196,
      "Third": 1197,
      "wind": 1198,
      "ye": 1199,
      "arn": 1200,
      "sea": 1201,
      "ury": 1202,
      "breath": 1203,
      "ield": 1204,
      "command": 1205,
      "dream": 1206,
      "pherd": 1207,
      "BEN": 1208,
      "Gentle": 1209,
      "NOR": 1210,
      "Sh": 1211,
      "Take": 1212,
      "prom": 1213,
      "three": 1214,
      "holy": 1215,
      "fect": 1216,
      "lau": 1217,
      "common": 1218,
      "Clown": 1219,
      "VOLIO": 1220,
      "BENVOLIO": 1221,
      "MER": 1222,
      "PA": 1223,
      "PROS": 1224,
      "Te": 1225,
      "igh": 1226,
      "pity": 1227,
      "tw": 1228,
      "enough": 1229,
      "sold": 1230,
      "UMIO": 1231,
      "GRUMIO": 1232,
      "PERO": 1233,
      "welcome": 1234,
      "horse": 1235,
      "doubt": 1236,
      "PROSPERO": 1237,
      "Kate": 1238,
      "Murderer": 1239,
      "air": 1240,
      "hum": 1241,
      "ator": 1242,
      "read": 1243,
      "bea": 1244,
      "lives": 1245,
      "pect": 1246,
      "CUTIO": 1247,
      "villain": 1248,
      "MERCUTIO": 1249,
      "Ju": 1250,
      "Li": 1251,
      "Were": 1252,
      "born": 1253,
      "free": 1254,
      "kiss": 1255,
      "late": 1256,
      "anta": 1257,
      "ask": 1258,
      "within": 1259,
      "gods": 1260,
      "worn": 1261,
      "LUCENTIO": 1262,
      "madam": 1263,
      "Servant": 1264,
      "nature": 1265,
      "Al": 1266,
      "POM": 1267,
      "cre": 1268,
      "city": 1269,
      "sister": 1270,
      "force": 1271,
      "ours": 1272,
      "things": 1273,
      "quest": 1274,
      "mistress": 1275,
      "LAND": 1276,
      "POMP": 1277,
      "Give": 1278,
      "Ro": 1279,
      "Was": 1280,
      "foul": 1281,
      "oath": 1282,
      "wound": 1283,
      "yield": 1284,
      "means": 1285,
      "ents": 1286,
      "enter": 1287,
      "proud": 1288,
      "saw": 1289,
      "fire": 1290,
      "ULINA": 1291,
      "subject": 1292,
      "beseech": 1293,
      "PAULINA": 1294,
      "Con": 1295,
      "Say": 1296,
      "ms": 1297,
      "seen": 1298,
      "rel": 1299,
      "oft": 1300,
      "deli": 1301,
      "yours": 1302,
      "faith": 1303,
      "gether": 1304,
      "appe": 1305,
      "onder": 1306,
      "GREMIO": 1307,
      "gainst": 1308,
      "POMPEY": 1309,
      "IX": 1310,
      "Look": 1311,
      "NIA": 1312,
      "POL": 1313,
      "cla": 1314,
      "gro": 1315,
      "honest": 1316,
      "ier": 1317,
      "pain": 1318,
      "sm": 1319,
      "win": 1320,
      "dem": 1321,
      "yourself": 1322,
      "ENES": 1323,
      "vers": 1324,
      "ANT": 1325,
      "trust": 1326,
      "bles": 1327,
      "plain": 1328,
      "bloody": 1329,
      "looks": 1330,
      "UMNIA": 1331,
      "court": 1332,
      "VOLUMNIA": 1333,
      "gener": 1334,
      "England": 1335,
      "Tybal": 1336,
      "IXENES": 1337,
      "POLIXENES": 1338,
      "BER": 1339,
      "GON": 1340,
      "Some": 1341,
      "ior": 1342,
      "vis": 1343,
      "beat": 1344,
      "uncle": 1345,
      "INGS": 1346,
      "break": 1347,
      "vingman": 1348,
      "haste": 1349,
      "HAST": 1350,
      "traitor": 1351,
      "enger": 1352,
      "Servingman": 1353,
      "ship": 1354,
      "centio": 1355,
      "Tybalt": 1356,
      "HASTINGS": 1357,
      "Can": 1358,
      "Did": 1359,
      "Hast": 1360,
      "May": 1361,
      "RENCE": 1362,
      "bat": 1363,
      "sin": 1364,
      "sit": 1365,
      "together": 1366,
      "hal": 1367,
      "change": 1368,
      "unes": 1369,
      "majest": 1370,
      "point": 1371,
      "person": 1372,
      "days": 1373,
      "thinks": 1374,
      "children": 1375,
      "tender": 1376,
      "LAURENCE": 1377,
      "Ah": 1378,
      "BY": 1379,
      "Pet": 1380,
      "danger": 1381,
      "ga": 1382,
      "lam": 1383,
      "sight": 1384,
      "sword": 1385,
      "wis": 1386,
      "wat": 1387,
      "told": 1388,
      "left": 1389,
      "ows": 1390,
      "wear": 1391,
      "adv": 1392,
      "cks": 1393,
      "woe": 1394,
      "mercy": 1395,
      "warrant": 1396,
      "Therefore": 1397,
      "foot": 1398,
      "Juli": 1399,
      "majesty": 1400,
      "FF": 1401,
      "IFF": 1402,
      "farewell": 1403,
      "ling": 1404,
      "ze": 1405,
      "ones": 1406,
      "ute": 1407,
      "lif": 1408,
      "dest": 1409,
      "save": 1410,
      "UMBER": 1411,
      "THUMBER": 1412,
      "CLIFF": 1413,
      "report": 1414,
      "NORTHUMBER": 1415,
      "NORTHUMBERLAND": 1416,
      "ID": 1417,
      "Lu": 1418,
      "Mon": 1419,
      "cold": 1420,
      "rance": 1421,
      "sing": 1422,
      "sad": 1423,
      "ush": 1424,
      "does": 1425,
      "gold": 1426,
      "worthy": 1427,
      "known": 1428,
      "marry": 1429,
      "Though": 1430,
      "ches": 1431,
      "return": 1432,
      "justice": 1433,
      "draw": 1434,
      "Tell": 1435,
      "half": 1436,
      "Cor": 1437,
      "Com": 1438,
      "grow": 1439,
      "hard": 1440,
      "ner": 1441,
      "nurse": 1442,
      "run": 1443,
      "ist": 1444,
      "believe": 1445,
      "without": 1446,
      "soon": 1447,
      "sue": 1448,
      "ters": 1449,
      "ANNE": 1450,
      "heavy": 1451,
      "purpose": 1452,
      "through": 1453,
      "Clif": 1454,
      "Had": 1455,
      "Le": 1456,
      "PR": 1457,
      "Sign": 1458,
      "Whi": 1459,
      "athe": 1460,
      "fly": 1461,
      "ily": 1462,
      "sil": 1463,
      "heir": 1464,
      "lost": 1465,
      "pluck": 1466,
      "INCE": 1467,
      "strange": 1468,
      "Juliet": 1469,
      "PRINCE": 1470,
      "Bol": 1471,
      "Gre": 1472,
      "cry": 1473,
      "curse": 1474,
      "fit": 1475,
      "found": 1476,
      "obe": 1477,
      "pen": 1478,
      "past": 1479,
      "ingbroke": 1480,
      "bel": 1481,
      "ceed": 1482,
      "enty": 1483,
      "loss": 1484,
      "thyself": 1485,
      "near": 1486,
      "cons": 1487,
      "says": 1488,
      "liege": 1489,
      "charge": 1490,
      "spirit": 1491,
      "Clifford": 1492,
      "Signior": 1493,
      "Bolingbroke": 1494,
      "Away": 1495,
      "Cam": 1496,
      "Farewell": 1497,
      "Me": 1498,
      "One": 1499,
      "Re": 1500,
      "fet": 1501,
      "ide": 1502,
      "sworn": 1503,
      "tit": 1504,
      "tro": 1505,
      "wall": 1506,
      "outh": 1507,
      "hed": 1508,
      "ham": 1509,
      "dom": 1510,
      "strong": 1511,
      "Whose": 1512,
      "pair": 1513,
      "ground": 1514,
      "Should": 1515,
      "ALO": 1516,
      "Ca": 1517,
      "gs": 1518,
      "ices": 1519,
      "woo": 1520,
      "wise": 1521,
      "ina": 1522,
      "instr": 1523,
      "deep": 1524,
      "devil": 1525,
      "entreat": 1526,
      "fast": 1527,
      "bold": 1528,
      "aster": 1529,
      "used": 1530,
      "friar": 1531,
      "married": 1532,
      "service": 1533,
      "ength": 1534,
      "Pray": 1535,
      "claim": 1536,
      "Monta": 1537,
      "France": 1538,
      "Gl": 1539,
      "Sen": 1540,
      "ather": 1541,
      "dare": 1542,
      "ench": 1543,
      "toward": 1544,
      "def": 1545,
      "ides": 1546,
      "sup": 1547,
      "quar": 1548,
      "thoughts": 1549,
      "quick": 1550,
      "remember": 1551,
      "slain": 1552,
      "fault": 1553,
      "straight": 1554,
      "Like": 1555,
      "FL": 1556,
      "FID": 1557,
      "Jo": 1558,
      "Mess": 1559,
      "cr": 1560,
      "cal": 1561,
      "ecut": 1562,
      "fol": 1563,
      "ob": 1564,
      "ph": 1565,
      "touch": 1566,
      "ats": 1567,
      "learn": 1568,
      "choo": 1569,
      "alone": 1570,
      "lose": 1571,
      "These": 1572,
      "suit": 1573,
      "press": 1574,
      "ends": 1575,
      "ORIZ": 1576,
      "same": 1577,
      "worth": 1578,
      "loved": 1579,
      "mark": 1580,
      "course": 1581,
      "open": 1582,
      "AUFID": 1583,
      "enemy": 1584,
      "beauty": 1585,
      "general": 1586,
      "FLORIZ": 1587,
      "Messenger": 1588,
      "AUFIDIUS": 1589,
      "FLORIZEL": 1590,
      "Clau": 1591,
      "SE": 1592,
      "act": 1593,
      "bir": 1594,
      "bour": 1595,
      "cro": 1596,
      "fur": 1597,
      "ied": 1598,
      "widow": 1599,
      "ION": 1600,
      "prof": 1601,
      "dio": 1602,
      "side": 1603,
      "execut": 1604,
      "brought": 1605,
      "See": 1606,
      "grant": 1607,
      "hours": 1608,
      "revenge": 1609,
      "twenty": 1610,
      "Claudio": 1611,
      "!'": 1612,
      "Ha": 1613,
      "Mad": 1614,
      "bow": 1615,
      "duty": 1616,
      "jud": 1617,
      "ses": 1618,
      "youth": 1619,
      "rew": 1620,
      "itself": 1621,
      "rich": 1622,
      "som": 1623,
      "feel": 1624,
      "consu": 1625,
      "ERS": 1626,
      "move": 1627,
      "mock": 1628,
      "work": 1629,
      "canst": 1630,
      "knows": 1631,
      "speed": 1632,
      "umber": 1633,
      "confess": 1634,
      "Gentleman": 1635,
      "Senator": 1636,
      "Madam": 1637,
      "Against": 1638,
      "CIUS": 1639,
      "Cap": 1640,
      "De": 1641,
      "Master": 1642,
      "bs": 1643,
      "bound": 1644,
      "dam": 1645,
      "ped": 1646,
      "ua": 1647,
      "val": 1648,
      "ouce": 1649,
      "lead": 1650,
      "cho": 1651,
      "riage": 1652,
      "order": 1653,
      "illo": 1654,
      "ils": 1655,
      "sake": 1656,
      "pleasure": 1657,
      "field": 1658,
      "desire": 1659,
      "counter": 1660,
      "stands": 1661,
      "ched": 1662,
      "serve": 1663,
      "resol": 1664,
      "MARCIUS": 1665,
      "BAST": 1666,
      "Shepherd": 1667,
      "company": 1668,
      "women": 1669,
      "Montague": 1670,
      "Glouce": 1671,
      "SEBAST": 1672,
      "SEBASTIAN": 1673,
      "MON": 1674,
      "OW": 1675,
      "burn": 1676,
      "dish": 1677,
      "either": 1678,
      "ges": 1679,
      "harm": 1680,
      "mus": 1681,
      "murder": 1682,
      "met": 1683,
      "hes": 1684,
      "hell": 1685,
      "ingham": 1686,
      "behold": 1687,
      "chance": 1688,
      "fection": 1689,
      "Thus": 1690,
      "hearts": 1691,
      "counsel": 1692,
      "fearful": 1693,
      "Camillo": 1694,
      "Buck": 1695,
      "BION": 1696,
      "DEL": 1697,
      "Till": 1698,
      "Vol": 1699,
      "au": 1700,
      "dro": 1701,
      "each": 1702,
      "fer": 1703,
      "ici": 1704,
      "sat": 1705,
      "sur": 1706,
      "vour": 1707,
      "wret": 1708,
      "bell": 1709,
      "hot": 1710,
      "loving": 1711,
      "suc": 1712,
      "short": 1713,
      "tale": 1714,
      "test": 1715,
      "marriage": 1716,
      "strike": 1717,
      "Hastings": 1718,
      "Gloucester": 1719,
      "Buckingham": 1720,
      "BIONDEL": 1721,
      "BIONDELLO": 1722,
      "Au": 1723,
      "Ch": 1724,
      "cri": 1725,
      "du": 1726,
      "fid": 1727,
      "mit": 1728,
      "pie": 1729,
      "sign": 1730,
      "won": 1731,
      "wonder": 1732,
      "attend": 1733,
      "sto": 1734,
      "stu": 1735,
      "ash": 1736,
      "ween": 1737,
      "withal": 1738,
      "rah": 1739,
      "cast": 1740,
      "safe": 1741,
      "something": 1742,
      "sick": 1743,
      "voices": 1744,
      "miss": 1745,
      "pret": 1746,
      "Norfol": 1747,
      "guil": 1748,
      "highness": 1749,
      "given": 1750,
      "patience": 1751,
      "deliver": 1752,
      "Vols": 1753,
      "Norfolk": 1754,
      "AUM": 1755,
      "HER": 1756,
      "OP": 1757,
      "cred": 1758,
      "kn": 1759,
      "knew": 1760,
      "ls": 1761,
      "pit": 1762,
      "pra": 1763,
      "ring": 1764,
      "wast": 1765,
      "watch": 1766,
      "ined": 1767,
      "wixt": 1768,
      "alth": 1769,
      "ally": 1770,
      "loves": 1771,
      "suff": 1772,
      "ERLE": 1773,
      "coming": 1774,
      "Wel": 1775,
      "took": 1776,
      "didst": 1777,
      "ONIO": 1778,
      "strength": 1779,
      "gentlemen": 1780,
      "heavens": 1781,
      "flatter": 1782,
      "pale": 1783,
      "posed": 1784,
      "Roman": 1785,
      "ANTONIO": 1786,
      "Lucentio": 1787,
      "AUMERLE": 1788,
      "Bi": 1789,
      "Lanca": 1790,
      "Po": 1791,
      "ZALO": 1792,
      "aw": 1793,
      "bar": 1794,
      "ger": 1795,
      "hood": 1796,
      "lad": 1797,
      "ris": 1798,
      "thri": 1799,
      "enem": 1800,
      "stir": 1801,
      "become": 1802,
      "cept": 1803,
      "lips": 1804,
      "mortal": 1805,
      "post": 1806,
      "Marry": 1807,
      "brave": 1808,
      "tempt": 1809,
      "GONZALO": 1810,
      "Lancaster": 1811,
      "enemies": 1812,
      "Lo": 1813,
      "Lady": 1814,
      "Most": 1815,
      "Pom": 1816,
      "SA": 1817,
      "Ye": 1818,
      "abo": 1819,
      "bly": 1820,
      "book": 1821,
      "eper": 1822,
      "gates": 1823,
      "wed": 1824,
      "ished": 1825,
      "ons": 1826,
      "held": 1827,
      "ced": 1828,
      "hop": 1829,
      "next": 1830,
      "poss": 1831,
      "seek": 1832,
      "thanks": 1833,
      "cient": 1834,
      "prop": 1835,
      "breathe": 1836,
      "cover": 1837,
      "souls": 1838,
      "certain": 1839,
      "ceived": 1840,
      "water": 1841,
      "title": 1842,
      "suffer": 1843,
      "Bianca": 1844,
      "Bes": 1845,
      "CLAU": 1846,
      "DIO": 1847,
      "Pl": 1848,
      "Tran": 1849,
      "brow": 1850,
      "cure": 1851,
      "four": 1852,
      "gave": 1853,
      "mouth": 1854,
      "wh": 1855,
      "often": 1856,
      "rage": 1857,
      "main": 1858,
      "consent": 1859,
      "poison": 1860,
      "bosom": 1861,
      "themselves": 1862,
      "breast": 1863,
      "chee": 1864,
      "cheer": 1865,
      "join": 1866,
      "merry": 1867,
      "grie": 1868,
      "MIONE": 1869,
      "Alas": 1870,
      "Petru": 1871,
      "CLIFFORD": 1872,
      "HERMIONE": 1873,
      "CLAUDIO": 1874,
      "Call": 1875,
      "DA": 1876,
      "IRAN": 1877,
      "JO": 1878,
      "LORD": 1879,
      "Make": 1880,
      "MIRAN": 1881,
      "Per": 1882,
      "Since": 1883,
      "black": 1884,
      "bunes": 1885,
      "ding": 1886,
      "dden": 1887,
      "iers": 1888,
      "kno": 1889,
      "tin": 1890,
      "tor": 1891,
      "twas": 1892,
      "twere": 1893,
      "wd": 1894,
      "throw": 1895,
      "vel": 1896,
      "oward": 1897,
      "forget": 1898,
      "ered": 1899,
      "eds": 1900,
      "weak": 1901,
      "along": 1902,
      "ended": 1903,
      "worse": 1904,
      "div": 1905,
      "Being": 1906,
      "chio": 1907,
      "foe": 1908,
      "virtu": 1909,
      "virtue": 1910,
      "appear": 1911,
      "further": 1912,
      "Aufid": 1913,
      "Tranio": 1914,
      "Petruchio": 1915,
      "MIRANDA": 1916,
      "Aufidius": 1917,
      "HN": 1918,
      "Spe": 1919,
      "SON": 1920,
      "ade": 1921,
      "bad": 1922,
      "bur": 1923,
      "fir": 1924,
      "lst": 1925,
      "pare": 1926,
      "sk": 1927,
      "spr": 1928,
      "issue": 1929,
      "request": 1930,
      "liant": 1931,
      "liber": 1932,
      "already": 1933,
      "usur": 1934,
      "morning": 1935,
      "kings": 1936,
      "fles": 1937,
      "writ": 1938,
      "Hereford": 1939,
      "begin": 1940,
      "office": 1941,
      "battle": 1942,
      "dangerous": 1943,
      "satis": 1944,
      "JOHN": 1945,
      "Tower": 1946,
      "Yes": 1947,
      "aunt": 1948,
      "creat": 1949,
      "frown": 1950,
      "hind": 1951,
      "iol": 1952,
      "mond": 1953,
      "pay": 1954,
      "pal": 1955,
      "plo": 1956,
      "inter": 1957,
      "anus": 1958,
      "orge": 1959,
      "arry": 1960,
      "hip": 1961,
      "feast": 1962,
      "neither": 1963,
      "trou": 1964,
      "goes": 1965,
      "case": 1966,
      "bless": 1967,
      "thence": 1968,
      "dire": 1969,
      "ways": 1970,
      "sons": 1971,
      "Before": 1972,
      "servant": 1973,
      "between": 1974,
      "Richmond": 1975,
      "mile": 1976,
      "patient": 1977,
      "soldiers": 1978,
      "wounds": 1979,
      "Coriol": 1980,
      "quarrel": 1981,
      "Welcome": 1982,
      "possess": 1983,
      "Coriolanus": 1984,
      "AS": 1985,
      "Ar": 1986,
      "Must": 1987,
      "NT": 1988,
      "Pe": 1989,
      "Such": 1990,
      "bla": 1991,
      "cc": 1992,
      "fra": 1993,
      "fres": 1994,
      "mas": 1995,
      "od": 1996,
      "pite": 1997,
      "rup": 1998,
      "rough": 1999,
      "whe": 2000,
      "mes": 2001,
      "town": 2002,
      "having": 2003,
      "owers": 2004,
      "cell": 2005,
      "alk": 2006,
      "unk": 2007,
      "sum": 2008,
      "dies": 2009,
      "speech": 2010,
      "CATES": 2011,
      "vict": 2012,
      "sigh": 2013,
      "sible": 2014,
      "Because": 2015,
      "base": 2016,
      "voice": 2017,
      "offer": 2018,
      "Margar": 2019,
      "presence": 2020,
      "Unless": 2021,
      "dread": 2022,
      "bride": 2023,
      "brief": 2024,
      "spoke": 2025,
      "consul": 2026,
      "Speak": 2027,
      "CATESBY": 2028,
      "Margaret": 2029,
      "Bap": 2030,
      "Ke": 2031,
      "Lond": 2032,
      "Saint": 2033,
      "col": 2034,
      "dark": 2035,
      "fill": 2036,
      "hur": 2037,
      "rum": 2038,
      "ub": 2039,
      "vow": 2040,
      "wars": 2041,
      "arl": 2042,
      "aris": 2043,
      "ona": 2044,
      "llo": 2045,
      "forward": 2046,
      "lip": 2047,
      "Their": 2048,
      "vile": 2049,
      "action": 2050,
      "Whom": 2051,
      "heads": 2052,
      "scar": 2053,
      "deeds": 2054,
      "mighty": 2055,
      "GREY": 2056,
      "deny": 2057,
      "natur": 2058,
      "chamber": 2059,
      "throne": 2060,
      "seems": 2061,
      "close": 2062,
      "Both": 2063,
      "promise": 2064,
      "visit": 2065,
      "Baptis": 2066,
      "London": 2067,
      "BIAN": 2068,
      "Ere": 2069,
      "Ge": 2070,
      "Isa": 2071,
      "Lest": 2072,
      "Mer": 2073,
      "Mis": 2074,
      "Paris": 2075,
      "RIV": 2076,
      "Tr": 2077,
      "bury": 2078,
      "eth": 2079,
      "ging": 2080,
      "har": 2081,
      "ima": 2082,
      "mb": 2083,
      "swi": 2084,
      "sal": 2085,
      "soft": 2086,
      "ancient": 2087,
      "stain": 2088,
      "reg": 2089,
      "chang": 2090,
      "urch": 2091,
      "sol": 2092,
      "mast": 2093,
      "ided": 2094,
      "vern": 2095,
      "sudden": 2096,
      "moon": 2097,
      "ions": 2098,
      "wash": 2099,
      "worship": 2100,
      "umpet": 2101,
      "umph": 2102,
      "viol": 2103,
      "ments": 2104,
      "prayers": 2105,
      "respect": 2106,
      "BAL": 2107,
      "clou": 2108,
      "trem": 2109,
      "princely": 2110,
      "BRA": 2111,
      "fully": 2112,
      "buy": 2113,
      "bitter": 2114,
      "Baptista": 2115,
      "BIANCA": 2116,
      "George": 2117,
      "RIVERS": 2118,
      "BOW": 2119,
      "GAU": 2120,
      "Pa": 2121,
      "Tho": 2122,
      "ack": 2123,
      "coward": 2124,
      "ew": 2125,
      "eat": 2126,
      "eas": 2127,
      "gall": 2128,
      "ian": 2129,
      "uct": 2130,
      "seat": 2131,
      "rever": 2132,
      "hide": 2133,
      "favour": 2134,
      "oney": 2135,
      "til": 2136,
      "prin": 2137,
      "ELBOW": 2138,
      "ured": 2139,
      "pleas": 2140,
      "count": 2141,
      "orten": 2142,
      "scorn": 2143,
      "North": 2144,
      "triumph": 2145,
      "lawful": 2146,
      "presently": 2147,
      "witness": 2148,
      "Stand": 2149,
      "valiant": 2150,
      "slave": 2151,
      "antage": 2152,
      "lament": 2153,
      "fetch": 2154,
      "cross": 2155,
      "music": 2156,
      "success": 2157,
      "flesh": 2158,
      "GAUNT": 2159,
      "GUE": 2160,
      "Hold": 2161,
      "Hark": 2162,
      "Horten": 2163,
      "Ox": 2164,
      "TY": 2165,
      "aven": 2166,
      "boo": 2167,
      "ease": 2168,
      "fond": 2169,
      "ile": 2170,
      "ife": 2171,
      "ick": 2172,
      "kins": 2173,
      "nay": 2174,
      "occ": 2175,
      "port": 2176,
      "patch": 2177,
      "sper": 2178,
      "stant": 2179,
      "least": 2180,
      "almost": 2181,
      "willing": 2182,
      "gest": 2183,
      "moved": 2184,
      "appro": 2185,
      "sio": 2186,
      "prithee": 2187,
      "tribunes": 2188,
      "TAGUE": 2189,
      "quiet": 2190,
      "faults": 2191,
      "demn": 2192,
      "MONTAGUE": 2193,
      "Hortensio": 2194,
      "Kath": 2195,
      "aid": 2196,
      "bor": 2197,
      "cen": 2198,
      "dle": 2199,
      "gent": 2200,
      "ked": 2201,
      "lar": 2202,
      "low": 2203,
      "mid": 2204,
      "match": 2205,
      "tune": 2206,
      "warm": 2207,
      "thither": 2208,
      "arina": 2209,
      "stor": 2210,
      "hemi": 2211,
      "beast": 2212,
      "ley": 2213,
      "cher": 2214,
      "depart": 2215,
      "ooth": 2216,
      "mali": 2217,
      "pey": 2218,
      "feit": 2219,
      "tic": 2220,
      "god": 2221,
      "kingdom": 2222,
      "aked": 2223,
      "died": 2224,
      "cience": 2225,
      "fie": 2226,
      "fied": 2227,
      "bawd": 2228,
      "Doth": 2229,
      "brace": 2230,
      "Bohemi": 2231,
      "Stay": 2232,
      "slaughter": 2233,
      "subjects": 2234,
      "small": 2235,
      "defend": 2236,
      "execution": 2237,
      "umberland": 2238,
      "pretty": 2239,
      "Pompey": 2240,
      "Yea": 2241,
      "Peace": 2242,
      "Northumberland": 2243,
      "Oxford": 2244,
      "Katharina": 2245,
      "DI": 2246,
      "Ex": 2247,
      "GIL": 2248,
      "IEL": 2249,
      "RGIL": 2250,
      "Swe": 2251,
      "awhile": 2252,
      "sland": 2253,
      "vol": 2254,
      "year": 2255,
      "ines": 2256,
      "inno": 2257,
      "lect": 2258,
      "wild": 2259,
      "living": 2260,
      "rid": 2261,
      "trumpet": 2262,
      "ERD": 2263,
      "tear": 2264,
      "govern": 2265,
      "goodly": 2266,
      "perate": 2267,
      "proceed": 2268,
      "hadst": 2269,
      "whence": 2270,
      "hearing": 2271,
      "offence": 2272,
      "ledge": 2273,
      "mild": 2274,
      "VIRGIL": 2275,
      "guard": 2276,
      "wert": 2277,
      "PERDI": 2278,
      "drink": 2279,
      "glad": 2280,
      "greet": 2281,
      "soldier": 2282,
      "obedi": 2283,
      "quickly": 2284,
      "birth": 2285,
      "dishonour": 2286,
      "piece": 2287,
      "knock": 2288,
      "virtuous": 2289,
      "fresh": 2290,
      "Paul": 2291,
      "Bohemia": 2292,
      "Sweet": 2293,
      "VIRGILIA": 2294,
      "PERDITA": 2295,
      "LY": 2296,
      "SLY": 2297,
      "cli": 2298,
      "cord": 2299,
      "corn": 2300,
      "fled": 2301,
      "gn": 2302,
      "gir": 2303,
      "hun": 2304,
      "lish": 2305,
      "mir": 2306,
      "mio": 2307,
      "ny": 2308,
      "ror": 2309,
      "sort": 2310,
      "ues": 2311,
      "zed": 2312,
      "thor": 2313,
      "isure": 2314,
      "stood": 2315,
      "measure": 2316,
      "reck": 2317,
      "leisure": 2318,
      "church": 2319,
      "lic": 2320,
      "ket": 2321,
      "oop": 2322,
      "doing": 2323,
      "ties": 2324,
      "neck": 2325,
      "contin": 2326,
      "ustom": 2327,
      "bling": 2328,
      "blows": 2329,
      "akes": 2330,
      "worst": 2331,
      "perform": 2332,
      "astard": 2333,
      "lands": 2334,
      "angry": 2335,
      "affection": 2336,
      "greater": 2337,
      "MARIAN": 2338,
      "treason": 2339,
      "kindness": 2340,
      "drum": 2341,
      "pier": 2342,
      "weeping": 2343,
      "possible": 2344,
      "knee": 2345,
      "kneel": 2346,
      "banishment": 2347,
      "deserved": 2348,
      "guilty": 2349,
      "trouble": 2350,
      "natural": 2351,
      "Isabel": 2352,
      "MARIANA": 2353,
      "Af": 2354,
      "Am": 2355,
      "Bl": 2356,
      "Fa": 2357,
      "Grum": 2358,
      "Out": 2359,
      "Pri": 2360,
      "Pad": 2361,
      "PAR": 2362,
      "RA": 2363,
      "Watch": 2364,
      "big": 2365,
      "citizen": 2366,
      "dar": 2367,
      "doo": 2368,
      "evil": 2369,
      "fing": 2370,
      "fine": 2371,
      "five": 2372,
      "ker": 2373,
      "mut": 2374,
      "sus": 2375,
      "zen": 2376,
      "inf": 2377,
      "stre": 2378,
      "noise": 2379,
      "seal": 2380,
      "second": 2381,
      "reign": 2382,
      "because": 2383,
      "behind": 2384,
      "lease": 2385,
      "forbid": 2386,
      "assa": 2387,
      "aside": 2388,
      "ourselves": 2389,
      "eter": 2390,
      "sole": 2391,
      "dog": 2392,
      "pest": 2393,
      "lock": 2394,
      "condemn": 2395,
      "shepherd": 2396,
      "blow": 2397,
      "wouldst": 2398,
      "letter": 2399,
      "letters": 2400,
      "broad": 2401,
      "ument": 2402,
      "sport": 2403,
      "speaks": 2404,
      "march": 2405,
      "ignor": 2406,
      "grand": 2407,
      "beggar": 2408,
      "Sirrah": 2409,
      "shows": 2410,
      "sentence": 2411,
      "slew": 2412,
      "needs": 2413,
      "sense": 2414,
      "prisoner": 2415,
      "genet": 2416,
      "English": 2417,
      "position": 2418,
      "antagenet": 2419,
      "While": 2420,
      "Gremio": 2421,
      "obey": 2422,
      "conscience": 2423,
      "ladies": 2424,
      "Plantagenet": 2425,
      "liberty": 2426,
      "usurp": 2427,
      "clouds": 2428,
      "Grumio": 2429,
      "Padua": 2430,
      "PARIS": 2431,
      ":'": 2432,
      "Dis": 2433,
      "Fear": 2434,
      "Gaunt": 2435,
      "Men": 2436,
      "Ped": 2437,
      "Too": 2438,
      "Ver": 2439,
      "ale": 2440,
      "bones": 2441,
      "cing": 2442,
      "cret": 2443,
      "cried": 2444,
      "dry": 2445,
      "fat": 2446,
      "hund": 2447,
      "kin": 2448,
      "lp": 2449,
      "ual": 2450,
      "vain": 2451,
      "walk": 2452,
      "yond": 2453,
      "eness": 2454,
      "ators": 2455,
      "stone": 2456,
      "stop": 2457,
      "sever": 2458,
      "secret": 2459,
      "vey": 2460,
      "ities": 2461,
      "lea": 2462,
      "note": 2463,
      "few": 2464,
      "ider": 2465,
      "manner": 2466,
      "conce": 2467,
      "Think": 2468,
      "laid": 2469,
      "iles": 2470,
      "shed": 2471,
      "prosper": 2472,
      "quo": 2473,
      "quit": 2474,
      "dispatch": 2475,
      "fright": 2476,
      "spur": 2477,
      "plant": 2478,
      "lived": 2479,
      "PETER": 2480,
      "longer": 2481,
      "banished": 2482,
      "drunk": 2483,
      "glass": 2484,
      "womb": 2485,
      "golden": 2486,
      "choose": 2487,
      "damn": 2488,
      "Chris": 2489,
      "above": 2490,
      "victory": 2491,
      "swift": 2492,
      "masters": 2493,
      "slander": 2494,
      "hundred": 2495,
      "!--": 2496,
      "Could": 2497,
      "Cates": 2498,
      "DOR": 2499,
      "En": 2500,
      "Earl": 2501,
      "Fri": 2502,
      "LAR": 2503,
      "TIUS": 2504,
      "Wor": 2505,
      "WIS": 2506,
      "XI": 2507,
      "aking": 2508,
      "ail": 2509,
      "din": 2510,
      "dge": 2511,
      "drown": 2512,
      "fru": 2513,
      "lust": 2514,
      "moun": 2515,
      "ot": 2516,
      "phy": 2517,
      "sca": 2518,
      "uri": 2519,
      "ulet": 2520,
      "uction": 2521,
      "wain": 2522,
      "threat": 2523,
      "erle": 2524,
      "inius": 2525,
      "ances": 2526,
      "encounter": 2527,
      "tol": 2528,
      "hap": 2529,
      "bears": 2530,
      "wice": 2531,
      "forgot": 2532,
      "asion": 2533,
      "nder": 2534,
      "liest": 2535,
      "weary": 2536,
      "yourselves": 2537,
      "add": 2538,
      "ures": 2539,
      "host": 2540,
      "ARIEL": 2541,
      "shadow": 2542,
      "arden": 2543,
      "uel": 2544,
      "labour": 2545,
      "ilt": 2546,
      "venge": 2547,
      "ular": 2548,
      "knowledge": 2549,
      "proof": 2550,
      "quite": 2551,
      "oler": 2552,
      "woes": 2553,
      "despair": 2554,
      "desperate": 2555,
      "exc": 2556,
      "bray": 2557,
      "LEWIS": 2558,
      "precious": 2559,
      "effect": 2560,
      "pride": 2561,
      "Citizens": 2562,
      "lordship": 2563,
      "Unto": 2564,
      "steel": 2565,
      "double": 2566,
      "glory": 2567,
      "knees": 2568,
      "entertain": 2569,
      "blessed": 2570,
      "towards": 2571,
      "Capulet": 2572,
      "kinsman": 2573,
      "Watchman": 2574,
      "citizens": 2575,
      "Catesby": 2576,
      "LARTIUS": 2577,
      ";'": 2578,
      "Ab": 2579,
      "Ad": 2580,
      "Aum": 2581,
      "Bro": 2582,
      "MP": 2583,
      "Mow": 2584,
      "Pardon": 2585,
      "RTIS": 2586,
      "alive": 2587,
      "ben": 2588,
      "bastard": 2589,
      "dance": 2590,
      "fought": 2591,
      "grown": 2592,
      "gment": 2593,
      "hn": 2594,
      "mour": 2595,
      "mend": 2596,
      "money": 2597,
      "por": 2598,
      "pes": 2599,
      "sour": 2600,
      "schoo": 2601,
      "ude": 2602,
      "wench": 2603,
      "inking": 2604,
      "enjoy": 2605,
      "army": 2606,
      "ated": 2607,
      "methinks": 2608,
      "seven": 2609,
      "hair": 2610,
      "remain": 2611,
      "itors": 2612,
      "hire": 2613,
      "ires": 2614,
      "deter": 2615,
      "kept": 2616,
      "ads": 2617,
      "allow": 2618,
      "unts": 2619,
      "arest": 2620,
      "shake": 2621,
      "neigh": 2622,
      "contr": 2623,
      "table": 2624,
      "going": 2625,
      "proclaim": 2626,
      "ounds": 2627,
      "spent": 2628,
      "sim": 2629,
      "Within": 2630,
      "struck": 2631,
      "honours": 2632,
      "prepar": 2633,
      "ations": 2634,
      "flowers": 2635,
      "deadly": 2636,
      "clam": 2637,
      "guess": 2638,
      "understand": 2639,
      "steal": 2640,
      "guest": 2641,
      "CURTIS": 2642,
      "foolish": 2643,
      "promised": 2644,
      "John": 2645,
      "author": 2646,
      "wretched": 2647,
      "SAMP": 2648,
      "white": 2649,
      "cheeks": 2650,
      "firm": 2651,
      "Keeper": 2652,
      "Faith": 2653,
      "doom": 2654,
      "Pedant": 2655,
      "quoth": 2656,
      "Aumerle": 2657,
      "Mowbray": 2658,
      "SAMPSON": 2659,
      ":--": 2660,
      "Apo": 2661,
      "BU": 2662,
      "EX": 2663,
      "Either": 2664,
      "Hear": 2665,
      "IGON": 2666,
      "Mine": 2667,
      "Put": 2668,
      "bend": 2669,
      "cir": 2670,
      "dain": 2671,
      "due": 2672,
      "ffi": 2673,
      "hu": 2674,
      "rise": 2675,
      "sy": 2676,
      "vate": 2677,
      "yal": 2678,
      "inj": 2679,
      "orious": 2680,
      "aring": 2681,
      "arri": 2682,
      "stro": 2683,
      "stars": 2684,
      "health": 2685,
      "seiz": 2686,
      "lest": 2687,
      "rot": 2688,
      "deput": 2689,
      "ets": 2690,
      "door": 2691,
      "fell": 2692,
      "tide": 2693,
      "among": 2694,
      "ney": 2695,
      "nest": 2696,
      "supp": 2697,
      "herself": 2698,
      "teen": 2699,
      "teach": 2700,
      "ility": 2701,
      "blind": 2702,
      "cio": 2703,
      "cians": 2704,
      "early": 2705,
      "umb": 2706,
      "qual": 2707,
      "Heaven": 2708,
      "six": 2709,
      "brothers": 2710,
      "honourable": 2711,
      "calls": 2712,
      "bids": 2713,
      "kindred": 2714,
      "charity": 2715,
      "subst": 2716,
      "cutio": 2717,
      "truly": 2718,
      "month": 2719,
      "officer": 2720,
      "minister": 2721,
      "dreams": 2722,
      "humble": 2723,
      "demand": 2724,
      "ANTIGON": 2725,
      "wisdom": 2726,
      "Lewis": 2727,
      "cruel": 2728,
      "judge": 2729,
      "valour": 2730,
      "ician": 2731,
      "wretch": 2732,
      "Poor": 2733,
      "satisfied": 2734,
      "whether": 2735,
      "summer": 2736,
      "scarce": 2737,
      "Mercutio": 2738,
      "True": 2739,
      "school": 2740,
      "BURY": 2741,
      "ANTIGONUS": 2742,
      "Alack": 2743,
      "Bet": 2744,
      "Bid": 2745,
      "Harry": 2746,
      "Know": 2747,
      "Mus": 2748,
      "Made": 2749,
      "Never": 2750,
      "Show": 2751,
      "Twas": 2752,
      "TCLIFF": 2753,
      "avo": 2754,
      "abroad": 2755,
      "bb": 2756,
      "bright": 2757,
      "custom": 2758,
      "dur": 2759,
      "dwell": 2760,
      "eem": 2761,
      "mal": 2762,
      "ni": 2763,
      "ners": 2764,
      "pun": 2765,
      "ron": 2766,
      "ume": 2767,
      "thir": 2768,
      "thro": 2769,
      "ining": 2770,
      "anon": 2771,
      "envy": 2772,
      "arch": 2773,
      "ony": 2774,
      "sem": 2775,
      "hie": 2776,
      "dev": 2777,
      "deal": 2778,
      "alous": 2779,
      "loyal": 2780,
      "idle": 2781,
      "faint": 2782,
      "ament": 2783,
      "convey": 2784,
      "shrew": 2785,
      "iful": 2786,
      "ult": 2787,
      "thereof": 2788,
      "provost": 2789,
      "app": 2790,
      "view": 2791,
      "els": 2792,
      "acle": 2793,
      "angu": 2794,
      "others": 2795,
      "wherefore": 2796,
      "miser": 2797,
      "condition": 2798,
      "party": 2799,
      "foes": 2800,
      "flower": 2801,
      "priest": 2802,
      "private": 2803,
      "trial": 2804,
      "cles": 2805,
      "chase": 2806,
      "pleased": 2807,
      "Once": 2808,
      "crave": 2809,
      "wail": 2810,
      "venture": 2811,
      "vail": 2812,
      "yea": 2813,
      "laugh": 2814,
      "forced": 2815,
      "question": 2816,
      "winter": 2817,
      "Cominius": 2818,
      "walls": 2819,
      "judgment": 2820,
      "Volsces": 2821,
      "prophe": 2822,
      "spring": 2823,
      "creature": 2824,
      "blame": 2825,
      "malice": 2826,
      "RATCLIFF": 2827,
      "vengeance": 2828,
      "'?": 2829,
      "BIS": 2830,
      "Barn": 2831,
      "Des": 2832,
      "Fie": 2833,
      "Hence": 2834,
      "HOP": 2835,
      "Mant": 2836,
      "Ne": 2837,
      "Please": 2838,
      "Rut": 2839,
      "Under": 2840,
      "Vin": 2841,
      "Wi": 2842,
      "bite": 2843,
      "dull": 2844,
      "fold": 2845,
      "gg": 2846,
      "gin": 2847,
      "gown": 2848,
      "garm": 2849,
      "gage": 2850,
      "loo": 2851,
      "mn": 2852,
      "ok": 2853,
      "ray": 2854,
      "swords": 2855,
      "wing": 2856,
      "wag": 2857,
      "yard": 2858,
      "ering": 2859,
      "incl": 2860,
      "ens": 2861,
      "enes": 2862,
      "stones": 2863,
      "stoop": 2864,
      "lly": 2865,
      "meat": 2866,
      "top": 2867,
      "sell": 2868,
      "received": 2869,
      "vell": 2870,
      "leep": 2871,
      "cease": 2872,
      "former": 2873,
      "eding": 2874,
      "ution": 2875,
      "room": 2876,
      "ado": 2877,
      "als": 2878,
      "alter": 2879,
      "unning": 2880,
      "ident": 2881,
      "shal": 2882,
      "concl": 2883,
      "shri": 2884,
      "ANLE": 2885,
      "taken": 2886,
      "modest": 2887,
      "tect": 2888,
      "blest": 2889,
      "bot": 2890,
      "cap": 2891,
      "cian": 2892,
      "cial": 2893,
      "mayst": 2894,
      "proper": 2895,
      "IST": 2896,
      "spake": 2897,
      "vious": 2898,
      "vices": 2899,
      "account": 2900,
      "extre": 2901,
      "tyrant": 2902,
      "counten": 2903,
      "aff": 2904,
      "Lords": 2905,
      "ioli": 2906,
      "pack": 2907,
      "cock": 2908,
      "tract": 2909,
      "tongues": 2910,
      "STANLE": 2911,
      "fellows": 2912,
      "buried": 2913,
      "temper": 2914,
      "clock": 2915,
      "maids": 2916,
      "contented": 2917,
      "corse": 2918,
      "humour": 2919,
      "honesty": 2920,
      "Peter": 2921,
      "Corioli": 2922,
      "Whilst": 2923,
      "Methinks": 2924,
      "Death": 2925,
      "brows": 2926,
      "divine": 2927,
      "changed": 2928,
      "BALT": 2929,
      "Thomas": 2930,
      "easy": 2931,
      "TYBALT": 2932,
      "Paulina": 2933,
      "After": 2934,
      "fruit": 2935,
      "excuse": 2936,
      "deputy": 2937,
      "BISHOP": 2938,
      "Mantua": 2939,
      "Rutland": 2940,
      "Vincentio": 2941,
      "STANLEY": 2942,
      "AL": 2943,
      "GE": 2944,
      "Ind": 2945,
      "KEN": 2946,
      "Si": 2947,
      "Som": 2948,
      "Tut": 2949,
      "ama": 2950,
      "cup": 2951,
      "dri": 2952,
      "dust": 2953,
      "eed": 2954,
      "fan": 2955,
      "fret": 2956,
      "fran": 2957,
      "gif": 2958,
      "ild": 2959,
      "kna": 2960,
      "ler": 2961,
      "pin": 2962,
      "round": 2963,
      "smile": 2964,
      "twixt": 2965,
      "twice": 2966,
      "vish": 2967,
      "whis": 2968,
      "wra": 2969,
      "wine": 2970,
      "wol": 2971,
      "thunder": 2972,
      "anley": 2973,
      "arp": 2974,
      "arti": 2975,
      "star": 2976,
      "llen": 2977,
      "noon": 2978,
      "nose": 2979,
      "ref": 2980,
      "ites": 2981,
      "ited": 2982,
      "beard": 2983,
      "lean": 2984,
      "utter": 2985,
      "lia": 2986,
      "west": 2987,
      "weigh": 2988,
      "wealth": 2989,
      "ghost": 2990,
      "wither": 2991,
      "always": 2992,
      "lot": 2993,
      "idings": 2994,
      "fain": 2995,
      "necess": 2996,
      "constant": 2997,
      "AND": 2998,
      "sheep": 2999,
      "blush": 3000,
      "sail": 3001,
      "safet": 3002,
      "sacred": 3003,
      "sirrah": 3004,
      "therein": 3005,
      "perceive": 3006,
      "fiery": 3007,
      "sire": 3008,
      "stern": 3009,
      "import": 3010,
      "tyran": 3011,
      "chief": 3012,
      "affair": 3013,
      "abs": 3014,
      "prevent": 3015,
      "emp": 3016,
      "embrace": 3017,
      "Anti": 3018,
      "THOM": 3019,
      "commend": 3020,
      "wicked": 3021,
      "courage": 3022,
      "whilst": 3023,
      "Dost": 3024,
      "traitors": 3025,
      "faced": 3026,
      "charged": 3027,
      "rench": 3028,
      "passion": 3029,
      "repent": 3030,
      "drawn": 3031,
      "senate": 3032,
      "wrongs": 3033,
      "remedy": 3034,
      "green": 3035,
      "Stanley": 3036,
      "Prince": 3037,
      "reasons": 3038,
      "gross": 3039,
      "pains": 3040,
      "silence": 3041,
      "Caius": 3042,
      "Jove": 3043,
      "choice": 3044,
      "drop": 3045,
      "knave": 3046,
      "Besides": 3047,
      "plot": 3048,
      "Art": 3049,
      "Mistress": 3050,
      "BRAKEN": 3051,
      "occasion": 3052,
      "innocent": 3053,
      "girl": 3054,
      "Verona": 3055,
      "leaves": 3056,
      "Friar": 3057,
      "Brother": 3058,
      "simple": 3059,
      "prepared": 3060,
      "circ": 3061,
      "Somer": 3062,
      "safety": 3063,
      "THOMAS": 3064,
      "BRAKENBURY": 3065,
      "?'": 3066,
      "Di": 3067,
      "Dor": 3068,
      "DER": 3069,
      "Fl": 3070,
      "GOR": 3071,
      "MIST": 3072,
      "OV": 3073,
      "RESS": 3074,
      "Turn": 3075,
      "aught": 3076,
      "ball": 3077,
      "bark": 3078,
      "eag": 3079,
      "fla": 3080,
      "fury": 3081,
      "garden": 3082,
      "hit": 3083,
      "hors": 3084,
      "itol": 3085,
      "jour": 3086,
      "lan": 3087,
      "langu": 3088,
      "ras": 3089,
      "sits": 3090,
      "uff": 3091,
      "went": 3092,
      "wings": 3093,
      "zard": 3094,
      "inous": 3095,
      "inform": 3096,
      "oracle": 3097,
      "enius": 3098,
      "ating": 3099,
      "onoun": 3100,
      "haps": 3101,
      "roth": 3102,
      "rock": 3103,
      "lix": 3104,
      "del": 3105,
      "dew": 3106,
      "delight": 3107,
      "deceived": 3108,
      "weeds": 3109,
      "key": 3110,
      "thout": 3111,
      "adie": 3112,
      "alas": 3113,
      "hollow": 3114,
      "loath": 3115,
      "tive": 3116,
      "tired": 3117,
      "amp": 3118,
      "ardine": 3119,
      "conqu": 3120,
      "motion": 3121,
      "iff": 3122,
      "wore": 3123,
      "ctise": 3124,
      "complain": 3125,
      "Myself": 3126,
      "mayor": 3127,
      "broken": 3128,
      "prov": 3129,
      "quaint": 3130,
      "plead": 3131,
      "appare": 3132,
      "ONE": 3133,
      "Offi": 3134,
      "design": 3135,
      "despite": 3136,
      "imprison": 3137,
      "wherein": 3138,
      "ughters": 3139,
      "Wherein": 3140,
      "prayer": 3141,
      "pawn": 3142,
      "rude": 3143,
      "holds": 3144,
      "plague": 3145,
      "tread": 3146,
      "treach": 3147,
      "fares": 3148,
      "GREGOR": 3149,
      "meaning": 3150,
      "renown": 3151,
      "jealous": 3152,
      "passing": 3153,
      "welve": 3154,
      "gives": 3155,
      "cares": 3156,
      "carry": 3157,
      "witch": 3158,
      "wanton": 3159,
      "deserve": 3160,
      "silver": 3161,
      "cursed": 3162,
      "troth": 3163,
      "profess": 3164,
      "Having": 3165,
      "Capitol": 3166,
      "belly": 3167,
      "stuff": 3168,
      "castle": 3169,
      "practise": 3170,
      "cheek": 3171,
      "colour": 3172,
      "violent": 3173,
      "boot": 3174,
      "borne": 3175,
      "trumpets": 3176,
      "ERDONE": 3177,
      "hung": 3178,
      "Prithee": 3179,
      "finger": 3180,
      "ignorant": 3181,
      "Menenius": 3182,
      "fatal": 3183,
      "Christi": 3184,
      "benef": 3185,
      "Apollo": 3186,
      "rotten": 3187,
      "Barnardine": 3188,
      "Without": 3189,
      "countenance": 3190,
      "Indeed": 3191,
      "absence": 3192,
      "Somerset": 3193,
      "DERBY": 3194,
      "MISTRESS": 3195,
      "OVERDONE": 3196,
      "adieu": 3197,
      "GREGORY": 3198,
      "CH": 3199,
      "Cousin": 3200,
      "FORD": 3201,
      "Great": 3202,
      "Ho": 3203,
      "OX": 3204,
      "Pis": 3205,
      "RR": 3206,
      "Res": 3207,
      "SOM": 3208,
      "Still": 3209,
      "VAL": 3210,
      "ax": 3211,
      "aim": 3212,
      "cat": 3213,
      "crow": 3214,
      "ek": 3215,
      "fas": 3216,
      "ial": 3217,
      "ience": 3218,
      "lend": 3219,
      "nine": 3220,
      "number": 3221,
      "pul": 3222,
      "passa": 3223,
      "rate": 3224,
      "sme": 3225,
      "sli": 3226,
      "sday": 3227,
      "saint": 3228,
      "sooth": 3229,
      "ton": 3230,
      "tidings": 3231,
      "vantage": 3232,
      "wand": 3233,
      "wof": 3234,
      "wood": 3235,
      "inher": 3236,
      "isle": 3237,
      "envious": 3238,
      "stat": 3239,
      "mess": 3240,
      "esy": 3241,
      "nobles": 3242,
      "rema": 3243,
      "receive": 3244,
      "becomes": 3245,
      "wives": 3246,
      "hion": 3247,
      "asleep": 3248,
      "ldom": 3249,
      "utes": 3250,
      "lim": 3251,
      "deposed": 3252,
      "ety": 3253,
      "ursday": 3254,
      "lod": 3255,
      "fam": 3256,
      "tial": 3257,
      "neg": 3258,
      "butcher": 3259,
      "contract": 3260,
      "Three": 3261,
      "Thursday": 3262,
      "shut": 3263,
      "shore": 3264,
      "tail": 3265,
      "tres": 3266,
      "ERIA": 3267,
      "ify": 3268,
      "persu": 3269,
      "perfect": 3270,
      "outward": 3271,
      "uments": 3272,
      "protect": 3273,
      "whole": 3274,
      "shouldst": 3275,
      "disgrace": 3276,
      "disposition": 3277,
      "Into": 3278,
      "RICHMON": 3279,
      "access": 3280,
      "express": 3281,
      "excell": 3282,
      "bran": 3283,
      "babe": 3284,
      "gentlewoman": 3285,
      "offend": 3286,
      "standing": 3287,
      "Mark": 3288,
      "prepare": 3289,
      "names": 3290,
      "parts": 3291,
      "serves": 3292,
      "undone": 3293,
      "resign": 3294,
      "commit": 3295,
      "inted": 3296,
      "Rivers": 3297,
      "preser": 3298,
      "ruin": 3299,
      "whither": 3300,
      "begins": 3301,
      "mione": 3302,
      "brain": 3303,
      "tedious": 3304,
      "farther": 3305,
      "thrust": 3306,
      "seeming": 3307,
      "quire": 3308,
      "clear": 3309,
      "follows": 3310,
      "followers": 3311,
      "curst": 3312,
      "fools": 3313,
      "Hermione": 3314,
      "hanging": 3315,
      "spoken": 3316,
      "groom": 3317,
      "lamb": 3318,
      "advise": 3319,
      "advantage": 3320,
      "Grey": 3321,
      "troop": 3322,
      "instruct": 3323,
      "supper": 3324,
      "ERSET": 3325,
      "resolved": 3326,
      "cries": 3327,
      "mission": 3328,
      "guilt": 3329,
      "awake": 3330,
      "thrive": 3331,
      "burthen": 3332,
      "sighs": 3333,
      "dreadful": 3334,
      "hurt": 3335,
      "storm": 3336,
      "obedience": 3337,
      "damned": 3338,
      "dinner": 3339,
      "physi": 3340,
      "authority": 3341,
      "Musician": 3342,
      "throat": 3343,
      "devise": 3344,
      "garments": 3345,
      "affairs": 3346,
      "rascal": 3347,
      "Christian": 3348,
      "benefit": 3349,
      "OXFORD": 3350,
      "Pisa": 3351,
      "SOMERSET": 3352,
      "VALERIA": 3353,
      "woful": 3354,
      "RICHMOND": 3355,
      "AE": 3356,
      "AMIL": 3357,
      "Br": 3358,
      "BUS": 3359,
      "Bion": 3360,
      "Bona": 3361,
      "El": 3362,
      "Gra": 3363,
      "HY": 3364,
      "Has": 3365,
      "LIUS": 3366,
      "MOW": 3367,
      "MOP": 3368,
      "MAMIL": 3369,
      "Sici": 3370,
      "Two": 3371,
      "Tail": 3372,
      "Very": 3373,
      "bas": 3374,
      "bond": 3375,
      "cate": 3376,
      "cunning": 3377,
      "ele": 3378,
      "east": 3379,
      "fle": 3380,
      "flight": 3381,
      "flies": 3382,
      "gy": 3383,
      "ime": 3384,
      "ives": 3385,
      "iest": 3386,
      "line": 3387,
      "list": 3388,
      "mur": 3389,
      "mbr": 3390,
      "pure": 3391,
      "rt": 3392,
      "rent": 3393,
      "rash": 3394,
      "san": 3395,
      "sho": 3396,
      "sway": 3397,
      "tut": 3398,
      "twelve": 3399,
      "ug": 3400,
      "ued": 3401,
      "van": 3402,
      "yonder": 3403,
      "thi": 3404,
      "inion": 3405,
      "ences": 3406,
      "step": 3407,
      "stab": 3408,
      "habit": 3409,
      "vex": 3410,
      "belike": 3411,
      "beloved": 3412,
      "beheld": 3413,
      "legs": 3414,
      "owe": 3415,
      "forsworn": 3416,
      "asp": 3417,
      "roar": 3418,
      "root": 3419,
      "lion": 3420,
      "delay": 3421,
      "dello": 3422,
      "weight": 3423,
      "weap": 3424,
      "adventure": 3425,
      "alm": 3426,
      "usion": 3427,
      "rain": 3428,
      "until": 3429,
      "sued": 3430,
      "sured": 3431,
      "suffi": 3432,
      "conj": 3433,
      "pronoun": 3434,
      "shr": 3435,
      "taste": 3436,
      "ouses": 3437,
      "ETER": 3438,
      "teeth": 3439,
      "goodness": 3440,
      "iffer": 3441,
      "kingly": 3442,
      "peril": 3443,
      "perish": 3444,
      "atest": 3445,
      "seeing": 3446,
      "ages": 3447,
      "ump": 3448,
      "umble": 3449,
      "protest": 3450,
      "timely": 3451,
      "quench": 3452,
      "Help": 3453,
      "fathers": 3454,
      "disdain": 3455,
      "ounty": 3456,
      "spend": 3457,
      "accept": 3458,
      "Believe": 3459,
      "ABHOR": 3460,
      "exile": 3461,
      "affect": 3462,
      "ursed": 3463,
      "prey": 3464,
      "prevail": 3465,
      "conduct": 3466,
      "tled": 3467,
      "emplo": 3468,
      "paper": 3469,
      "fortunes": 3470,
      "betwixt": 3471,
      "daughters": 3472,
      "intend": 3473,
      "prize": 3474,
      "dying": 3475,
      "parent": 3476,
      "gues": 3477,
      "keeps": 3478,
      "denied": 3479,
      "confer": 3480,
      "chair": 3481,
      "sorry": 3482,
      "happiness": 3483,
      "compan": 3484,
      "Boy": 3485,
      "remembr": 3486,
      "petition": 3487,
      "spirits": 3488,
      "crack": 3489,
      "slow": 3490,
      "accus": 3491,
      "accuse": 3492,
      "corrup": 3493,
      "humbly": 3494,
      "wounded": 3495,
      "courtesy": 3496,
      "Leave": 3497,
      "penit": 3498,
      "wallow": 3499,
      "atswain": 3500,
      "resolve": 3501,
      "wont": 3502,
      "credit": 3503,
      "Polix": 3504,
      "wedding": 3505,
      "Beseech": 3506,
      "palace": 3507,
      "direct": 3508,
      "BRAY": 3509,
      "pleasant": 3510,
      "large": 3511,
      "continue": 3512,
      "dares": 3513,
      "solemn": 3514,
      "several": 3515,
      "threaten": 3516,
      "neighbour": 3517,
      "contrary": 3518,
      "EXETER": 3519,
      "human": 3520,
      "punish": 3521,
      "miserable": 3522,
      "wrath": 3523,
      "empty": 3524,
      "circum": 3525,
      "horses": 3526,
      "conquer": 3527,
      "Officer": 3528,
      "BUSHY": 3529,
      "Biondello": 3530,
      "MOWBRAY": 3531,
      "MOPSA": 3532,
      "MAMILLIUS": 3533,
      "Tailor": 3534,
      "ABHORSON": 3535,
      "employ": 3536,
      "Polixenes": 3537,
      "Bear": 3538,
      "CY": 3539,
      "Dear": 3540,
      "Father": 3541,
      "French": 3542,
      "Might": 3543,
      "None": 3544,
      "Nap": 3545,
      "Ret": 3546,
      "Right": 3547,
      "Wid": 3548,
      "ago": 3549,
      "catch": 3550,
      "dit": 3551,
      "ded": 3552,
      "dag": 3553,
      "fro": 3554,
      "furn": 3555,
      "gon": 3556,
      "gate": 3557,
      "hark": 3558,
      "houses": 3559,
      "iled": 3560,
      "luck": 3561,
      "mere": 3562,
      "mill": 3563,
      "mity": 3564,
      "ns": 3565,
      "naked": 3566,
      "pic": 3567,
      "pub": 3568,
      "song": 3569,
      "sco": 3570,
      "swallow": 3571,
      "wond": 3572,
      "wits": 3573,
      "wreck": 3574,
      "intell": 3575,
      "infect": 3576,
      "incre": 3577,
      "story": 3578,
      "heed": 3579,
      "seas": 3580,
      "reed": 3581,
      "reward": 3582,
      "beyond": 3583,
      "hid": 3584,
      "rose": 3585,
      "dep": 3586,
      "devo": 3587,
      "wept": 3588,
      "hatred": 3589,
      "ourish": 3590,
      "ride": 3591,
      "urance": 3592,
      "raw": 3593,
      "unnatural": 3594,
      "making": 3595,
      "fee": 3596,
      "ARCH": 3597,
      "hereafter": 3598,
      "fail": 3599,
      "faces": 3600,
      "tire": 3601,
      "amen": 3602,
      "suck": 3603,
      "terror": 3604,
      "endure": 3605,
      "lace": 3606,
      "shun": 3607,
      "taught": 3608,
      "ously": 3609,
      "bodies": 3610,
      "ants": 3611,
      "capt": 3612,
      "perpet": 3613,
      "comfor": 3614,
      "comple": 3615,
      "seest": 3616,
      "theirs": 3617,
      "dign": 3618,
      "Nothing": 3619,
      "wholes": 3620,
      "apt": 3621,
      "appoint": 3622,
      "sometime": 3623,
      "sometimes": 3624,
      "fig": 3625,
      "discover": 3626,
      "wot": 3627,
      "spare": 3628,
      "hearted": 3629,
      "vide": 3630,
      "market": 3631,
      "ples": 3632,
      "expect": 3633,
      "iment": 3634,
      "chide": 3635,
      "mistake": 3636,
      "misery": 3637,
      "fairly": 3638,
      "Marshal": 3639,
      "services": 3640,
      "called": 3641,
      "assist": 3642,
      "assurance": 3643,
      "folly": 3644,
      "THAS": 3645,
      "intent": 3646,
      "scene": 3647,
      "Thanks": 3648,
      "rule": 3649,
      "opinion": 3650,
      "trick": 3651,
      "whiles": 3652,
      "crowns": 3653,
      "partic": 3654,
      "joys": 3655,
      "joyful": 3656,
      "needful": 3657,
      "undertake": 3658,
      "PERCY": 3659,
      "giving": 3660,
      "build": 3661,
      "patri": 3662,
      "curses": 3663,
      "senators": 3664,
      "Only": 3665,
      "monstr": 3666,
      "turns": 3667,
      "waking": 3668,
      "winds": 3669,
      "commanded": 3670,
      "groan": 3671,
      "painted": 3672,
      "Mayor": 3673,
      "waters": 3674,
      "advance": 3675,
      "advised": 3676,
      "destroy": 3677,
      "instrument": 3678,
      "calm": 3679,
      "leads": 3680,
      "counterfeit": 3681,
      "drops": 3682,
      "shortly": 3683,
      "duked": 3684,
      "praise": 3685,
      "Love": 3686,
      "hopes": 3687,
      "griev": 3688,
      "sky": 3689,
      "piteous": 3690,
      "colours": 3691,
      "BALTHAS": 3692,
      "reverend": 3693,
      "princes": 3694,
      "princess": 3695,
      "willingly": 3696,
      "government": 3697,
      "urious": 3698,
      "determin": 3699,
      "durst": 3700,
      "looking": 3701,
      "language": 3702,
      "apparel": 3703,
      "remains": 3704,
      "excellent": 3705,
      "remembrance": 3706,
      "Widow": 3707,
      "picion": 3708,
      "public": 3709,
      "wholesome": 3710,
      "dukedom": 3711,
      "BALTHASAR": 3712,
      "?--": 3713,
      "Ac": 3714,
      "Amen": 3715,
      "Four": 3716,
      "FOL": 3717,
      "Im": 3718,
      "Just": 3719,
      "Lay": 3720,
      "Long": 3721,
      "Pat": 3722,
      "Page": 3723,
      "Post": 3724,
      "Rep": 3725,
      "Set": 3726,
      "Sup": 3727,
      "Save": 3728,
      "Sold": 3729,
      "Tit": 3730,
      "Vi": 3731,
      "Whither": 3732,
      "ald": 3733,
      "bon": 3734,
      "bare": 3735,
      "cend": 3736,
      "cise": 3737,
      "fare": 3738,
      "gree": 3739,
      "knight": 3740,
      "lis": 3741,
      "mul": 3742,
      "murderer": 3743,
      "net": 3744,
      "nought": 3745,
      "pent": 3746,
      "purse": 3747,
      "powers": 3748,
      "ress": 3749,
      "rust": 3750,
      "rous": 3751,
      "sink": 3752,
      "sins": 3753,
      "slay": 3754,
      "scept": 3755,
      "slip": 3756,
      "tort": 3757,
      "uary": 3758,
      "vouch": 3759,
      "vours": 3760,
      "wake": 3761,
      "thorn": 3762,
      "inst": 3763,
      "instant": 3764,
      "orous": 3765,
      "ises": 3766,
      "ishop": 3767,
      "enmity": 3768,
      "aries": 3769,
      "attempt": 3770,
      "stol": 3771,
      "store": 3772,
      "stret": 3773,
      "strew": 3774,
      "meant": 3775,
      "medi": 3776,
      "member": 3777,
      "tomb": 3778,
      "sequ": 3779,
      "season": 3780,
      "repe": 3781,
      "rebel": 3782,
      "repair": 3783,
      "revol": 3784,
      "realm": 3785,
      "vest": 3786,
      "behalf": 3787,
      "hill": 3788,
      "choler": 3789,
      "rogue": 3790,
      "liar": 3791,
      "dece": 3792,
      "deem": 3793,
      "debt": 3794,
      "degree": 3795,
      "weather": 3796,
      "keeper": 3797,
      "ries": 3798,
      "aded": 3799,
      "advers": 3800,
      "uses": 3801,
      "soever": 3802,
      "raise": 3803,
      "ording": 3804,
      "unknown": 3805,
      "untimely": 3806,
      "mag": 3807,
      "mage": 3808,
      "maint": 3809,
      "feed": 3810,
      "idence": 3811,
      "fame": 3812,
      "faction": 3813,
      "manners": 3814,
      "tied": 3815,
      "tily": 3816,
      "shape": 3817,
      "sues": 3818,
      "terms": 3819,
      "arts": 3820,
      "sharp": 3821,
      "comest": 3822,
      "taking": 3823,
      "boar": 3824,
      "venom": 3825,
      "compl": 3826,
      "earnest": 3827,
      "special": 3828,
      "brook": 3829,
      "Young": 3830,
      "appre": 3831,
      "fix": 3832,
      "CAS": 3833,
      "disper": 3834,
      "spite": 3835,
      "brings": 3836,
      "bred": 3837,
      "armour": 3838,
      "friendly": 3839,
      "absent": 3840,
      "March": 3841,
      "merit": 3842,
      "pping": 3843,
      "write": 3844,
      "bearing": 3845,
      "privile": 3846,
      "longs": 3847,
      "trade": 3848,
      "kindly": 3849,
      "engthen": 3850,
      "slept": 3851,
      "camest": 3852,
      "lasting": 3853,
      "dress": 3854,
      "glorious": 3855,
      "boys": 3856,
      "ships": 3857,
      "clothe": 3858,
      "maiden": 3859,
      "Boatswain": 3860,
      "grey": 3861,
      "hateful": 3862,
      "ROSS": 3863,
      "wants": 3864,
      "deserves": 3865,
      "Gentlemen": 3866,
      "NORFOL": 3867,
      "freely": 3868,
      "smooth": 3869,
      "uteous": 3870,
      "Lucio": 3871,
      "grows": 3872,
      "consider": 3873,
      "Came": 3874,
      "instruction": 3875,
      "supposed": 3876,
      "bird": 3877,
      "profit": 3878,
      "granted": 3879,
      "feeling": 3880,
      "resolution": 3881,
      "Volsce": 3882,
      "knife": 3883,
      "torment": 3884,
      "frame": 3885,
      "odds": 3886,
      "solute": 3887,
      "respected": 3888,
      "Those": 3889,
      "pleasing": 3890,
      "approach": 3891,
      "gently": 3892,
      "Exeter": 3893,
      "obedient": 3894,
      "drums": 3895,
      "suspect": 3896,
      "suspicion": 3897,
      "DORCAS": 3898,
      "Worthy": 3899,
      "mourn": 3900,
      "seize": 3901,
      "amazed": 3902,
      "Dorset": 3903,
      "treacher": 3904,
      "fashion": 3905,
      "passage": 3906,
      "Sicilia": 3907,
      "sanct": 3908,
      "thief": 3909,
      "Naples": 3910,
      "dagger": 3911,
      "scope": 3912,
      "intellig": 3913,
      "increase": 3914,
      "captain": 3915,
      "particular": 3916,
      "monstrous": 3917,
      "sceptre": 3918,
      "NORFOLK": 3919,
      "Ber": 3920,
      "Bre": 3921,
      "Bra": 3922,
      "Bring": 3923,
      "Co": 3924,
      "Down": 3925,
      "Fe": 3926,
      "FERD": 3927,
      "Froth": 3928,
      "GH": 3929,
      "Ghost": 3930,
      "Hunts": 3931,
      "Ire": 3932,
      "Jack": 3933,
      "La": 3934,
      "Mil": 3935,
      "NS": 3936,
      "Play": 3937,
      "Rat": 3938,
      "Son": 3939,
      "Sal": 3940,
      "SET": 3941,
      "Stri": 3942,
      "Wilt": 3943,
      "alike": 3944,
      "bill": 3945,
      "bours": 3946,
      "cere": 3947,
      "cus": 3948,
      "chast": 3949,
      "dower": 3950,
      "eve": 3951,
      "equal": 3952,
      "fy": 3953,
      "fif": 3954,
      "hunt": 3955,
      "ia": 3956,
      "irest": 3957,
      "knot": 3958,
      "lun": 3959,
      "lark": 3960,
      "loud": 3961,
      "nal": 3962,
      "oak": 3963,
      "path": 3964,
      "pound": 3965,
      "ption": 3966,
      "rand": 3967,
      "rend": 3968,
      "sain": 3969,
      "sion": 3970,
      "swell": 3971,
      "sore": 3972,
      "south": 3973,
      "vows": 3974,
      "yo": 3975,
      "thread": 3976,
      "ints": 3977,
      "island": 3978,
      "enforce": 3979,
      "ature": 3980,
      "atic": 3981,
      "melt": 3982,
      "esca": 3983,
      "nobl": 3984,
      "nobly": 3985,
      "rey": 3986,
      "rece": 3987,
      "rebell": 3988,
      "veins": 3989,
      "bethink": 3990,
      "forbear": 3991,
      "fords": 3992,
      "assured": 3993,
      "liament": 3994,
      "oot": 3995,
      "ades": 3996,
      "adver": 3997,
      "advice": 3998,
      "urged": 3999,
      "INAND": 4000,
      "raised": 4001,
      "unless": 4002,
      "unjust": 4003,
      "peers": 4004,
      "fears": 4005,
      "locks": 4006,
      "contempt": 4007,
      "shine": 4008,
      "points": 4009,
      "tame": 4010,
      "takes": 4011,
      "lovely": 4012,
      "perj": 4013,
      "perforce": 4014,
      "outs": 4015,
      "commission": 4016,
      "saying": 4017,
      "lets": 4018,
      "dile": 4019,
      "ague": 4020,
      "likely": 4021,
      "provo": 4022,
      "shoulder": 4023,
      "estate": 4024,
      "exam": 4025,
      "heavi": 4026,
      "tells": 4027,
      "whereof": 4028,
      "county": 4029,
      "afford": 4030,
      "hasty": 4031,
      "abhor": 4032,
      "served": 4033,
      "flow": 4034,
      "paid": 4035,
      "merri": 4036,
      "north": 4037,
      "daily": 4038,
      "warlike": 4039,
      "wrought": 4040,
      "score": 4041,
      "ruth": 4042,
      "ruly": 4043,
      "puts": 4044,
      "oppos": 4045,
      "begg": 4046,
      "begun": 4047,
      "trees": 4048,
      "braw": 4049,
      "parliament": 4050,
      "Until": 4051,
      "GREEN": 4052,
      "finds": 4053,
      "jewel": 4054,
      "afternoon": 4055,
      "shield": 4056,
      "carried": 4057,
      "current": 4058,
      "virgin": 4059,
      "greatest": 4060,
      "elder": 4061,
      "soundly": 4062,
      "wait": 4063,
      "accused": 4064,
      "according": 4065,
      "sends": 4066,
      "vault": 4067,
      "revenged": 4068,
      "hanged": 4069,
      "desert": 4070,
      "Rosal": 4071,
      "Conspir": 4072,
      "groans": 4073,
      "smiles": 4074,
      "single": 4075,
      "hardly": 4076,
      "silent": 4077,
      "ALONS": 4078,
      "instruments": 4079,
      "darest": 4080,
      "profan": 4081,
      "pieces": 4082,
      "stock": 4083,
      "study": 4084,
      "sickness": 4085,
      "waste": 4086,
      "Romans": 4087,
      "thrice": 4088,
      "Pomfret": 4089,
      "aboard": 4090,
      "grieve": 4091,
      "fires": 4092,
      "odd": 4093,
      "Keep": 4094,
      "imag": 4095,
      "reverence": 4096,
      "TYRR": 4097,
      "boots": 4098,
      "cliff": 4099,
      "affections": 4100,
      "streets": 4101,
      "prosperous": 4102,
      "DORSET": 4103,
      "lusty": 4104,
      "haply": 4105,
      "About": 4106,
      "arrived": 4107,
      "stroke": 4108,
      "avoid": 4109,
      "third": 4110,
      "extreme": 4111,
      "affli": 4112,
      "gift": 4113,
      "whisper": 4114,
      "journey": 4115,
      "imprisonment": 4116,
      "messenger": 4117,
      "protector": 4118,
      "committed": 4119,
      "AEdile": 4120,
      "murd": 4121,
      "circumst": 4122,
      "perpetual": 4123,
      "grievous": 4124,
      "Soldier": 4125,
      "Titus": 4126,
      "maintain": 4127,
      "treacherous": 4128,
      "sanctuary": 4129,
      "FERDINAND": 4130,
      "Huntsman": 4131,
      "Ireland": 4132,
      "Ratcliff": 4133,
      "Rosaline": 4134,
      "ALONSO": 4135,
      "TYRREL": 4136,
      ";--": 4137,
      "Ap": 4138,
      "Ano": 4139,
      "Ben": 4140,
      "Bus": 4141,
      "Cour": 4142,
      "Der": 4143,
      "Draw": 4144,
      "Fo": 4145,
      "Fare": 4146,
      "Fair": 4147,
      "Happ": 4148,
      "LIS": 4149,
      "Makes": 4150,
      "Rather": 4151,
      "Soft": 4152,
      "Tar": 4153,
      "Tri": 4154,
      "Twere": 4155,
      "ah": 4156,
      "buck": 4157,
      "bility": 4158,
      "cou": 4159,
      "cti": 4160,
      "coff": 4161,
      "differ": 4162,
      "event": 4163,
      "fun": 4164,
      "food": 4165,
      "frow": 4166,
      "horn": 4167,
      "iance": 4168,
      "lour": 4169,
      "lent": 4170,
      "length": 4171,
      "mand": 4172,
      "nap": 4173,
      "oe": 4174,
      "ointed": 4175,
      "ping": 4176,
      "pup": 4177,
      "pil": 4178,
      "rare": 4179,
      "rrel": 4180,
      "snow": 4181,
      "tall": 4182,
      "tur": 4183,
      "tree": 4184,
      "task": 4185,
      "tarry": 4186,
      "waked": 4187,
      "wakes": 4188,
      "yes": 4189,
      "erce": 4190,
      "iny": 4191,
      "incen": 4192,
      "ortion": 4193,
      "isbury": 4194,
      "enant": 4195,
      "enna": 4196,
      "ative": 4197,
      "ont": 4198,
      "sting": 4199,
      "stout": 4200,
      "stable": 4201,
      "stamp": 4202,
      "melan": 4203,
      "tom": 4204,
      "hest": 4205,
      "youn": 4206,
      "esar": 4207,
      "sees": 4208,
      "sets": 4209,
      "secure": 4210,
      "havi": 4211,
      "recon": 4212,
      "remor": 4213,
      "rejo": 4214,
      "reput": 4215,
      "remove": 4216,
      "record": 4217,
      "redeem": 4218,
      "vet": 4219,
      "betr": 4220,
      "betimes": 4221,
      "wide": 4222,
      "myster": 4223,
      "owl": 4224,
      "forgive": 4225,
      "forswear": 4226,
      "forfeit": 4227,
      "assure": 4228,
      "irt": 4229,
      "eder": 4230,
      "utenant": 4231,
      "rob": 4232,
      "lift": 4233,
      "liken": 4234,
      "limit": 4235,
      "deck": 4236,
      "detest": 4237,
      "ool": 4238,
      "oose": 4239,
      "ripe": 4240,
      "admit": 4241,
      "although": 4242,
      "alack": 4243,
      "alliance": 4244,
      "urge": 4245,
      "lying": 4246,
      "rail": 4247,
      "unhappy": 4248,
      "holp": 4249,
      "mach": 4250,
      "fest": 4251,
      "feet": 4252,
      "feather": 4253,
      "lots": 4254,
      "fact": 4255,
      "fairest": 4256,
      "tier": 4257,
      "ams": 4258,
      "aming": 4259,
      "hers": 4260,
      "contro": 4261,
      "morn": 4262,
      "mory": 4263,
      "poli": 4264,
      "poster": 4265,
      "tap": 4266,
      "teous": 4267,
      "caught": 4268,
      "blown": 4269,
      "blunt": 4270,
      "dim": 4271,
      "civil": 4272,
      "aged": 4273,
      "agree": 4274,
      "umbling": 4275,
      "vessel": 4276,
      "Noble": 4277,
      "muster": 4278,
      "graves": 4279,
      "appet": 4280,
      "apparent": 4281,
      "dissem": 4282,
      "spy": 4283,
      "spit": 4284,
      "aches": 4285,
      "achie": 4286,
      "desires": 4287,
      "exer": 4288,
      "exchange": 4289,
      "bade": 4290,
      "impossible": 4291,
      "counc": 4292,
      "newly": 4293,
      "mistrust": 4294,
      "ably": 4295,
      "abide": 4296,
      "offended": 4297,
      "fairer": 4298,
      "Marian": 4299,
      "parting": 4300,
      "parted": 4301,
      "partly": 4302,
      "joint": 4303,
      "flood": 4304,
      "cot": 4305,
      "cost": 4306,
      "ullus": 4307,
      "grat": 4308,
      "wrink": 4309,
      "scal": 4310,
      "prick": 4311,
      "ruled": 4312,
      "tribut": 4313,
      "whip": 4314,
      "begu": 4315,
      "treasure": 4316,
      "Proceed": 4317,
      "helm": 4318,
      "charac": 4319,
      "powerful": 4320,
      "besides": 4321,
      "beseem": 4322,
      "native": 4323,
      "stead": 4324,
      "tempest": 4325,
      "meeting": 4326,
      "weeps": 4327,
      "craft": 4328,
      "dowry": 4329,
      "posing": 4330,
      "accident": 4331,
      "falsehood": 4332,
      "Tyrrel": 4333,
      "surely": 4334,
      "corre": 4335,
      "sovereignty": 4336,
      "slaves": 4337,
      "commons": 4338,
      "twain": 4339,
      "oaths": 4340,
      "faithful": 4341,
      "Cannot": 4342,
      "Commend": 4343,
      "growing": 4344,
      "heirs": 4345,
      "below": 4346,
      "Remember": 4347,
      "Caesar": 4348,
      "defence": 4349,
      "pression": 4350,
      "choly": 4351,
      "beholding": 4352,
      "augh": 4353,
      "stopp": 4354,
      "stomach": 4355,
      "pitch": 4356,
      "barren": 4357,
      "books": 4358,
      "proportion": 4359,
      "breathed": 4360,
      "mouths": 4361,
      "weakness": 4362,
      "virtues": 4363,
      "direction": 4364,
      "bridegroom": 4365,
      "image": 4366,
      "salt": 4367,
      "regal": 4368,
      "regard": 4369,
      "tremble": 4370,
      "gallant": 4371,
      "ifest": 4372,
      "occup": 4373,
      "beasts": 4374,
      "cords": 4375,
      "conceit": 4376,
      "entertainment": 4377,
      "substit": 4378,
      "Six": 4379,
      "fancy": 4380,
      "knaves": 4381,
      "tyranny": 4382,
      "Flor": 4383,
      "ballad": 4384,
      "provided": 4385,
      "renowned": 4386,
      "smell": 4387,
      "stabb": 4388,
      "conference": 4389,
      "penitent": 4390,
      "devotion": 4391,
      "complex": 4392,
      "dignity": 4393,
      "patricians": 4394,
      "determined": 4395,
      "Fourth": 4396,
      "Vienna": 4397,
      "deceit": 4398,
      "Milan": 4399,
      "Salisbury": 4400,
      "ceremon": 4401,
      "yoke": 4402,
      "rebellion": 4403,
      "Derby": 4404,
      "froward": 4405,
      "pilgri": 4406,
      "melancholy": 4407,
      "havior": 4408,
      "reconci": 4409,
      "betray": 4410,
      "appetite": 4411,
      ".--": 4412,
      "AD": 4413,
      "Cur": 4414,
      "Cry": 4415,
      "CLE": 4416,
      "County": 4417,
      "Each": 4418,
      "FRO": 4419,
      "Get": 4420,
      "Him": 4421,
      "IT": 4422,
      "Jes": 4423,
      "Lie": 4424,
      "Larti": 4425,
      "Min": 4426,
      "Many": 4427,
      "OMEN": 4428,
      "Qu": 4429,
      "RIAN": 4430,
      "Sit": 4431,
      "Sound": 4432,
      "Tush": 4433,
      "Time": 4434,
      "Tullus": 4435,
      "UGH": 4436,
      "Ven": 4437,
      "Vill": 4438,
      "Whe": 4439,
      "WIL": 4440,
      "ali": 4441,
      "apo": 4442,
      "bble": 4443,
      "bag": 4444,
      "bation": 4445,
      "block": 4446,
      "cas": 4447,
      "cue": 4448,
      "cul": 4449,
      "chaste": 4450,
      "cket": 4451,
      "fish": 4452,
      "fits": 4453,
      "goose": 4454,
      "iam": 4455,
      "ible": 4456,
      "len": 4457,
      "lain": 4458,
      "mood": 4459,
      "nes": 4460,
      "ope": 4461,
      "ola": 4462,
      "pill": 4463,
      "sple": 4464,
      "swain": 4465,
      "swore": 4466,
      "twill": 4467,
      "tard": 4468,
      "tles": 4469,
      "uce": 4470,
      "var": 4471,
      "wan": 4472,
      "wink": 4473,
      "whor": 4474,
      "thin": 4475,
      "infection": 4476,
      "anointed": 4477,
      "thecar": 4478,
      "ories": 4479,
      "ency": 4480,
      "enches": 4481,
      "arth": 4482,
      "arrow": 4483,
      "onation": 4484,
      "stumble": 4485,
      "mew": 4486,
      "memory": 4487,
      "toad": 4488,
      "toil": 4489,
      "andal": 4490,
      "nod": 4491,
      "sepul": 4492,
      "seldom": 4493,
      "rear": 4494,
      "requ": 4495,
      "reap": 4496,
      "reach": 4497,
      "repose": 4498,
      "removed": 4499,
      "retire": 4500,
      "itch": 4501,
      "belie": 4502,
      "league": 4503,
      "iron": 4504,
      "iring": 4505,
      "edge": 4506,
      "lier": 4507,
      "dec": 4508,
      "deaf": 4509,
      "decl": 4510,
      "dearest": 4511,
      "weal": 4512,
      "hated": 4513,
      "kest": 4514,
      "withdraw": 4515,
      "alo": 4516,
      "aly": 4517,
      "alms": 4518,
      "ushes": 4519,
      "soci": 4520,
      "dove": 4521,
      "uns": 4522,
      "uncles": 4523,
      "male": 4524,
      "pee": 4525,
      "pear": 4526,
      "feign": 4527,
      "felt": 4528,
      "lover": 4529,
      "manage": 4530,
      "manifest": 4531,
      "tiest": 4532,
      "shapes": 4533,
      "amity": 4534,
      "aments": 4535,
      "wills": 4536,
      "super": 4537,
      "suitor": 4538,
      "sullen": 4539,
      "concer": 4540,
      "Through": 4541,
      "moves": 4542,
      "seless": 4543,
      "ified": 4544,
      "illy": 4545,
      "bleeding": 4546,
      "ongst": 4547,
      "selfsame": 4548,
      "lovest": 4549,
      "perhaps": 4550,
      "comb": 4551,
      "compass": 4552,
      "cies": 4553,
      "foreign": 4554,
      "LOUGH": 4555,
      "proclam": 4556,
      "fierce": 4557,
      "tooth": 4558,
      "disgu": 4559,
      "disease": 4560,
      "dismal": 4561,
      "deaths": 4562,
      "estim": 4563,
      "vied": 4564,
      "marks": 4565,
      "acquaint": 4566,
      "heartily": 4567,
      "Behold": 4568,
      "stranger": 4569,
      "struction": 4570,
      "Off": 4571,
      "angling": 4572,
      "descent": 4573,
      "extrem": 4574,
      "babes": 4575,
      "imble": 4576,
      "lesser": 4577,
      "mischance": 4578,
      "abused": 4579,
      "absolute": 4580,
      "ement": 4581,
      "embra": 4582,
      "jot": 4583,
      "Italy": 4584,
      "greatness": 4585,
      "redress": 4586,
      "heavenly": 4587,
      "flat": 4588,
      "pable": 4589,
      "pause": 4590,
      "sweeter": 4591,
      "Anon": 4592,
      "coat": 4593,
      "warri": 4594,
      "restra": 4595,
      "graced": 4596,
      "scold": 4597,
      "settled": 4598,
      "household": 4599,
      "began": 4600,
      "cloud": 4601,
      "rights": 4602,
      "places": 4603,
      "angel": 4604,
      "bank": 4605,
      "Uncle": 4606,
      "purchase": 4607,
      "tains": 4608,
      "tainted": 4609,
      "dearly": 4610,
      "laws": 4611,
      "subtle": 4612,
      "William": 4613,
      "confir": 4614,
      "younger": 4615,
      "minds": 4616,
      "rank": 4617,
      "happily": 4618,
      "steeds": 4619,
      "buz": 4620,
      "bush": 4621,
      "garland": 4622,
      "sorrows": 4623,
      "monument": 4624,
      "griefs": 4625,
      "craves": 4626,
      "sleeping": 4627,
      "thankful": 4628,
      "accursed": 4629,
      "countrymen": 4630,
      "careless": 4631,
      "irect": 4632,
      "hangs": 4633,
      "windows": 4634,
      "beauteous": 4635,
      "yielded": 4636,
      "appeal": 4637,
      "trusty": 4638,
      "plainly": 4639,
      "visage": 4640,
      "Didst": 4641,
      "game": 4642,
      "gaze": 4643,
      "sights": 4644,
      "Mean": 4645,
      "stronger": 4646,
      "wooing": 4647,
      "object": 4648,
      "executed": 4649,
      "Hail": 4650,
      "burnt": 4651,
      "burning": 4652,
      "succeed": 4653,
      "fourteen": 4654,
      "whit": 4655,
      "Perdit": 4656,
      "burst": 4657,
      "writing": 4658,
      "satisfy": 4659,
      "frowns": 4660,
      "servants": 4661,
      "frail": 4662,
      "actions": 4663,
      "harsh": 4664,
      "changing": 4665,
      "trembling": 4666,
      "triumphant": 4667,
      "executioner": 4668,
      "mirth": 4669,
      "pierce": 4670,
      "bigger": 4671,
      "infant": 4672,
      "ignorance": 4673,
      "conceal": 4674,
      "scape": 4675,
      "uries": 4676,
      "shadows": 4677,
      "determine": 4678,
      "strokes": 4679,
      "supply": 4680,
      "Better": 4681,
      "avoided": 4682,
      "thirty": 4683,
      "shrewd": 4684,
      "prophet": 4685,
      "wager": 4686,
      "modesty": 4687,
      "wolf": 4688,
      "refuse": 4689,
      "eagle": 4690,
      "hungry": 4691,
      "axe": 4692,
      "famous": 4693,
      "neglect": 4694,
      "trespass": 4695,
      "pronounce": 4696,
      "Return": 4697,
      "furnish": 4698,
      "wondrous": 4699,
      "appointed": 4700,
      "stretch": 4701,
      "repeal": 4702,
      "adversaries": 4703,
      "privilege": 4704,
      "clothes": 4705,
      "Laur": 4706,
      "opposite": 4707,
      "Conspirator": 4708,
      "Bushy": 4709,
      "Follow": 4710,
      "Happy": 4711,
      "youngest": 4712,
      "remorse": 4713,
      "mystery": 4714,
      "policy": 4715,
      "exercise": 4716,
      "Mariana": 4717,
      "ADRIAN": 4718,
      "CLEOMEN": 4719,
      "FROTH": 4720,
      "Lartius": 4721,
      "Villain": 4722,
      "Whether": 4723,
      "WILLOUGH": 4724,
      "thecary": 4725,
      "sepulch": 4726,
      "extremity": 4727,
      "Perdita": 4728,
      "CLEOMENES": 4729,
      "WILLOUGHBY": 4730,
      "AM": 4731,
      "Bur": 4732,
      "BAR": 4733,
      "Cast": 4734,
      "Ely": 4735,
      "Escal": 4736,
      "Fal": 4737,
      "Find": 4738,
      "Full": 4739,
      "Ga": 4740,
      "Gu": 4741,
      "Gree": 4742,
      "Hap": 4743,
      "Hang": 4744,
      "MOR": 4745,
      "Making": 4746,
      "NARD": 4747,
      "Oh": 4748,
      "Old": 4749,
      "Pre": 4750,
      "Que": 4751,
      "RUT": 4752,
      "Sur": 4753,
      "Send": 4754,
      "Val": 4755,
      "Vaugh": 4756,
      "Wh": 4757,
      "Wr": 4758,
      "Wed": 4759,
      "Wil": 4760,
      "Wife": 4761,
      "Woe": 4762,
      "afe": 4763,
      "ables": 4764,
      "bere": 4765,
      "bate": 4766,
      "bio": 4767,
      "bore": 4768,
      "cers": 4769,
      "dess": 4770,
      "date": 4771,
      "ev": 4772,
      "fed": 4773,
      "fil": 4774,
      "freed": 4775,
      "gid": 4776,
      "hare": 4777,
      "hrew": 4778,
      "honey": 4779,
      "ient": 4780,
      "ict": 4781,
      "iving": 4782,
      "iety": 4783,
      "lon": 4784,
      "lur": 4785,
      "lance": 4786,
      "lower": 4787,
      "lengthen": 4788,
      "mould": 4789,
      "mil": 4790,
      "mate": 4791,
      "mish": 4792,
      "nut": 4793,
      "nup": 4794,
      "nice": 4795,
      "numb": 4796,
      "pu": 4797,
      "pom": 4798,
      "pate": 4799,
      "page": 4800,
      "pised": 4801,
      "rouse": 4802,
      "smo": 4803,
      "sings": 4804,
      "swer": 4805,
      "sought": 4806,
      "skill": 4807,
      "shot": 4808,
      "vive": 4809,
      "ws": 4810,
      "wal": 4811,
      "ware": 4812,
      "yon": 4813,
      "thre": 4814,
      "thirst": 4815,
      "thrown": 4816,
      "thie": 4817,
      "thick": 4818,
      "thinking": 4819,
      "thumb": 4820,
      "inte": 4821,
      "anch": 4822,
      "ansport": 4823,
      "ising": 4824,
      "isted": 4825,
      "arrest": 4826,
      "stic": 4827,
      "stick": 4828,
      "stale": 4829,
      "lling": 4830,
      "metal": 4831,
      "toy": 4832,
      "tomorrow": 4833,
      "heat": 4834,
      "heap": 4835,
      "heels": 4836,
      "essed": 4837,
      "nobility": 4838,
      "sey": 4839,
      "secre": 4840,
      "hall": 4841,
      "hail": 4842,
      "haught": 4843,
      "hazard": 4844,
      "recomp": 4845,
      "iter": 4846,
      "itude": 4847,
      "itiff": 4848,
      "befall": 4849,
      "behavior": 4850,
      "leg": 4851,
      "cel": 4852,
      "forty": 4853,
      "chat": 4854,
      "charm": 4855,
      "roses": 4856,
      "noted": 4857,
      "lig": 4858,
      "lied": 4859,
      "liking": 4860,
      "livery": 4861,
      "likes": 4862,
      "keley": 4863,
      "rible": 4864,
      "thern": 4865,
      "etch": 4866,
      "using": 4867,
      "INE": 4868,
      "soil": 4869,
      "raven": 4870,
      "rapier": 4871,
      "dogs": 4872,
      "dozen": 4873,
      "unate": 4874,
      "unken": 4875,
      "unfold": 4876,
      "peer": 4877,
      "load": 4878,
      "fawn": 4879,
      "ckle": 4880,
      "tie": 4881,
      "amb": 4882,
      "amiss": 4883,
      "nel": 4884,
      "neat": 4885,
      "butt": 4886,
      "suing": 4887,
      "sult": 4888,
      "suits": 4889,
      "herd": 4890,
      "term": 4891,
      "conceive": 4892,
      "omit": 4893,
      "lap": 4894,
      "shallow": 4895,
      "upright": 4896,
      "share": 4897,
      "shook": 4898,
      "shines": 4899,
      "trunk": 4900,
      "transport": 4901,
      "goods": 4902,
      "board": 4903,
      "boast": 4904,
      "iling": 4905,
      "ilence": 4906,
      "caps": 4907,
      "capable": 4908,
      "caitiff": 4909,
      "Fortune": 4910,
      "sav": 4911,
      "sacri": 4912,
      "aken": 4913,
      "sirs": 4914,
      "thereby": 4915,
      "worm": 4916,
      "perni": 4917,
      "ately": 4918,
      "proved": 4919,
      "process": 4920,
      "grain": 4921,
      "somewhat": 4922,
      "discourse": 4923,
      "dismiss": 4924,
      "spread": 4925,
      "sweat": 4926,
      "nable": 4927,
      "descend": 4928,
      "bru": 4929,
      "brown": 4930,
      "telling": 4931,
      "breed": 4932,
      "bread": 4933,
      "immortal": 4934,
      "whereon": 4935,
      "counted": 4936,
      "counsell": 4937,
      "looked": 4938,
      "voli": 4939,
      "vocate": 4940,
      "affords": 4941,
      "abuse": 4942,
      "tshire": 4943,
      "Whereto": 4944,
      "Wherefore": 4945,
      "bert": 4946,
      "fearing": 4947,
      "headed": 4948,
      "flu": 4949,
      "flourish": 4950,
      "Anne": 4951,
      "coll": 4952,
      "merch": 4953,
      "warn": 4954,
      "gress": 4955,
      "scatter": 4956,
      "prime": 4957,
      "price": 4958,
      "courteous": 4959,
      "putting": 4960,
      "tricks": 4961,
      "beget": 4962,
      "childish": 4963,
      "Does": 4964,
      "train": 4965,
      "mightst": 4966,
      "lightning": 4967,
      "madness": 4968,
      "tending": 4969,
      "bestow": 4970,
      "Prove": 4971,
      "bands": 4972,
      "fardel": 4973,
      "forthwith": 4974,
      "backs": 4975,
      "earthly": 4976,
      "challen": 4977,
      "minded": 4978,
      "quired": 4979,
      "falling": 4980,
      "drunken": 4981,
      "doub": 4982,
      "closed": 4983,
      "royalty": 4984,
      "senses": 4985,
      "senseless": 4986,
      "pick": 4987,
      "vered": 4988,
      "grew": 4989,
      "greed": 4990,
      "monster": 4991,
      "strive": 4992,
      "cram": 4993,
      "waves": 4994,
      "meddle": 4995,
      "coronation": 4996,
      "offices": 4997,
      "officers": 4998,
      "careful": 4999,
      "minute": 5000,
      "bitious": 5001,
      "spoil": 5002,
      "wanting": 5003,
      "breathing": 5004,
      "Shore": 5005,
      "commonwealth": 5006,
      "beaut": 5007,
      "Licio": 5008,
      "Although": 5009,
      "yields": 5010,
      "vision": 5011,
      "zeal": 5012,
      "IDAM": 5013,
      "sadness": 5014,
      "sooner": 5015,
      "Hadst": 5016,
      "Leont": 5017,
      "Whiles": 5018,
      "Green": 5019,
      "consort": 5020,
      "Cambio": 5021,
      "Cali": 5022,
      "learned": 5023,
      "suitors": 5024,
      "acts": 5025,
      "birds": 5026,
      "execute": 5027,
      "chosen": 5028,
      "burns": 5029,
      "icians": 5030,
      "prettiest": 5031,
      "knit": 5032,
      "pitied": 5033,
      "pitiful": 5034,
      "praises": 5035,
      "covert": 5036,
      "joints": 5037,
      "torch": 5038,
      "torney": 5039,
      "velvet": 5040,
      "burden": 5041,
      "liberal": 5042,
      "written": 5043,
      "blessing": 5044,
      "possession": 5045,
      "rupt": 5046,
      "mbers": 5047,
      "violence": 5048,
      "bitterly": 5049,
      "succession": 5050,
      "borrow": 5051,
      "censure": 5052,
      "midnight": 5053,
      "cherish": 5054,
      "goddess": 5055,
      "gnant": 5056,
      "churchyard": 5057,
      "grandsire": 5058,
      "frighted": 5059,
      "clamour": 5060,
      "guests": 5061,
      "injury": 5062,
      "substance": 5063,
      "months": 5064,
      "winged": 5065,
      "inclined": 5066,
      "shrift": 5067,
      "bottom": 5068,
      "necessity": 5069,
      "tyrann": 5070,
      "prevented": 5071,
      "Dido": 5072,
      "wander": 5073,
      "inherit": 5074,
      "statue": 5075,
      "limbs": 5076,
      "troops": 5077,
      "Elbow": 5078,
      "Grace": 5079,
      "steps": 5080,
      "weapon": 5081,
      "conjure": 5082,
      "shroud": 5083,
      "companion": 5084,
      "threatening": 5085,
      "depend": 5086,
      "ARCHIDAM": 5087,
      "figure": 5088,
      "Justice": 5089,
      "multit": 5090,
      "torture": 5091,
      "rebels": 5092,
      "appreh": 5093,
      "dispersed": 5094,
      "intelligence": 5095,
      "Berkeley": 5096,
      "Strike": 5097,
      "saints": 5098,
      "escape": 5099,
      "ruthless": 5100,
      "imagine": 5101,
      "afflict": 5102,
      "Another": 5103,
      "Courage": 5104,
      "Tribunes": 5105,
      "rejoice": 5106,
      "reputation": 5107,
      "likeness": 5108,
      "tapster": 5109,
      "character": 5110,
      "Jesu": 5111,
      "spleen": 5112,
      "whores": 5113,
      "peevish": 5114,
      "proclamation": 5115,
      "warriors": 5116,
      "confirm": 5117,
      "Laurence": 5118,
      "sepulchre": 5119,
      "BARNARD": 5120,
      "Escalus": 5121,
      "Queen": 5122,
      "RUTLAND": 5123,
      "Surrey": 5124,
      "Vaughan": 5125,
      "Wiltshire": 5126,
      "giddy": 5127,
      "recompen": 5128,
      "sacrifi": 5129,
      "pernicious": 5130,
      "challenge": 5131,
      "Leontes": 5132,
      "ARCHIDAMUS": 5133,
      "BARNARDINE": 5134,
      "Abo": 5135,
      "ATER": 5136,
      "Adie": 5137,
      "Ba": 5138,
      "BAN": 5139,
      "Cle": 5140,
      "CAR": 5141,
      "CRO": 5142,
      "Dian": 5143,
      "EP": 5144,
      "Ever": 5145,
      "Fit": 5146,
      "Five": 5147,
      "FIT": 5148,
      "GO": 5149,
      "Garden": 5150,
      "Hie": 5151,
      "Hic": 5152,
      "IR": 5153,
      "IBAN": 5154,
      "Ja": 5155,
      "Live": 5156,
      "Much": 5157,
      "Mars": 5158,
      "Na": 5159,
      "Neither": 5160,
      "Nature": 5161,
      "Pur": 5162,
      "Part": 5163,
      "Prep": 5164,
      "Raven": 5165,
      "Su": 5166,
      "Sus": 5167,
      "Sly": 5168,
      "Sta": 5169,
      "Sund": 5170,
      "Swear": 5171,
      "Saw": 5172,
      "SCRO": 5173,
      "SIR": 5174,
      "Ten": 5175,
      "TON": 5176,
      "Toward": 5177,
      "TMOR": 5178,
      "Vouch": 5179,
      "Virt": 5180,
      "Wom": 5181,
      "WES": 5182,
      "WATER": 5183,
      "Yield": 5184,
      "ZWATER": 5185,
      "amain": 5186,
      "bay": 5187,
      "bent": 5188,
      "blast": 5189,
      "blot": 5190,
      "bishop": 5191,
      "cook": 5192,
      "dan": 5193,
      "dst": 5194,
      "dal": 5195,
      "dried": 5196,
      "dash": 5197,
      "een": 5198,
      "eight": 5199,
      "egi": 5200,
      "fis": 5201,
      "farm": 5202,
      "fts": 5203,
      "fanta": 5204,
      "fray": 5205,
      "gam": 5206,
      "gers": 5207,
      "gap": 5208,
      "gund": 5209,
      "gic": 5210,
      "ians": 5211,
      "ired": 5212,
      "liness": 5213,
      "mp": 5214,
      "mat": 5215,
      "mers": 5216,
      "mates": 5217,
      "mask": 5218,
      "non": 5219,
      "narrow": 5220,
      "phi": 5221,
      "pts": 5222,
      "push": 5223,
      "rue": 5224,
      "ratch": 5225,
      "rush": 5226,
      "sess": 5227,
      "swo": 5228,
      "smother": 5229,
      "slight": 5230,
      "sides": 5231,
      "shop": 5232,
      "silly": 5233,
      "tou": 5234,
      "vine": 5235,
      "vul": 5236,
      "vast": 5237,
      "vity": 5238,
      "vass": 5239,
      "wks": 5240,
      "yest": 5241,
      "oured": 5242,
      "erved": 5243,
      "errand": 5244,
      "inch": 5245,
      "iners": 5246,
      "infer": 5247,
      "insol": 5248,
      "thest": 5249,
      "arg": 5250,
      "array": 5251,
      "attain": 5252,
      "attorney": 5253,
      "oned": 5254,
      "members": 5255,
      "token": 5256,
      "height": 5257,
      "severe": 5258,
      "search": 5259,
      "hamed": 5260,
      "revel": 5261,
      "retired": 5262,
      "ittle": 5263,
      "itation": 5264,
      "beef": 5265,
      "begot": 5266,
      "betide": 5267,
      "beams": 5268,
      "lewd": 5269,
      "wipe": 5270,
      "hions": 5271,
      "owes": 5272,
      "aspect": 5273,
      "ashes": 5274,
      "ashamed": 5275,
      "erest": 5276,
      "utch": 5277,
      "roo": 5278,
      "roof": 5279,
      "rope": 5280,
      "robes": 5281,
      "robb": 5282,
      "notice": 5283,
      "lick": 5284,
      "lions": 5285,
      "depose": 5286,
      "decre": 5287,
      "devour": 5288,
      "destruction": 5289,
      "wears": 5290,
      "week": 5291,
      "kets": 5292,
      "ourself": 5293,
      "entrance": 5294,
      "hist": 5295,
      "riel": 5296,
      "riches": 5297,
      "adul": 5298,
      "admir": 5299,
      "also": 5300,
      "allegi": 5301,
      "soms": 5302,
      "sophy": 5303,
      "rag": 5304,
      "raid": 5305,
      "rack": 5306,
      "ung": 5307,
      "unkindness": 5308,
      "hoar": 5309,
      "pel": 5310,
      "peach": 5311,
      "fever": 5312,
      "lovers": 5313,
      "loathe": 5314,
      "losophy": 5315,
      "idered": 5316,
      "verty": 5317,
      "fami": 5318,
      "favours": 5319,
      "shade": 5320,
      "amends": 5321,
      "amorous": 5322,
      "ambitious": 5323,
      "ainted": 5324,
      "supre": 5325,
      "herald": 5326,
      "conquest": 5327,
      "consequ": 5328,
      "constable": 5329,
      "prou": 5330,
      "Thine": 5331,
      "Things": 5332,
      "upid": 5333,
      "shown": 5334,
      "shining": 5335,
      "pot": 5336,
      "poverty": 5337,
      "trans": 5338,
      "ORGE": 5339,
      "moan": 5340,
      "bled": 5341,
      "blemish": 5342,
      "shel": 5343,
      "cab": 5344,
      "ulate": 5345,
      "sack": 5346,
      "saved": 5347,
      "knowing": 5348,
      "pers": 5349,
      "pery": 5350,
      "perience": 5351,
      "cture": 5352,
      "outrage": 5353,
      "ELY": 5354,
      "ELAND": 5355,
      "dia": 5356,
      "dig": 5357,
      "cially": 5358,
      "likewise": 5359,
      "speaking": 5360,
      "provide": 5361,
      "qua": 5362,
      "quainted": 5363,
      "plebe": 5364,
      "apace": 5365,
      "aved": 5366,
      "fiend": 5367,
      "discontent": 5368,
      "discre": 5369,
      "dissol": 5370,
      "discontented": 5371,
      "ount": 5372,
      "esteem": 5373,
      "marvel": 5374,
      "marvell": 5375,
      "takest": 5376,
      "plan": 5377,
      "swears": 5378,
      "acles": 5379,
      "acquainted": 5380,
      "Becomes": 5381,
      "Withdraw": 5382,
      "landed": 5383,
      "angers": 5384,
      "exped": 5385,
      "experience": 5386,
      "brat": 5387,
      "baw": 5388,
      "baby": 5389,
      "isement": 5390,
      "imper": 5391,
      "Comes": 5392,
      "afraid": 5393,
      "misfortune": 5394,
      "abund": 5395,
      "nights": 5396,
      "offences": 5397,
      "Whereof": 5398,
      "lief": 5399,
      "prefer": 5400,
      "cheap": 5401,
      "cheque": 5402,
      "partner": 5403,
      "livest": 5404,
      "undo": 5405,
      "flay": 5406,
      "pace": 5407,
      "sweetly": 5408,
      "cozen": 5409,
      "merc": 5410,
      "resem": 5411,
      "dame": 5412,
      "ulls": 5413,
      "grity": 5414,
      "scri": 5415,
      "scandal": 5416,
      "scratch": 5417,
      "worldly": 5418,
      "downright": 5419,
      "presume": 5420,
      "holding": 5421,
      "courtier": 5422,
      "pute": 5423,
      "trim": 5424,
      "BAGO": 5425,
      "travell": 5426,
      "stays": 5427,
      "bidding": 5428,
      "brains": 5429,
      "parents": 5430,
      "parties": 5431,
      "STEP": 5432,
      "Shalt": 5433,
      "purge": 5434,
      "purple": 5435,
      "helps": 5436,
      "dearer": 5437,
      "couldst": 5438,
      "hopeful": 5439,
      "confound": 5440,
      "drew": 5441,
      "homely": 5442,
      "falls": 5443,
      "steed": 5444,
      "reply": 5445,
      "bud": 5446,
      "temples": 5447,
      "busy": 5448,
      "carries": 5449,
      "bridal": 5450,
      "compli": 5451,
      "compound": 5452,
      "falcon": 5453,
      "CALIBAN": 5454,
      "monarch": 5455,
      "petty": 5456,
      "turned": 5457,
      "eldest": 5458,
      "contents": 5459,
      "sounds": 5460,
      "sounded": 5461,
      "wax": 5462,
      "balm": 5463,
      "ventry": 5464,
      "straw": 5465,
      "revenges": 5466,
      "spot": 5467,
      "readiness": 5468,
      "villains": 5469,
      "kisses": 5470,
      "lately": 5471,
      "creant": 5472,
      "Conf": 5473,
      "Content": 5474,
      "winters": 5475,
      "beats": 5476,
      "beaten": 5477,
      "Canst": 5478,
      "lambs": 5479,
      "Comfort": 5480,
      "considered": 5481,
      "Methought": 5482,
      "wisely": 5483,
      "devilish": 5484,
      "entreaties": 5485,
      "boldly": 5486,
      "boldness": 5487,
      "defy": 5488,
      "crush": 5489,
      "folks": 5490,
      "bowels": 5491,
      "youthful": 5492,
      "Captain": 5493,
      "musicians": 5494,
      "droop": 5495,
      "testim": 5496,
      "signal": 5497,
      "signify": 5498,
      "Welsh": 5499,
      "flattering": 5500,
      "tempted": 5501,
      "cheerly": 5502,
      "grieves": 5503,
      "grieved": 5504,
      "Persu": 5505,
      "Perhaps": 5506,
      "divor": 5507,
      "satisfaction": 5508,
      "interchange": 5509,
      "framed": 5510,
      "towns": 5511,
      "darkness": 5512,
      "hurl": 5513,
      "Trust": 5514,
      "imagin": 5515,
      "suddenly": 5516,
      "cloudy": 5517,
      "cowardly": 5518,
      "eaten": 5519,
      "seated": 5520,
      "lamentable": 5521,
      "fondly": 5522,
      "kinsmen": 5523,
      "approbation": 5524,
      "middle": 5525,
      "storms": 5526,
      "departure": 5527,
      "mildly": 5528,
      "mildness": 5529,
      "gladly": 5530,
      "greeting": 5531,
      "reckon": 5532,
      "treasons": 5533,
      "piercing": 5534,
      "troubled": 5535,
      "Blunt": 5536,
      "evils": 5537,
      "fingers": 5538,
      "mutinous": 5539,
      "condemned": 5540,
      "grandam": 5541,
      "sentenced": 5542,
      "usurping": 5543,
      "Verily": 5544,
      "stops": 5545,
      "spurgh": 5546,
      "mount": 5547,
      "bastards": 5548,
      "neighbours": 5549,
      "EXTON": 5550,
      "seized": 5551,
      "amongst": 5552,
      "ministers": 5553,
      "conclude": 5554,
      "GEORGE": 5555,
      "frank": 5556,
      "gifts": 5557,
      "ghostly": 5558,
      "Antigon": 5559,
      "keys": 5560,
      "designs": 5561,
      "wandering": 5562,
      "lodged": 5563,
      "persuade": 5564,
      "branch": 5565,
      "preserve": 5566,
      "physic": 5567,
      "Else": 5568,
      "eleven": 5569,
      "shoes": 5570,
      "tutor": 5571,
      "vanity": 5572,
      "weapons": 5573,
      "sufficient": 5574,
      "accusation": 5575,
      "corrupt": 5576,
      "frost": 5577,
      "comfortable": 5578,
      "Patience": 5579,
      "lists": 5580,
      "instantly": 5581,
      "stolen": 5582,
      "revolt": 5583,
      "complaint": 5584,
      "Coventry": 5585,
      "nobleness": 5586,
      "provoked": 5587,
      "example": 5588,
      "heavier": 5589,
      "profane": 5590,
      "circumstance": 5591,
      "Appear": 5592,
      "Benvoli": 5593,
      "LISLE": 5594,
      "couple": 5595,
      "function": 5596,
      "incensed": 5597,
      "occupation": 5598,
      "substitute": 5599,
      "complexion": 5600,
      "pilgrimage": 5601,
      "reconcile": 5602,
      "Curtis": 5603,
      "Minola": 5604,
      "Venice": 5605,
      "nesday": 5606,
      "believed": 5607,
      "feigned": 5608,
      "estimation": 5609,
      "Burgund": 5610,
      "False": 5611,
      "Gaoler": 5612,
      "Wednesday": 5613,
      "freedom": 5614,
      "nuptial": 5615,
      "pomp": 5616,
      "thieves": 5617,
      "integrity": 5618,
      "savage": 5619,
      "merchant": 5620,
      "Caliban": 5621,
      "tyrannous": 5622,
      "recompense": 5623,
      "Above": 5624,
      "Adieu": 5625,
      "Bagot": 5626,
      "CARLISLE": 5627,
      "FITZWATER": 5628,
      "Gardener": 5629,
      "Name": 5630,
      "Prepare": 5631,
      "Ravenspurgh": 5632,
      "Sunday": 5633,
      "SCROOP": 5634,
      "Towards": 5635,
      "TMORELAND": 5636,
      "Vouchsafe": 5637,
      "Women": 5638,
      "WESTMORELAND": 5639,
      "philosophy": 5640,
      "adulter": 5641,
      "allegiance": 5642,
      "BAGOT": 5643,
      "STEPHEN": 5644,
      "Antigonus": 5645,
      "Benvolio": 5646,
      "Burgundy": 5647,
      "Ariel": 5648,
      "Bound": 5649,
      "Best": 5650,
      "Bold": 5651,
      "Bel": 5652,
      "Bishop": 5653,
      "Che": 5654,
      "Cut": 5655,
      "Conce": 5656,
      "Carth": 5657,
      "Cupid": 5658,
      "Da": 5659,
      "Dest": 5660,
      "Del": 5661,
      "Er": 5662,
      "Fall": 5663,
      "Fill": 5664,
      "Foul": 5665,
      "Fetch": 5666,
      "Gives": 5667,
      "Jup": 5668,
      "Kent": 5669,
      "Kill": 5670,
      "Kind": 5671,
      "Lend": 5672,
      "Lies": 5673,
      "Murder": 5674,
      "Ned": 5675,
      "Nep": 5676,
      "Obe": 5677,
      "Over": 5678,
      "Pem": 5679,
      "Red": 5680,
      "Rel": 5681,
      "Sm": 5682,
      "Sy": 5683,
      "Sor": 5684,
      "Str": 5685,
      "Sic": 5686,
      "Scot": 5687,
      "Tur": 5688,
      "Tun": 5689,
      "Troy": 5690,
      "Touch": 5691,
      "Twixt": 5692,
      "Talk": 5693,
      "Twice": 5694,
      "Truly": 5695,
      "Wer": 5696,
      "Walter": 5697,
      "Zounds": 5698,
      "ape": 5699,
      "aves": 5700,
      "bul": 5701,
      "bune": 5702,
      "bene": 5703,
      "bows": 5704,
      "bench": 5705,
      "bounty": 5706,
      "cu": 5707,
      "cis": 5708,
      "cand": 5709,
      "cta": 5710,
      "cence": 5711,
      "crest": 5712,
      "cats": 5713,
      "dine": 5714,
      "dined": 5715,
      "ell": 5716,
      "eves": 5717,
      "efest": 5718,
      "fin": 5719,
      "fron": 5720,
      "fume": 5721,
      "gust": 5722,
      "gory": 5723,
      "hound": 5724,
      "hounds": 5725,
      "ivant": 5726,
      "icles": 5727,
      "kites": 5728,
      "lin": 5729,
      "lute": 5730,
      "ming": 5731,
      "mom": 5732,
      "mouse": 5733,
      "nic": 5734,
      "nigh": 5735,
      "nimble": 5736,
      "os": 5737,
      "pan": 5738,
      "phe": 5739,
      "pow": 5740,
      "pir": 5741,
      "pour": 5742,
      "ply": 5743,
      "pence": 5744,
      "pular": 5745,
      "rat": 5746,
      "rhe": 5747,
      "rish": 5748,
      "rist": 5749,
      "rushes": 5750,
      "sow": 5751,
      "soo": 5752,
      "ssi": 5753,
      "twould": 5754,
      "tany": 5755,
      "torn": 5756,
      "tered": 5757,
      "ually": 5758,
      "uced": 5759,
      "vou": 5760,
      "vance": 5761,
      "wre": 5762,
      "wart": 5763,
      "yare": 5764,
      "zing": 5765,
      "zel": 5766,
      "thood": 5767,
      "ero": 5768,
      "inu": 5769,
      "inward": 5770,
      "inces": 5771,
      "inies": 5772,
      "invent": 5773,
      "injustice": 5774,
      "inquire": 5775,
      "insult": 5776,
      "theme": 5777,
      "ored": 5778,
      "orator": 5779,
      "istr": 5780,
      "isting": 5781,
      "enrich": 5782,
      "enforced": 5783,
      "arise": 5784,
      "arning": 5785,
      "ato": 5786,
      "stin": 5787,
      "start": 5788,
      "stag": 5789,
      "stark": 5790,
      "stiff": 5791,
      "lled": 5792,
      "meth": 5793,
      "meed": 5794,
      "meal": 5795,
      "methought": 5796,
      "toe": 5797,
      "tops": 5798,
      "toads": 5799,
      "andon": 5800,
      "heth": 5801,
      "heal": 5802,
      "heel": 5803,
      "heinous": 5804,
      "nock": 5805,
      "separ": 5806,
      "hag": 5807,
      "reb": 5808,
      "rein": 5809,
      "redem": 5810,
      "requit": 5811,
      "require": 5812,
      "revive": 5813,
      "recreant": 5814,
      "veil": 5815,
      "itable": 5816,
      "ittany": 5817,
      "belong": 5818,
      "leap": 5819,
      "leful": 5820,
      "level": 5821,
      "learning": 5822,
      "wield": 5823,
      "hild": 5824,
      "cels": 5825,
      "forgiven": 5826,
      "forsooth": 5827,
      "asking": 5828,
      "asant": 5829,
      "assem": 5830,
      "chers": 5831,
      "chol": 5832,
      "chose": 5833,
      "chances": 5834,
      "utmost": 5835,
      "ross": 5836,
      "roaring": 5837,
      "liver": 5838,
      "lihood": 5839,
      "deer": 5840,
      "deceive": 5841,
      "wet": 5842,
      "rig": 5843,
      "rice": 5844,
      "ripen": 5845,
      "advocate": 5846,
      "ales": 5847,
      "aloud": 5848,
      "allay": 5849,
      "allies": 5850,
      "uring": 5851,
      "usual": 5852,
      "race": 5853,
      "rails": 5854,
      "rages": 5855,
      "uned": 5856,
      "unlook": 5857,
      "unseen": 5858,
      "unworthy": 5859,
      "unwilling": 5860,
      "unluck": 5861,
      "unruly": 5862,
      "hole": 5863,
      "maker": 5864,
      "pearl": 5865,
      "peian": 5866,
      "lodge": 5867,
      "herein": 5868,
      "manly": 5869,
      "manhood": 5870,
      "tiger": 5871,
      "shapen": 5872,
      "ami": 5873,
      "butter": 5874,
      "suivant": 5875,
      "ards": 5876,
      "heres": 5877,
      "herds": 5878,
      "terr": 5879,
      "conspir": 5880,
      "prate": 5881,
      "prise": 5882,
      "prating": 5883,
      "Throw": 5884,
      "endured": 5885,
      "moral": 5886,
      "upper": 5887,
      "shar": 5888,
      "shout": 5889,
      "shru": 5890,
      "postern": 5891,
      "popular": 5892,
      "tack": 5893,
      "taunts": 5894,
      "trow": 5895,
      "whatsoever": 5896,
      "ousins": 5897,
      "moe": 5898,
      "moving": 5899,
      "model": 5900,
      "moiety": 5901,
      "teth": 5902,
      "gossi": 5903,
      "boister": 5904,
      "bosoms": 5905,
      "sheathe": 5906,
      "shearing": 5907,
      "capit": 5908,
      "causes": 5909,
      "blue": 5910,
      "blance": 5911,
      "bliss": 5912,
      "sacra": 5913,
      "thereto": 5914,
      "worser": 5915,
      "worms": 5916,
      "canop": 5917,
      "perfection": 5918,
      "permit": 5919,
      "ctor": 5920,
      "ived": 5921,
      "combat": 5922,
      "compassion": 5923,
      "seeks": 5924,
      "diest": 5925,
      "forehead": 5926,
      "agre": 5927,
      "eping": 5928,
      "earn": 5929,
      "likelihood": 5930,
      "spect": 5931,
      "specta": 5932,
      "broo": 5933,
      "procure": 5934,
      "West": 5935,
      "quis": 5936,
      "quake": 5937,
      "Heart": 5938,
      "mustard": 5939,
      "graces": 5940,
      "apart": 5941,
      "shoulders": 5942,
      "fiance": 5943,
      "ignoble": 5944,
      "distress": 5945,
      "discharge": 5946,
      "displeasure": 5947,
      "distur": 5948,
      "spa": 5949,
      "split": 5950,
      "spark": 5951,
      "spider": 5952,
      "Intend": 5953,
      "vial": 5954,
      "marshal": 5955,
      "plate": 5956,
      "nail": 5957,
      "nails": 5958,
      "ABRA": 5959,
      "despised": 5960,
      "exceed": 5961,
      "except": 5962,
      "brotherhood": 5963,
      "brand": 5964,
      "bald": 5965,
      "eyed": 5966,
      "breeding": 5967,
      "otherwise": 5968,
      "impeach": 5969,
      "chiefest": 5970,
      "mischief": 5971,
      "nighting": 5972,
      "chest": 5973,
      "named": 5974,
      "serious": 5975,
      "serpent": 5976,
      "fox": 5977,
      "everlasting": 5978,
      "prays": 5979,
      "sweetest": 5980,
      "fortunate": 5981,
      "Anton": 5982,
      "Answer": 5983,
      "coast": 5984,
      "ize": 5985,
      "northern": 5986,
      "resist": 5987,
      "pped": 5988,
      "wares": 5989,
      "commends": 5990,
      "grate": 5991,
      "grass": 5992,
      "intents": 5993,
      "rests": 5994,
      "wring": 5995,
      "scour": 5996,
      "downfall": 5997,
      "ornaments": 5998,
      "Thank": 5999,
      "mothers": 6000,
      "courts": 6001,
      "courses": 6002,
      "oppression": 6003,
      "tried": 6004,
      "trifles": 6005,
      "tribune": 6006,
      "cler": 6007,
      "friendship": 6008,
      "attern": 6009,
      "lights": 6010,
      "insinu": 6011,
      "grim": 6012,
      "angels": 6013,
      "talking": 6014,
      "gued": 6015,
      "Proclaim": 6016,
      "Prosper": 6017,
      "henceforth": 6018,
      "tents": 6019,
      "Shame": 6020,
      "pursue": 6021,
      "pursuit": 6022,
      "keeping": 6023,
      "charges": 6024,
      "dearth": 6025,
      "meaner": 6026,
      "Thyself": 6027,
      "beside": 6028,
      "confidence": 6029,
      "confeder": 6030,
      "champ": 6031,
      "throng": 6032,
      "getting": 6033,
      "ransom": 6034,
      "afterward": 6035,
      "clean": 6036,
      "fallen": 6037,
      "steep": 6038,
      "steward": 6039,
      "drinking": 6040,
      "patron": 6041,
      "temple": 6042,
      "tempor": 6043,
      "cloak": 6044,
      "dram": 6045,
      "dragon": 6046,
      "bric": 6047,
      "compare": 6048,
      "royalties": 6049,
      "sensible": 6050,
      "wronged": 6051,
      "pilot": 6052,
      "tingu": 6053,
      "thousands": 6054,
      "strife": 6055,
      "strict": 6056,
      "crab": 6057,
      "poses": 6058,
      "waits": 6059,
      "accustom": 6060,
      "reasonable": 6061,
      "corax": 6062,
      "minutes": 6063,
      "revenue": 6064,
      "hangman": 6065,
      "window": 6066,
      "commands": 6067,
      "Teach": 6068,
      "Tewks": 6069,
      "doubtful": 6070,
      "humility": 6071,
      "Alban": 6072,
      "crept": 6073,
      "yielding": 6074,
      "Cons": 6075,
      "delicate": 6076,
      "appears": 6077,
      "smiling": 6078,
      "Sometime": 6079,
      "breaks": 6080,
      "battles": 6081,
      "sitting": 6082,
      "persons": 6083,
      "tenderness": 6084,
      "gather": 6085,
      "gaunt": 6086,
      "watery": 6087,
      "destiny": 6088,
      "reported": 6089,
      "singular": 6090,
      "sadly": 6091,
      "Commit": 6092,
      "Command": 6093,
      "growth": 6094,
      "runs": 6095,
      "Lead": 6096,
      "silk": 6097,
      "crying": 6098,
      "Read": 6099,
      "Ready": 6100,
      "devils": 6101,
      "entreaty": 6102,
      "Montagues": 6103,
      "suppose": 6104,
      "quarter": 6105,
      "calamity": 6106,
      "revengeful": 6107,
      "bowl": 6108,
      "speedy": 6109,
      "confessor": 6110,
      "confession": 6111,
      "damnable": 6112,
      "pedlar": 6113,
      "leaden": 6114,
      "harmony": 6115,
      "musician": 6116,
      "murderous": 6117,
      "hesy": 6118,
      "surfeit": 6119,
      "bella": 6120,
      "Char": 6121,
      "Christ": 6122,
      "dukes": 6123,
      "wonderful": 6124,
      "attended": 6125,
      "stocks": 6126,
      "safely": 6127,
      "safeguard": 6128,
      "Volscians": 6129,
      "Volscian": 6130,
      "flatterers": 6131,
      "lads": 6132,
      "rising": 6133,
      "wedded": 6134,
      "prophesy": 6135,
      "suffering": 6136,
      "sufferance": 6137,
      "breasts": 6138,
      "knocks": 6139,
      "springs": 6140,
      "creation": 6141,
      "hinder": 6142,
      "feasts": 6143,
      "troubl": 6144,
      "blade": 6145,
      "blaze": 6146,
      "visitation": 6147,
      "Isabella": 6148,
      "Mistake": 6149,
      "harbour": 6150,
      "harvest": 6151,
      "acknow": 6152,
      "easily": 6153,
      "Stands": 6154,
      "lamentation": 6155,
      "approved": 6156,
      "lowly": 6157,
      "midst": 6158,
      "midwife": 6159,
      "smallest": 6160,
      "innocence": 6161,
      "lected": 6162,
      "proceedings": 6163,
      "climate": 6164,
      "dared": 6165,
      "reigns": 6166,
      "eternal": 6167,
      "grandfather": 6168,
      "leaving": 6169,
      "prosperity": 6170,
      "spurs": 6171,
      "plants": 6172,
      "glasses": 6173,
      "slanderous": 6174,
      "mountain": 6175,
      "Capulets": 6176,
      "portion": 6177,
      "bending": 6178,
      "support": 6179,
      "sixteen": 6180,
      "loyalty": 6181,
      "prophecy": 6182,
      "loose": 6183,
      "stooping": 6184,
      "conclusion": 6185,
      "extremes": 6186,
      "drift": 6187,
      "franch": 6188,
      "frantic": 6189,
      "pinch": 6190,
      "blushing": 6191,
      "Antium": 6192,
      "eager": 6193,
      "loathsome": 6194,
      "aims": 6195,
      "crows": 6196,
      "slily": 6197,
      "statutes": 6198,
      "lodging": 6199,
      "disgraced": 6200,
      "branches": 6201,
      "guiltless": 6202,
      "Brittany": 6203,
      "fleet": 6204,
      "shrink": 6205,
      "cracking": 6206,
      "corruption": 6207,
      "conqueror": 6208,
      "frozen": 6209,
      "infected": 6210,
      "ARCHBISHOP": 6211,
      "advanced": 6212,
      "Patri": 6213,
      "Suppose": 6214,
      "medic": 6215,
      "magistr": 6216,
      "Break": 6217,
      "Fellow": 6218,
      "fifteen": 6219,
      "lunatic": 6220,
      "render": 6221,
      "swelling": 6222,
      "adverse": 6223,
      "advertis": 6224,
      "perjured": 6225,
      "abhorr": 6226,
      "beggars": 6227,
      "whispering": 6228,
      "murders": 6229,
      "murdered": 6230,
      "Tarpeian": 6231,
      "buckle": 6232,
      "ctious": 6233,
      "councils": 6234,
      "wrinkled": 6235,
      "tribute": 6236,
      "beseeming": 6237,
      "correction": 6238,
      "ceremonious": 6239,
      "Lieutenant": 6240,
      "lenity": 6241,
      "moody": 6242,
      "tardy": 6243,
      "varlet": 6244,
      "decay": 6245,
      "concerns": 6246,
      "afeard": 6247,
      "bereft": 6248,
      "milk": 6249,
      "numbers": 6250,
      "puiss": 6251,
      "anchor": 6252,
      "secrets": 6253,
      "ligence": 6254,
      "counsellor": 6255,
      "multitude": 6256,
      "whoreson": 6257,
      "Virtue": 6258,
      "dancing": 6259,
      "fantastic": 6260,
      "yester": 6261,
      "history": 6262,
      "loathed": 6263,
      "familiar": 6264,
      "consequence": 6265,
      "proudest": 6266,
      "cabin": 6267,
      "plebeians": 6268,
      "marvellous": 6269,
      "Confess": 6270,
      "imagination": 6271,
      "Carthage": 6272,
      "Jupiter": 6273,
      "Neptune": 6274,
      "Pembroke": 6275,
      "Sycorax": 6276,
      "Scotland": 6277,
      "Tunis": 6278,
      "Wert": 6279,
      "moment": 6280,
      "redemption": 6281,
      "boisterous": 6282,
      "sacrament": 6283,
      "disturb": 6284,
      "ABRAHAM": 6285,
      "Antonio": 6286,
      "Tewksbury": 6287,
      "Again": 6288,
      "Ban": 6289,
      "Bad": 6290,
      "BON": 6291,
      "Bless": 6292,
      "Back": 6293,
      "Cy": 6294,
      "Cal": 6295,
      "Cher": 6296,
      "Cold": 6297,
      "Cond": 6298,
      "Carry": 6299,
      "Cursed": 6300,
      "Du": 6301,
      "Dou": 6302,
      "Den": 6303,
      "Dro": 6304,
      "Dare": 6305,
      "DION": 6306,
      "Darest": 6307,
      "Direct": 6308,
      "Em": 6309,
      "End": 6310,
      "Eli": 6311,
      "Every": 6312,
      "Emi": 6313,
      "EMIL": 6314,
      "Fer": 6315,
      "Fly": 6316,
      "Fif": 6317,
      "Fran": 6318,
      "Gri": 6319,
      "Gain": 6320,
      "Groom": 6321,
      "Grand": 6322,
      "Hun": 6323,
      "Host": 6324,
      "Honest": 6325,
      "High": 6326,
      "Harp": 6327,
      "Ill": 6328,
      "Jer": 6329,
      "Jud": 6330,
      "Knock": 6331,
      "Lam": 6332,
      "Lef": 6333,
      "Mast": 6334,
      "Ni": 6335,
      "Near": 6336,
      "NATH": 6337,
      "Open": 6338,
      "Pha": 6339,
      "Pho": 6340,
      "Pla": 6341,
      "Pres": 6342,
      "Ren": 6343,
      "Run": 6344,
      "Rest": 6345,
      "SU": 6346,
      "Sin": 6347,
      "Ste": 6348,
      "Smile": 6349,
      "Sub": 6350,
      "Tw": 6351,
      "Tra": 6352,
      "Twill": 6353,
      "Ur": 6354,
      "Wit": 6355,
      "Wales": 6356,
      "ais": 6357,
      "abe": 6358,
      "awe": 6359,
      "afore": 6360,
      "bi": 6361,
      "bone": 6362,
      "bind": 6363,
      "bout": 6364,
      "boun": 6365,
      "bac": 6366,
      "bought": 6367,
      "card": 6368,
      "cund": 6369,
      "cation": 6370,
      "cuck": 6371,
      "ctive": 6372,
      "camp": 6373,
      "curious": 6374,
      "ckets": 6375,
      "cousins": 6376,
      "dun": 6377,
      "dart": 6378,
      "drow": 6379,
      "dity": 6380,
      "dru": 6381,
      "dling": 6382,
      "dumb": 6383,
      "dangers": 6384,
      "elo": 6385,
      "ege": 6386,
      "eous": 6387,
      "ect": 6388,
      "eks": 6389,
      "ebus": 6390,
      "eches": 6391,
      "ebb": 6392,
      "fty": 6393,
      "flock": 6394,
      "gay": 6395,
      "gul": 6396,
      "gloves": 6397,
      "ggest": 6398,
      "gasp": 6399,
      "gative": 6400,
      "hook": 6401,
      "iven": 6402,
      "iel": 6403,
      "ival": 6404,
      "ju": 6405,
      "jade": 6406,
      "lou": 6407,
      "lous": 6408,
      "link": 6409,
      "lful": 6410,
      "lends": 6411,
      "leness": 6412,
      "mum": 6413,
      "mpt": 6414,
      "mph": 6415,
      "miles": 6416,
      "muff": 6417,
      "mongst": 6418,
      "nie": 6419,
      "nourish": 6420,
      "otion": 6421,
      "pere": 6422,
      "pho": 6423,
      "pter": 6424,
      "pine": 6425,
      "pant": 6426,
      "pull": 6427,
      "plight": 6428,
      "pud": 6429,
      "paint": 6430,
      "pounds": 6431,
      "puff": 6432,
      "pattern": 6433,
      "rats": 6434,
      "rites": 6435,
      "sine": 6436,
      "squ": 6437,
      "sith": 6438,
      "slack": 6439,
      "schol": 6440,
      "tink": 6441,
      "tance": 6442,
      "treat": 6443,
      "tling": 6444,
      "tumble": 6445,
      "uge": 6446,
      "uous": 6447,
      "ucy": 6448,
      "ubs": 6449,
      "umes": 6450,
      "vig": 6451,
      "vation": 6452,
      "viness": 6453,
      "wave": 6454,
      "whelm": 6455,
      "wenches": 6456,
      "waken": 6457,
      "zy": 6458,
      "zz": 6459,
      "zon": 6460,
      "zes": 6461,
      "zement": 6462,
      "zabe": 6463,
      "thom": 6464,
      "thres": 6465,
      "thwa": 6466,
      "thwart": 6467,
      "error": 6468,
      "inv": 6469,
      "iner": 6470,
      "inve": 6471,
      "ination": 6472,
      "inconstant": 6473,
      "inhabit": 6474,
      "ank": 6475,
      "ann": 6476,
      "anks": 6477,
      "ancy": 6478,
      "antic": 6479,
      "aniel": 6480,
      "thed": 6481,
      "ores": 6482,
      "orch": 6483,
      "orph": 6484,
      "isome": 6485,
      "issued": 6486,
      "ening": 6487,
      "ared": 6488,
      "argo": 6489,
      "arum": 6490,
      "armed": 6491,
      "arbit": 6492,
      "attent": 6493,
      "sti": 6494,
      "stall": 6495,
      "sters": 6496,
      "stem": 6497,
      "strel": 6498,
      "stinking": 6499,
      "staff": 6500,
      "llies": 6501,
      "mete": 6502,
      "mellow": 6503,
      "tower": 6504,
      "topher": 6505,
      "ander": 6506,
      "heigh": 6507,
      "noses": 6508,
      "sex": 6509,
      "seth": 6510,
      "seed": 6511,
      "halt": 6512,
      "haunt": 6513,
      "hazel": 6514,
      "repri": 6515,
      "recover": 6516,
      "repossess": 6517,
      "reproof": 6518,
      "required": 6519,
      "ingrate": 6520,
      "beet": 6521,
      "befal": 6522,
      "beads": 6523,
      "befits": 6524,
      "beware": 6525,
      "levy": 6526,
      "levied": 6527,
      "wilful": 6528,
      "forces": 6529,
      "formed": 6530,
      "forsake": 6531,
      "fornic": 6532,
      "asy": 6533,
      "asures": 6534,
      "chop": 6535,
      "rode": 6536,
      "rocks": 6537,
      "notes": 6538,
      "notwith": 6539,
      "notorious": 6540,
      "liqu": 6541,
      "ligent": 6542,
      "degre": 6543,
      "device": 6544,
      "deform": 6545,
      "deeper": 6546,
      "debase": 6547,
      "decease": 6548,
      "weed": 6549,
      "western": 6550,
      "hatch": 6551,
      "ently": 6552,
      "entire": 6553,
      "entrails": 6554,
      "rion": 6555,
      "rial": 6556,
      "rivers": 6557,
      "rival": 6558,
      "adise": 6559,
      "admi": 6560,
      "alty": 6561,
      "altogether": 6562,
      "alarum": 6563,
      "etition": 6564,
      "allel": 6565,
      "ghts": 6566,
      "solic": 6567,
      "ram": 6568,
      "raging": 6569,
      "raiment": 6570,
      "ordin": 6571,
      "doves": 6572,
      "dowick": 6573,
      "doors": 6574,
      "domin": 6575,
      "doms": 6576,
      "unity": 6577,
      "unborn": 6578,
      "uncertain": 6579,
      "unlawful": 6580,
      "unfeigned": 6581,
      "holi": 6582,
      "hoped": 6583,
      "homage": 6584,
      "feat": 6585,
      "feits": 6586,
      "feeding": 6587,
      "female": 6588,
      "areth": 6589,
      "loins": 6590,
      "idly": 6591,
      "iders": 6592,
      "verse": 6593,
      "vering": 6594,
      "vernor": 6595,
      "fathom": 6596,
      "mang": 6597,
      "mantle": 6598,
      "shades": 6599,
      "shaped": 6600,
      "amend": 6601,
      "neath": 6602,
      "geld": 6603,
      "sul": 6604,
      "sugar": 6605,
      "sunder": 6606,
      "suggest": 6607,
      "herbs": 6608,
      "tering": 6609,
      "terrible": 6610,
      "conge": 6611,
      "contri": 6612,
      "contem": 6613,
      "pry": 6614,
      "print": 6615,
      "prunes": 6616,
      "prero": 6617,
      "ender": 6618,
      "omenes": 6619,
      "morous": 6620,
      "shower": 6621,
      "pox": 6622,
      "potent": 6623,
      "pocket": 6624,
      "ANIEL": 6625,
      "tag": 6626,
      "tax": 6627,
      "tach": 6628,
      "tamed": 6629,
      "trench": 6630,
      "trades": 6631,
      "whate": 6632,
      "moder": 6633,
      "governor": 6634,
      "hension": 6635,
      "bleed": 6636,
      "bleeds": 6637,
      "Whate": 6638,
      "wasp": 6639,
      "box": 6640,
      "boon": 6641,
      "bodes": 6642,
      "bolt": 6643,
      "venient": 6644,
      "sheet": 6645,
      "cave": 6646,
      "capar": 6647,
      "ulous": 6648,
      "blish": 6649,
      "blister": 6650,
      "Fore": 6651,
      "Forth": 6652,
      "Forgive": 6653,
      "Forbear": 6654,
      "sap": 6655,
      "sage": 6656,
      "safer": 6657,
      "savour": 6658,
      "saucy": 6659,
      "indiffer": 6660,
      "indirect": 6661,
      "canker": 6662,
      "perd": 6663,
      "ively": 6664,
      "commo": 6665,
      "composition": 6666,
      "sayest": 6667,
      "diet": 6668,
      "dict": 6669,
      "dience": 6670,
      "digest": 6671,
      "divide": 6672,
      "division": 6673,
      "cipl": 6674,
      "forest": 6675,
      "agate": 6676,
      "agreed": 6677,
      "earl": 6678,
      "earldom": 6679,
      "spear": 6680,
      "Gold": 6681,
      "broach": 6682,
      "umps": 6683,
      "umny": 6684,
      "wayward": 6685,
      "timeless": 6686,
      "quet": 6687,
      "quity": 6688,
      "Hector": 6689,
      "pledge": 6690,
      "musty": 6691,
      "graft": 6692,
      "ancest": 6693,
      "disco": 6694,
      "distra": 6695,
      "disorder": 6696,
      "disposed": 6697,
      "distin": 6698,
      "discharged": 6699,
      "distres": 6700,
      "discords": 6701,
      "distingu": 6702,
      "ounce": 6703,
      "sped": 6704,
      "spire": 6705,
      "spices": 6706,
      "spilt": 6707,
      "spiders": 6708,
      "Infer": 6709,
      "vio": 6710,
      "marr": 6711,
      "marble": 6712,
      "mariners": 6713,
      "Thoughts": 6714,
      "pless": 6715,
      "sies": 6716,
      "sied": 6717,
      "siege": 6718,
      "acy": 6719,
      "accent": 6720,
      "accompl": 6721,
      "hears": 6722,
      "hearken": 6723,
      "Beg": 6724,
      "Belike": 6725,
      "string": 6726,
      "strumpet": 6727,
      "strengthen": 6728,
      "naw": 6729,
      "naught": 6730,
      "angle": 6731,
      "angled": 6732,
      "desc": 6733,
      "ext": 6734,
      "exclaim": 6735,
      "exact": 6736,
      "brass": 6737,
      "bait": 6738,
      "bail": 6739,
      "breaking": 6740,
      "imped": 6741,
      "impatience": 6742,
      "impatient": 6743,
      "immedi": 6744,
      "impression": 6745,
      "impud": 6746,
      "looker": 6747,
      "voke": 6748,
      "chival": 6749,
      "afoot": 6750,
      "mistaking": 6751,
      "madest": 6752,
      "Seize": 6753,
      "lieutenant": 6754,
      "preced": 6755,
      "pregnant": 6756,
      "cheth": 6757,
      "chequ": 6758,
      "eming": 6759,
      "jocund": 6760,
      "foil": 6761,
      "follies": 6762,
      "headstrong": 6763,
      "nobleman": 6764,
      "flint": 6765,
      "sweets": 6766,
      "Any": 6767,
      "coz": 6768,
      "coal": 6769,
      "coil": 6770,
      "coals": 6771,
      "izel": 6772,
      "resort": 6773,
      "rescue": 6774,
      "warning": 6775,
      "grud": 6776,
      "intended": 6777,
      "restored": 6778,
      "wrangling": 6779,
      "bearer": 6780,
      "scrup": 6781,
      "queens": 6782,
      "privy": 6783,
      "caused": 6784,
      "derived": 6785,
      "whipt": 6786,
      "tragic": 6787,
      "rightly": 6788,
      "crowned": 6789,
      "lightly": 6790,
      "lightness": 6791,
      "braved": 6792,
      "madly": 6793,
      "madman": 6794,
      "park": 6795,
      "partial": 6796,
      "paradise": 6797,
      "parallel": 6798,
      "showers": 6799,
      "banquet": 6800,
      "bandy": 6801,
      "farthest": 6802,
      "purcha": 6803,
      "pursued": 6804,
      "helor": 6805,
      "charitable": 6806,
      "backward": 6807,
      "subdu": 6808,
      "peaceful": 6809,
      "elsewhere": 6810,
      "higher": 6811,
      "highway": 6812,
      "needle": 6813,
      "needless": 6814,
      "confines": 6815,
      "confusion": 6816,
      "ladyship": 6817,
      "underneath": 6818,
      "chains": 6819,
      "rancour": 6820,
      "husbands": 6821,
      "placed": 6822,
      "happier": 6823,
      "welcomes": 6824,
      "following": 6825,
      "gia": 6826,
      "gious": 6827,
      "horror": 6828,
      "pardons": 6829,
      "replied": 6830,
      "repetition": 6831,
      "truer": 6832,
      "budge": 6833,
      "built": 6834,
      "glories": 6835,
      "killed": 6836,
      "centre": 6837,
      "temperate": 6838,
      "clog": 6839,
      "cloth": 6840,
      "sands": 6841,
      "bribe": 6842,
      "kenbury": 6843,
      "curs": 6844,
      "cures": 6845,
      "curtain": 6846,
      "witted": 6847,
      "sung": 6848,
      "sunshine": 6849,
      "prisoners": 6850,
      "pire": 6851,
      "pile": 6852,
      "piled": 6853,
      "picious": 6854,
      "picture": 6855,
      "tingly": 6856,
      "xton": 6857,
      "remedies": 6858,
      "Herald": 6859,
      "Hercul": 6860,
      "Prof": 6861,
      "Proud": 6862,
      "uded": 6863,
      "villany": 6864,
      "itories": 6865,
      "sleeps": 6866,
      "sleepy": 6867,
      "falsely": 6868,
      "matters": 6869,
      "fights": 6870,
      "fighting": 6871,
      "meditation": 6872,
      "strain": 6873,
      "strait": 6874,
      "strains": 6875,
      "minstrel": 6876,
      "vails": 6877,
      "biting": 6878,
      "Attend": 6879,
      "yellow": 6880,
      "commanding": 6881,
      "dreamt": 6882,
      "prompt": 6883,
      "PAGE": 6884,
      "ighthood": 6885,
      "airy": 6886,
      "latest": 6887,
      "crew": 6888,
      "create": 6889,
      "sisterhood": 6890,
      "fouler": 6891,
      "Condemn": 6892,
      "delivered": 6893,
      "appell": 6894,
      "versy": 6895,
      "plaints": 6896,
      "generate": 6897,
      "beating": 6898,
      "tenderly": 6899,
      "gait": 6900,
      "gape": 6901,
      "gaol": 6902,
      "gaoler": 6903,
      "wisest": 6904,
      "woeful": 6905,
      "footman": 6906,
      "coldly": 6907,
      "returned": 6908,
      "draws": 6909,
      "hardy": 6910,
      "nursed": 6911,
      "silken": 6912,
      "plucks": 6913,
      "Gregory": 6914,
      "fitted": 6915,
      "penny": 6916,
      "pastime": 6917,
      "Measure": 6918,
      "hedge": 6919,
      "strongly": 6920,
      "deeply": 6921,
      "fasting": 6922,
      "quicken": 6923,
      "Join": 6924,
      "calumny": 6925,
      "obsc": 6926,
      "obtain": 6927,
      "worthily": 6928,
      "actor": 6929,
      "crook": 6930,
      "widows": 6931,
      "profits": 6932,
      "judged": 6933,
      "consumed": 6934,
      "mocking": 6935,
      "mockery": 6936,
      "pedant": 6937,
      "value": 6938,
      "resolute": 6939,
      "harmless": 6940,
      "counsels": 6941,
      "succor": 6942,
      "duce": 6943,
      "signs": 6944,
      "ashore": 6945,
      "knighthood": 6946,
      "wasted": 6947,
      "awry": 6948,
      "awful": 6949,
      "barr": 6950,
      "stirs": 6951,
      "stirring": 6952,
      "Lovel": 6953,
      "Lodowick": 6954,
      "possessed": 6955,
      "breathes": 6956,
      "Beshrew": 6957,
      "whore": 6958,
      "poisonous": 6959,
      "cheerfully": 6960,
      "Percy": 6961,
      "knowest": 6962,
      "divided": 6963,
      "divines": 6964,
      "appeared": 6965,
      "skin": 6966,
      "skulls": 6967,
      "created": 6968,
      "creatures": 6969,
      "pays": 6970,
      "palm": 6971,
      "interrup": 6972,
      "blessings": 6973,
      "direful": 6974,
      "Arm": 6975,
      "Arise": 6976,
      "whet": 6977,
      "wheel": 6978,
      "wheels": 6979,
      "summon": 6980,
      "darken": 6981,
      "fills": 6982,
      "hurried": 6983,
      "rumour": 6984,
      "scarlet": 6985,
      "natures": 6986,
      "chamberlain": 6987,
      "closely": 6988,
      "Mercy": 6989,
      "ethon": 6990,
      "salute": 6991,
      "regiment": 6992,
      "changes": 6993,
      "trembles": 6994,
      "cowardice": 6995,
      "hideous": 6996,
      "scorns": 6997,
      "triumphs": 6998,
      "witnesses": 6999,
      "gentler": 7000,
      "beastly": 7001,
      "volume": 7002,
      "lecture": 7003,
      "greetings": 7004,
      "climb": 7005,
      "cordial": 7006,
      "hunger": 7007,
      "nymph": 7008,
      "Affection": 7009,
      "Among": 7010,
      "Amongst": 7011,
      "mutiny": 7012,
      "infring": 7013,
      "street": 7014,
      "stream": 7015,
      "assault": 7016,
      "solely": 7017,
      "pestilence": 7018,
      "Dispatch": 7019,
      "drunkard": 7020,
      "Christopher": 7021,
      "Enough": 7022,
      "Worse": 7023,
      "fruits": 7024,
      "lustful": 7025,
      "mounting": 7026,
      "threats": 7027,
      "adders": 7028,
      "Abhor": 7029,
      "Advance": 7030,
      "mourning": 7031,
      "porter": 7032,
      "contrad": 7033,
      "understanding": 7034,
      "firmly": 7035,
      "Apothecary": 7036,
      "dainty": 7037,
      "syll": 7038,
      "injurious": 7039,
      "injuries": 7040,
      "suppliant": 7041,
      "quality": 7042,
      "demands": 7043,
      "scarcely": 7044,
      "schoolmaster": 7045,
      "Between": 7046,
      "Betwixt": 7047,
      "dwells": 7048,
      "nibal": 7049,
      "throats": 7050,
      "faintly": 7051,
      "apply": 7052,
      "miseries": 7053,
      "conditions": 7054,
      "Deser": 7055,
      "Neigh": 7056,
      "inclination": 7057,
      "concluded": 7058,
      "shriek": 7059,
      "capti": 7060,
      "captive": 7061,
      "fruitful": 7062,
      "amazement": 7063,
      "roundly": 7064,
      "whistle": 7065,
      "wolves": 7066,
      "starve": 7067,
      "beards": 7068,
      "utterance": 7069,
      "necessary": 7070,
      "importune": 7071,
      "Antiates": 7072,
      "plotted": 7073,
      "Doricles": 7074,
      "flame": 7075,
      "lane": 7076,
      "delights": 7077,
      "treachery": 7078,
      "jealousies": 7079,
      "witchcraft": 7080,
      "bootless": 7081,
      "Holy": 7082,
      "RREY": 7083,
      "Resol": 7084,
      "tonight": 7085,
      "inherited": 7086,
      "limits": 7087,
      "famish": 7088,
      "tailor": 7089,
      "persuasion": 7090,
      "preserved": 7091,
      "physician": 7092,
      "rascals": 7093,
      "baseness": 7094,
      "ugly": 7095,
      "aspiring": 7096,
      "weighty": 7097,
      "suffice": 7098,
      "pronounced": 7099,
      "penitence": 7100,
      "solemnity": 7101,
      "dedic": 7102,
      "merely": 7103,
      "millions": 7104,
      "songs": 7105,
      "wonders": 7106,
      "rewards": 7107,
      "shunn": 7108,
      "comforts": 7109,
      "assistance": 7110,
      "publicly": 7111,
      "Repent": 7112,
      "knightly": 7113,
      "thorns": 7114,
      "choleric": 7115,
      "apprehension": 7116,
      "fixed": 7117,
      "Brakenbury": 7118,
      "chastity": 7119,
      "chastisement": 7120,
      "lungs": 7121,
      "nobler": 7122,
      "receives": 7123,
      "perjury": 7124,
      "merrily": 7125,
      "merriment": 7126,
      "brawl": 7127,
      "brawling": 7128,
      "extremest": 7129,
      "circumstances": 7130,
      "Tarqu": 7131,
      "coffin": 7132,
      "difference": 7133,
      "events": 7134,
      "napkin": 7135,
      "pupil": 7136,
      "puppet": 7137,
      "admitted": 7138,
      "festival": 7139,
      "factors": 7140,
      "controversy": 7141,
      "posterous": 7142,
      "posterity": 7143,
      "dissemble": 7144,
      "achieve": 7145,
      "achieved": 7146,
      "council": 7147,
      "beguile": 7148,
      "correct": 7149,
      "Sixth": 7150,
      "Florizel": 7151,
      "alize": 7152,
      "baggage": 7153,
      "waning": 7154,
      "requires": 7155,
      "aloof": 7156,
      "society": 7157,
      "superflu": 7158,
      "disguised": 7159,
      "embraced": 7160,
      "restraint": 7161,
      "scolding": 7162,
      "bankrupt": 7163,
      "buzzard": 7164,
      "Meantime": 7165,
      "Greece": 7166,
      "Write": 7167,
      "longest": 7168,
      "threes": 7169,
      "haughty": 7170,
      "ambition": 7171,
      "transported": 7172,
      "consorted": 7173,
      "apprehend": 7174,
      "Cleomenes": 7175,
      "Evermore": 7176,
      "swoon": 7177,
      "vineyard": 7178,
      "vulgar": 7179,
      "vassal": 7180,
      "inferior": 7181,
      "insolence": 7182,
      "ragged": 7183,
      "supreme": 7184,
      "shelter": 7185,
      "diadem": 7186,
      "digal": 7187,
      "expedition": 7188,
      "experienced": 7189,
      "imperial": 7190,
      "flayed": 7191,
      "merciful": 7192,
      "testimony": 7193,
      "Welshmen": 7194,
      "divorce": 7195,
      "reckoning": 7196,
      "Obey": 7197,
      "Overdone": 7198,
      "Small": 7199,
      "Touching": 7200,
      "candle": 7201,
      "front": 7202,
      "rheum": 7203,
      "insulting": 7204,
      "rebuke": 7205,
      "forgiveness": 7206,
      "territories": 7207,
      "capital": 7208,
      "canopy": 7209,
      "nightingale": 7210,
      "grateful": 7211,
      "Consider": 7212,
      "troublous": 7213,
      "acknowledge": 7214,
      "Patrician": 7215,
      "medicine": 7216,
      "advertised": 7217,
      "puissant": 7218,
      "BONA": 7219,
      "Calais": 7220,
      "Elizabe": 7221,
      "Emilia": 7222,
      "EMILIA": 7223,
      "Fifth": 7224,
      "Francis": 7225,
      "Gainst": 7226,
      "Grandam": 7227,
      "Left": 7228,
      "Masters": 7229,
      "NATHANIEL": 7230,
      "Phaethon": 7231,
      "Phoebus": 7232,
      "Renown": 7233,
      "SURREY": 7234,
      "Twenty": 7235,
      "Urge": 7236,
      "bachelor": 7237,
      "cuckold": 7238,
      "eloqu": 7239,
      "gulf": 7240,
      "louder": 7241,
      "mptory": 7242,
      "peremptory": 7243,
      "scholar": 7244,
      "thwack": 7245,
      "notwithstanding": 7246,
      "degrees": 7247,
      "solicit": 7248,
      "prerogative": 7249,
      "caparison": 7250,
      "distressed": 7251,
      "impediment": 7252,
      "precedent": 7253,
      "Hercules": 7254,
      "Elizabeth": 7255,
      "'!": 7256,
      "'--": 7257,
      "Ama": 7258,
      "Afri": 7259,
      "Apri": 7260,
      "Aff": 7261,
      "Adam": 7262,
      "Acc": 7263,
      "Awake": 7264,
      "Awaked": 7265,
      "BL": 7266,
      "Base": 7267,
      "Black": 7268,
      "Bris": 7269,
      "Cro": 7270,
      "Care": 7271,
      "Coun": 7272,
      "CIS": 7273,
      "Cob": 7274,
      "Carl": 7275,
      "Child": 7276,
      "Dre": 7277,
      "Dight": 7278,
      "Dion": 7279,
      "Die": 7280,
      "Dick": 7281,
      "Eu": 7282,
      "EAR": 7283,
      "Exton": 7284,
      "Far": 7285,
      "Fine": 7286,
      "Found": 7287,
      "FRAN": 7288,
      "Fool": 7289,
      "Gir": 7290,
      "Gall": 7291,
      "Given": 7292,
      "Hoo": 7293,
      "Hal": 7294,
      "Hard": 7295,
      "Hallow": 7296,
      "Imag": 7297,
      "Irish": 7298,
      "Lat": 7299,
      "Less": 7300,
      "Lif": 7301,
      "Last": 7302,
      "Luke": 7303,
      "Lud": 7304,
      "Little": 7305,
      "Mo": 7306,
      "Mere": 7307,
      "Mab": 7308,
      "Nine": 7309,
      "Nath": 7310,
      "Night": 7311,
      "Op": 7312,
      "Phi": 7313,
      "Pil": 7314,
      "Pier": 7315,
      "Place": 7316,
      "Ra": 7317,
      "Rus": 7318,
      "Rise": 7319,
      "Ref": 7320,
      "Rago": 7321,
      "Sent": 7322,
      "Sad": 7323,
      "Spo": 7324,
      "Sel": 7325,
      "Sland": 7326,
      "Soul": 7327,
      "South": 7328,
      "Stop": 7329,
      "Sleep": 7330,
      "Suff": 7331,
      "Silence": 7332,
      "Ti": 7333,
      "Tre": 7334,
      "Tend": 7335,
      "Tong": 7336,
      "Tem": 7337,
      "Thither": 7338,
      "Tick": 7339,
      "Takes": 7340,
      "UR": 7341,
      "Uly": 7342,
      "UNT": 7343,
      "Went": 7344,
      "Wra": 7345,
      "Yonder": 7346,
      "ae": 7347,
      "aut": 7348,
      "aust": 7349,
      "aled": 7350,
      "aery": 7351,
      "avouch": 7352,
      "aqua": 7353,
      "awares": 7354,
      "bis": 7355,
      "bard": 7356,
      "bust": 7357,
      "bast": 7358,
      "bies": 7359,
      "batter": 7360,
      "bted": 7361,
      "bits": 7362,
      "bborn": 7363,
      "bier": 7364,
      "bide": 7365,
      "bash": 7366,
      "bassa": 7367,
      "blocks": 7368,
      "blots": 7369,
      "boured": 7370,
      "cam": 7371,
      "cull": 7372,
      "clip": 7373,
      "cuff": 7374,
      "ckey": 7375,
      "cued": 7376,
      "cool": 7377,
      "dastard": 7378,
      "dances": 7379,
      "dler": 7380,
      "duteous": 7381,
      "eg": 7382,
      "equ": 7383,
      "egg": 7384,
      "fen": 7385,
      "fes": 7386,
      "fut": 7387,
      "fli": 7388,
      "fter": 7389,
      "fend": 7390,
      "fate": 7391,
      "fence": 7392,
      "foun": 7393,
      "fford": 7394,
      "fowl": 7395,
      "gom": 7396,
      "glove": 7397,
      "gorge": 7398,
      "gilt": 7399,
      "ghest": 7400,
      "gnaw": 7401,
      "hoo": 7402,
      "hint": 7403,
      "harms": 7404,
      "hoop": 7405,
      "ix": 7406,
      "iate": 7407,
      "ipt": 7408,
      "imed": 7409,
      "ivers": 7410,
      "ibat": 7411,
      "iquity": 7412,
      "jar": 7413,
      "jump": 7414,
      "ky": 7415,
      "kers": 7416,
      "kitch": 7417,
      "lts": 7418,
      "lass": 7419,
      "lorn": 7420,
      "mow": 7421,
      "mart": 7422,
      "mong": 7423,
      "muse": 7424,
      "mute": 7425,
      "nin": 7426,
      "nur": 7427,
      "nuns": 7428,
      "ox": 7429,
      "oce": 7430,
      "py": 7431,
      "pse": 7432,
      "pond": 7433,
      "pies": 7434,
      "pines": 7435,
      "rar": 7436,
      "rong": 7437,
      "rhy": 7438,
      "rings": 7439,
      "rates": 7440,
      "rents": 7441,
      "rarest": 7442,
      "sn": 7443,
      "sou": 7444,
      "sce": 7445,
      "sly": 7446,
      "sma": 7447,
      "sby": 7448,
      "sook": 7449,
      "smi": 7450,
      "ssed": 7451,
      "sist": 7452,
      "soften": 7453,
      "swine": 7454,
      "swol": 7455,
      "tu": 7456,
      "twi": 7457,
      "tum": 7458,
      "tatter": 7459,
      "tunes": 7460,
      "tides": 7461,
      "tires": 7462,
      "tumbling": 7463,
      "tsey": 7464,
      "terest": 7465,
      "tgom": 7466,
      "uto": 7467,
      "uit": 7468,
      "uble": 7469,
      "udes": 7470,
      "vit": 7471,
      "vion": 7472,
      "vap": 7473,
      "vided": 7474,
      "wheres": 7475,
      "zine": 7476,
      "zwater": 7477,
      "thren": 7478,
      "threw": 7479,
      "oubted": 7480,
      "erun": 7481,
      "eria": 7482,
      "erwhelm": 7483,
      "infa": 7484,
      "inty": 7485,
      "inite": 7486,
      "inable": 7487,
      "incur": 7488,
      "infirm": 7489,
      "instead": 7490,
      "incapable": 7491,
      "influ": 7492,
      "anno": 7493,
      "anti": 7494,
      "antial": 7495,
      "ortive": 7496,
      "isk": 7497,
      "issues": 7498,
      "enro": 7499,
      "ende": 7500,
      "ensue": 7501,
      "enjoin": 7502,
      "encourage": 7503,
      "enfranch": 7504,
      "arra": 7505,
      "atone": 7506,
      "atage": 7507,
      "atory": 7508,
      "attach": 7509,
      "sty": 7510,
      "stam": 7511,
      "stage": 7512,
      "stuck": 7513,
      "steter": 7514,
      "staring": 7515,
      "starts": 7516,
      "stool": 7517,
      "mets": 7518,
      "toes": 7519,
      "tock": 7520,
      "toss": 7521,
      "espe": 7522,
      "sear": 7523,
      "sequi": 7524,
      "secur": 7525,
      "sevent": 7526,
      "haw": 7527,
      "haven": 7528,
      "hallow": 7529,
      "remo": 7530,
      "repro": 7531,
      "rehear": 7532,
      "rection": 7533,
      "relieve": 7534,
      "remiss": 7535,
      "regreet": 7536,
      "release": 7537,
      "requite": 7538,
      "revell": 7539,
      "repaid": 7540,
      "regia": 7541,
      "vehe": 7542,
      "beho": 7543,
      "beck": 7544,
      "bewr": 7545,
      "became": 7546,
      "bewitch": 7547,
      "belongs": 7548,
      "lex": 7549,
      "leven": 7550,
      "lebr": 7551,
      "leather": 7552,
      "lehill": 7553,
      "widower": 7554,
      "hic": 7555,
      "highest": 7556,
      "celebr": 7557,
      "foret": 7558,
      "forlorn": 7559,
      "forsook": 7560,
      "forerun": 7561,
      "ases": 7562,
      "asci": 7563,
      "ashy": 7564,
      "asite": 7565,
      "asks": 7566,
      "chan": 7567,
      "chery": 7568,
      "charms": 7569,
      "chron": 7570,
      "edu": 7571,
      "edic": 7572,
      "edict": 7573,
      "utus": 7574,
      "utches": 7575,
      "rod": 7576,
      "road": 7577,
      "rood": 7578,
      "rogues": 7579,
      "lian": 7580,
      "liars": 7581,
      "liction": 7582,
      "limb": 7583,
      "livion": 7584,
      "dex": 7585,
      "demi": 7586,
      "defect": 7587,
      "detect": 7588,
      "degenerate": 7589,
      "web": 7590,
      "hatches": 7591,
      "keen": 7592,
      "ouris": 7593,
      "enters": 7594,
      "rian": 7595,
      "ribb": 7596,
      "adorn": 7597,
      "adder": 7598,
      "eteen": 7599,
      "allied": 7600,
      "urous": 7601,
      "urbs": 7602,
      "urging": 7603,
      "usage": 7604,
      "usale": 7605,
      "uspicious": 7606,
      "soe": 7607,
      "sop": 7608,
      "soar": 7609,
      "sober": 7610,
      "soonest": 7611,
      "solace": 7612,
      "rap": 7613,
      "rapt": 7614,
      "raged": 7615,
      "raze": 7616,
      "rabble": 7617,
      "ords": 7618,
      "ordain": 7619,
      "doit": 7620,
      "doings": 7621,
      "dolour": 7622,
      "doleful": 7623,
      "unst": 7624,
      "unch": 7625,
      "unlike": 7626,
      "ungentle": 7627,
      "unrest": 7628,
      "unction": 7629,
      "unfit": 7630,
      "unthri": 7631,
      "unpleasing": 7632,
      "unprovided": 7633,
      "unavoided": 7634,
      "unusual": 7635,
      "unaccustom": 7636,
      "unawares": 7637,
      "univers": 7638,
      "hog": 7639,
      "hoard": 7640,
      "homi": 7641,
      "map": 7642,
      "mathem": 7643,
      "maim": 7644,
      "makers": 7645,
      "pell": 7646,
      "peck": 7647,
      "peasant": 7648,
      "fees": 7649,
      "fester": 7650,
      "femin": 7651,
      "los": 7652,
      "verge": 7653,
      "verity": 7654,
      "verdict": 7655,
      "fable": 7656,
      "fails": 7657,
      "fabric": 7658,
      "factious": 7659,
      "mankind": 7660,
      "manacles": 7661,
      "tice": 7662,
      "amended": 7663,
      "ambush": 7664,
      "nearest": 7665,
      "gear": 7666,
      "geia": 7667,
      "butchers": 7668,
      "terate": 7669,
      "ternal": 7670,
      "cony": 7671,
      "conver": 7672,
      "contend": 7673,
      "contain": 7674,
      "convent": 7675,
      "convers": 7676,
      "conserves": 7677,
      "prat": 7678,
      "prised": 7679,
      "proffer": 7680,
      "Thinking": 7681,
      "Throng": 7682,
      "Told": 7683,
      "Together": 7684,
      "endow": 7685,
      "ominous": 7686,
      "lame": 7687,
      "laughter": 7688,
      "lazy": 7689,
      "laboured": 7690,
      "lackey": 7691,
      "morsel": 7692,
      "shouts": 7693,
      "shores": 7694,
      "poll": 7695,
      "potion": 7696,
      "poised": 7697,
      "usters": 7698,
      "trenches": 7699,
      "mois": 7700,
      "moans": 7701,
      "molehill": 7702,
      "teeming": 7703,
      "goest": 7704,
      "goodman": 7705,
      "boding": 7706,
      "vener": 7707,
      "shear": 7708,
      "shell": 7709,
      "shepher": 7710,
      "sheets": 7711,
      "cape": 7712,
      "cable": 7713,
      "caged": 7714,
      "ulation": 7715,
      "blasp": 7716,
      "Forrest": 7717,
      "Forbid": 7718,
      "sails": 7719,
      "worships": 7720,
      "peror": 7721,
      "perch": 7722,
      "perio": 7723,
      "peration": 7724,
      "perused": 7725,
      "perchance": 7726,
      "peradventure": 7727,
      "ctly": 7728,
      "ctors": 7729,
      "compell": 7730,
      "seeking": 7731,
      "seemed": 7732,
      "seemeth": 7733,
      "dible": 7734,
      "divers": 7735,
      "digy": 7736,
      "diligence": 7737,
      "cide": 7738,
      "cible": 7739,
      "agony": 7740,
      "spell": 7741,
      "specially": 7742,
      "speeches": 7743,
      "broils": 7744,
      "Assist": 7745,
      "prover": 7746,
      "produce": 7747,
      "prodigal": 7748,
      "prodigy": 7749,
      "Weep": 7750,
      "quess": 7751,
      "Helen": 7752,
      "appla": 7753,
      "somebody": 7754,
      "file": 7755,
      "fiends": 7756,
      "ficial": 7757,
      "fickle": 7758,
      "usest": 7759,
      "daylight": 7760,
      "igation": 7761,
      "dislike": 7762,
      "distill": 7763,
      "dishes": 7764,
      "diseas": 7765,
      "disloyal": 7766,
      "displeased": 7767,
      "distemper": 7768,
      "disinherit": 7769,
      "discipl": 7770,
      "disinherited": 7771,
      "howl": 7772,
      "spar": 7773,
      "spurn": 7774,
      "space": 7775,
      "sparing": 7776,
      "esta": 7777,
      "Inf": 7778,
      "fulfill": 7779,
      "handle": 7780,
      "handsome": 7781,
      "handker": 7782,
      "mary": 7783,
      "marquess": 7784,
      "pling": 7785,
      "plent": 7786,
      "plore": 7787,
      "sia": 7788,
      "swept": 7789,
      "accompany": 7790,
      "acket": 7791,
      "acquit": 7792,
      "acheth": 7793,
      "hearth": 7794,
      "Become": 7795,
      "Withal": 7796,
      "stray": 7797,
      "strue": 7798,
      "stratage": 7799,
      "desired": 7800,
      "exha": 7801,
      "expost": 7802,
      "external": 7803,
      "brine": 7804,
      "brittle": 7805,
      "heaviness": 7806,
      "tellus": 7807,
      "bauble": 7808,
      "breech": 7809,
      "brethren": 7810,
      "impose": 7811,
      "imposition": 7812,
      "whereupon": 7813,
      "lesson": 7814,
      "counters": 7815,
      "void": 7816,
      "chid": 7817,
      "chides": 7818,
      "affright": 7819,
      "mista": 7820,
      "mistook": 7821,
      "ability": 7822,
      "abuses": 7823,
      "nightly": 7824,
      "fairies": 7825,
      "Seal": 7826,
      "Sebast": 7827,
      "Mariner": 7828,
      "preh": 7829,
      "precise": 7830,
      "prevails": 7831,
      "preposterous": 7832,
      "cheers": 7833,
      "embassa": 7834,
      "emulation": 7835,
      "efold": 7836,
      "effemin": 7837,
      "bery": 7838,
      "bering": 7839,
      "berries": 7840,
      "partake": 7841,
      "fearless": 7842,
      "Yourself": 7843,
      "lively": 7844,
      "serving": 7845,
      "calling": 7846,
      "greatly": 7847,
      "assad": 7848,
      "foaming": 7849,
      "fling": 7850,
      "flinty": 7851,
      "sweeten": 7852,
      "fortnight": 7853,
      "cox": 7854,
      "coats": 7855,
      "merits": 7856,
      "oughly": 7857,
      "oughby": 7858,
      "pted": 7859,
      "resh": 7860,
      "residence": 7861,
      "resisted": 7862,
      "reserved": 7863,
      "wary": 7864,
      "iege": 7865,
      "grub": 7866,
      "intends": 7867,
      "interest": 7868,
      "Whence": 7869,
      "resteth": 7870,
      "restrain": 7871,
      "scur": 7872,
      "scra": 7873,
      "scare": 7874,
      "scars": 7875,
      "scouts": 7876,
      "sses": 7877,
      "pricks": 7878,
      "longing": 7879,
      "prescri": 7880,
      "presseth": 7881,
      "iced": 7882,
      "icester": 7883,
      "opposed": 7884,
      "whipped": 7885,
      "begging": 7886,
      "clout": 7887,
      "dyed": 7888,
      "poorest": 7889,
      "footing": 7890,
      "traged": 7891,
      "traffi": 7892,
      "Sirs": 7893,
      "mightily": 7894,
      "attering": 7895,
      "lighted": 7896,
      "tendom": 7897,
      "aching": 7898,
      "treble": 7899,
      "brazen": 7900,
      "bragg": 7901,
      "tales": 7902,
      "parle": 7903,
      "parch": 7904,
      "parcel": 7905,
      "parlous": 7906,
      "parasite": 7907,
      "guide": 7908,
      "engross": 7909,
      "uneven": 7910,
      "sentious": 7911,
      "hourly": 7912,
      "purged": 7913,
      "purses": 7914,
      "pursues": 7915,
      "purposes": 7916,
      "helms": 7917,
      "helmets": 7918,
      "charters": 7919,
      "denial": 7920,
      "royally": 7921,
      "suborn": 7922,
      "subdue": 7923,
      "submission": 7924,
      "subscri": 7925,
      "suburbs": 7926,
      "Willoughby": 7927,
      "beshrew": 7928,
      "besiege": 7929,
      "tongueless": 7930,
      "hopeless": 7931,
      "hush": 7932,
      "needy": 7933,
      "confined": 7934,
      "undergo": 7935,
      "chain": 7936,
      "chaff": 7937,
      "chafed": 7938,
      "thrall": 7939,
      "justly": 7940,
      "justify": 7941,
      "ranks": 7942,
      "passes": 7943,
      "happen": 7944,
      "cleft": 7945,
      "fallible": 7946,
      "welkin": 7947,
      "pleaseth": 7948,
      "gild": 7949,
      "giant": 7950,
      "horrible": 7951,
      "trudge": 7952,
      "burial": 7953,
      "glister": 7954,
      "bringing": 7955,
      "killing": 7956,
      "womanish": 7957,
      "shipp": 7958,
      "shift": 7959,
      "shamed": 7960,
      "shameless": 7961,
      "busied": 7962,
      "drag": 7963,
      "carrion": 7964,
      "bridge": 7965,
      "kennel": 7966,
      "cern": 7967,
      "cury": 7968,
      "curbs": 7969,
      "cession": 7970,
      "senis": 7971,
      "lacks": 7972,
      "wrongfully": 7973,
      "garlic": 7974,
      "suns": 7975,
      "vironed": 7976,
      "helping": 7977,
      "pily": 7978,
      "pipe": 7979,
      "pikes": 7980,
      "xture": 7981,
      "rememb": 7982,
      "fooling": 7983,
      "Stir": 7984,
      "overheard": 7985,
      "overthrow": 7986,
      "petti": 7987,
      "stride": 7988,
      "stripes": 7989,
      "turning": 7990,
      "forms": 7991,
      "Princes": 7992,
      "elders": 7993,
      "uddy": 7994,
      "jects": 7995,
      "slender": 7996,
      "ville": 7997,
      "villan": 7998,
      "plays": 7999,
      "knell": 8000,
      "swearing": 8001,
      "waving": 8002,
      "Wouldst": 8003,
      "talked": 8004,
      "corpor": 8005,
      "countryman": 8006,
      "minal": 8007,
      "minster": 8008,
      "sending": 8009,
      "wishing": 8010,
      "bites": 8011,
      "gotten": 8012,
      "spoils": 8013,
      "deserving": 8014,
      "deserts": 8015,
      "winding": 8016,
      "yew": 8017,
      "breaths": 8018,
      "commandment": 8019,
      "promotion": 8020,
      "doubtless": 8021,
      "Juno": 8022,
      "Jule": 8023,
      "Lives": 8024,
      "freeze": 8025,
      "kissing": 8026,
      "asked": 8027,
      "Alone": 8028,
      "creeping": 8029,
      "Ross": 8030,
      "entering": 8031,
      "enterprise": 8032,
      "relent": 8033,
      "relish": 8034,
      "relation": 8035,
      "delivery": 8036,
      "clap": 8037,
      "claimed": 8038,
      "grove": 8039,
      "painful": 8040,
      "painting": 8041,
      "visor": 8042,
      "bats": 8043,
      "changeling": 8044,
      "pointed": 8045,
      "lamp": 8046,
      "wishes": 8047,
      "wearing": 8048,
      "warrants": 8049,
      "Julius": 8050,
      "linger": 8051,
      "lify": 8052,
      "Montgom": 8053,
      "colder": 8054,
      "saddle": 8055,
      "marrying": 8056,
      "returns": 8057,
      "harder": 8058,
      "nerves": 8059,
      "throughly": 8060,
      "plucked": 8061,
      "strangely": 8062,
      "fitter": 8063,
      "fitting": 8064,
      "pens": 8065,
      "penury": 8066,
      "losses": 8067,
      "nearer": 8068,
      "Meet": 8069,
      "Revol": 8070,
      "titles": 8071,
      "trod": 8072,
      "wooers": 8073,
      "entreated": 8074,
      "Glad": 8075,
      "Senators": 8076,
      "supple": 8077,
      "quarre": 8078,
      "quarters": 8079,
      "crad": 8080,
      "crutch": 8081,
      "crutches": 8082,
      "calf": 8083,
      "obser": 8084,
      "obdur": 8085,
      "obsequ": 8086,
      "obsequi": 8087,
      "oblivion": 8088,
      "presses": 8089,
      "worthier": 8090,
      "worthiest": 8091,
      "opening": 8092,
      "acting": 8093,
      "cropp": 8094,
      "profound": 8095,
      "Seeking": 8096,
      "consume": 8097,
      "consuls": 8098,
      "moveables": 8099,
      "mocked": 8100,
      "speedily": 8101,
      "Dece": 8102,
      "Deep": 8103,
      "valued": 8104,
      "leader": 8105,
      "leading": 8106,
      "choke": 8107,
      "ordering": 8108,
      "orderly": 8109,
      "countermand": 8110,
      "dishonest": 8111,
      "murdering": 8112,
      "dropp": 8113,
      "surly": 8114,
      "surname": 8115,
      "survey": 8116,
      "surprised": 8117,
      "shorten": 8118,
      "Church": 8119,
      "crimes": 8120,
      "criminal": 8121,
      "dug": 8122,
      "ducats": 8123,
      "mities": 8124,
      "signories": 8125,
      "wonted": 8126,
      "wondering": 8127,
      "stole": 8128,
      "studies": 8129,
      "studied": 8130,
      "stubborn": 8131,
      "sickly": 8132,
      "pretation": 8133,
      "deliverance": 8134,
      "praised": 8135,
      "watchful": 8136,
      "flatterer": 8137,
      "bargain": 8138,
      "barbar": 8139,
      "stirrup": 8140,
      "posts": 8141,
      "Loved": 8142,
      "SALIS": 8143,
      "abode": 8144,
      "certainly": 8145,
      "Plain": 8146,
      "Pluck": 8147,
      "Plashy": 8148,
      "fourth": 8149,
      "consented": 8150,
      "cheerful": 8151,
      "LORDS": 8152,
      "Perchance": 8153,
      "tinent": 8154,
      "torches": 8155,
      "torments": 8156,
      "throws": 8157,
      "appearing": 8158,
      "skil": 8159,
      "skins": 8160,
      "sprites": 8161,
      "liberties": 8162,
      "usurer": 8163,
      "beginning": 8164,
      "frowning": 8165,
      "intercession": 8166,
      "feasting": 8167,
      "troubles": 8168,
      "patiently": 8169,
      "fresher": 8170,
      "freshest": 8171,
      "masqu": 8172,
      "message": 8173,
      "summers": 8174,
      "speechless": 8175,
      "victorious": 8176,
      "briefly": 8177,
      "darkly": 8178,
      "scarr": 8179,
      "visiting": 8180,
      "Mercury": 8181,
      "ginger": 8182,
      "harlot": 8183,
      "swim": 8184,
      "swifter": 8185,
      "salut": 8186,
      "softly": 8187,
      "stains": 8188,
      "region": 8189,
      "verns": 8190,
      "worshipful": 8191
    },
    "merges": [
      [
        "t",
        "h"
      ],
      [
        "o",
        "u"
      ],
      [
        "e",
        "r"
      ],
      [
        "i",
        "n"
      ],
      [
        "a",
        "n"
      ],
      [
        "th",
        "e"
      ],
      [
        "o",
        "r"
      ],
      [
        "i",
        "s"
      ],
      [
        "e",
        "n"
      ],
      [
        "a",
        "r"
      ],
      [
        "a",
        "t"
      ],
      [
        "o",
        "n"
      ],
      [
        "s",
        "t"
      ],
      [
        "l",
        "l"
      ],
      [
        "m",
        "e"
      ],
      [
        "t",
        "o"
      ],
      [
        "an",
        "d"
      ],
      [
        "h",
        "e"
      ],
      [
        "y",
        "ou"
      ],
      [
        "e",
        "s"
      ],
      [
        "n",
        "o"
      ],
      [
        "s",
        "e"
      ],
      [
        "h",
        "a"
      ],
      [
        "r",
        "e"
      ],
      [
        "o",
        "f"
      ],
      [
        "v",
        "e"
      ],
      [
        "i",
        "t"
      ],
      [
        "in",
        "g"
      ],
      [
        "b",
        "e"
      ],
      [
        "l",
        "e"
      ],
      [
        "w",
        "i"
      ],
      [
        "m",
        "y"
      ],
      [
        "h",
        "i"
      ],
      [
        "o",
        "w"
      ],
      [
        "c",
        "e"
      ],
      [
        "f",
        "or"
      ],
      [
        "a",
        "y"
      ],
      [
        "a",
        "s"
      ],
      [
        "c",
        "h"
      ],
      [
        "n",
        "d"
      ],
      [
        "er",
        "e"
      ],
      [
        "l",
        "d"
      ],
      [
        "i",
        "r"
      ],
      [
        "e",
        "d"
      ],
      [
        "u",
        "t"
      ],
      [
        "r",
        "o"
      ],
      [
        "no",
        "t"
      ],
      [
        "l",
        "i"
      ],
      [
        "d",
        "e"
      ],
      [
        "w",
        "e"
      ],
      [
        "h",
        "at"
      ],
      [
        "th",
        "at"
      ],
      [
        "g",
        "h"
      ],
      [
        "A",
        "nd"
      ],
      [
        "k",
        "e"
      ],
      [
        "o",
        "o"
      ],
      [
        "ou",
        "r"
      ],
      [
        "wi",
        "th"
      ],
      [
        "o",
        "me"
      ],
      [
        "en",
        "t"
      ],
      [
        "h",
        "is"
      ],
      [
        "r",
        "i"
      ],
      [
        "you",
        "r"
      ],
      [
        "th",
        "ou"
      ],
      [
        "th",
        "er"
      ],
      [
        "a",
        "d"
      ],
      [
        "a",
        "l"
      ],
      [
        "e",
        "t"
      ],
      [
        "a",
        "ll"
      ],
      [
        "gh",
        "t"
      ],
      [
        "E",
        "N"
      ],
      [
        "u",
        "r"
      ],
      [
        "u",
        "s"
      ],
      [
        "ha",
        "ve"
      ],
      [
        "hi",
        "m"
      ],
      [
        "I",
        "N"
      ],
      [
        "l",
        "y"
      ],
      [
        "s",
        "o"
      ],
      [
        "r",
        "a"
      ],
      [
        "th",
        "is"
      ],
      [
        "I",
        "O"
      ],
      [
        "or",
        "d"
      ],
      [
        "d",
        "o"
      ],
      [
        "u",
        "n"
      ],
      [
        "h",
        "o"
      ],
      [
        "m",
        "a"
      ],
      [
        "es",
        "s"
      ],
      [
        "p",
        "e"
      ],
      [
        "f",
        "e"
      ],
      [
        "A",
        "R"
      ],
      [
        "ou",
        "ld"
      ],
      [
        "ar",
        "e"
      ],
      [
        "l",
        "o"
      ],
      [
        "h",
        "ere"
      ],
      [
        "oo",
        "d"
      ],
      [
        "i",
        "d"
      ],
      [
        "th",
        "y"
      ],
      [
        "v",
        "er"
      ],
      [
        "f",
        "a"
      ],
      [
        "c",
        "k"
      ],
      [
        "on",
        "e"
      ],
      [
        "m",
        "an"
      ],
      [
        "t",
        "i"
      ],
      [
        "T",
        "he"
      ],
      [
        "s",
        "ha"
      ],
      [
        "no",
        "w"
      ],
      [
        "a",
        "m"
      ],
      [
        "wi",
        "ll"
      ],
      [
        "n",
        "e"
      ],
      [
        "g",
        "e"
      ],
      [
        "a",
        "in"
      ],
      [
        "b",
        "ut"
      ],
      [
        "s",
        "u"
      ],
      [
        "ar",
        "d"
      ],
      [
        "h",
        "er"
      ],
      [
        "U",
        "S"
      ],
      [
        "t",
        "er"
      ],
      [
        "c",
        "on"
      ],
      [
        "p",
        "r"
      ],
      [
        "T",
        "h"
      ],
      [
        "T",
        "o"
      ],
      [
        "en",
        "d"
      ],
      [
        "b",
        "y"
      ],
      [
        "the",
        "e"
      ],
      [
        "u",
        "e"
      ],
      [
        "o",
        "m"
      ],
      [
        "l",
        "a"
      ],
      [
        "sha",
        "ll"
      ],
      [
        "ar",
        "t"
      ],
      [
        "m",
        "or"
      ],
      [
        "u",
        "p"
      ],
      [
        "U",
        "C"
      ],
      [
        "s",
        "h"
      ],
      [
        "c",
        "ome"
      ],
      [
        "p",
        "o"
      ],
      [
        "IN",
        "G"
      ],
      [
        "ro",
        "m"
      ],
      [
        "ow",
        "n"
      ],
      [
        "A",
        "N"
      ],
      [
        "u",
        "st"
      ],
      [
        "T",
        "hat"
      ],
      [
        "t",
        "a"
      ],
      [
        "t",
        "r"
      ],
      [
        "w",
        "hat"
      ],
      [
        "E",
        "R"
      ],
      [
        "O",
        "R"
      ],
      [
        "ou",
        "s"
      ],
      [
        "m",
        "o"
      ],
      [
        "se",
        "l"
      ],
      [
        "E",
        "T"
      ],
      [
        "t",
        "e"
      ],
      [
        "E",
        "S"
      ],
      [
        "g",
        "o"
      ],
      [
        "g",
        "ood"
      ],
      [
        "i",
        "f"
      ],
      [
        "i",
        "ll"
      ],
      [
        "B",
        "ut"
      ],
      [
        "in",
        "e"
      ],
      [
        "a",
        "th"
      ],
      [
        "h",
        "en"
      ],
      [
        "b",
        "le"
      ],
      [
        "i",
        "ght"
      ],
      [
        "l",
        "ord"
      ],
      [
        "i",
        "on"
      ],
      [
        "hi",
        "ch"
      ],
      [
        "k",
        "ing"
      ],
      [
        "W",
        "hat"
      ],
      [
        "w",
        "as"
      ],
      [
        "b",
        "o"
      ],
      [
        "i",
        "l"
      ],
      [
        "an",
        "t"
      ],
      [
        "K",
        "ING"
      ],
      [
        "v",
        "en"
      ],
      [
        "s",
        "he"
      ],
      [
        "c",
        "a"
      ],
      [
        "u",
        "l"
      ],
      [
        "f",
        "rom"
      ],
      [
        "b",
        "l"
      ],
      [
        "on",
        "g"
      ],
      [
        "mor",
        "e"
      ],
      [
        "F",
        "or"
      ],
      [
        "we",
        "ll"
      ],
      [
        "s",
        "a"
      ],
      [
        "the",
        "m"
      ],
      [
        "I",
        "C"
      ],
      [
        "a",
        "k"
      ],
      [
        "s",
        "ir"
      ],
      [
        "sel",
        "f"
      ],
      [
        "in",
        "d"
      ],
      [
        "w",
        "ould"
      ],
      [
        "th",
        "ere"
      ],
      [
        "w",
        "or"
      ],
      [
        "lo",
        "ve"
      ],
      [
        "c",
        "an"
      ],
      [
        "k",
        "now"
      ],
      [
        "p",
        "er"
      ],
      [
        "c",
        "t"
      ],
      [
        "ou",
        "t"
      ],
      [
        "i",
        "ve"
      ],
      [
        "E",
        "L"
      ],
      [
        "at",
        "e"
      ],
      [
        "c",
        "om"
      ],
      [
        "s",
        "ay"
      ],
      [
        "the",
        "n"
      ],
      [
        "se",
        "e"
      ],
      [
        "I",
        "US"
      ],
      [
        "le",
        "t"
      ],
      [
        "AR",
        "D"
      ],
      [
        "the",
        "ir"
      ],
      [
        "M",
        "y"
      ],
      [
        "d",
        "i"
      ],
      [
        "th",
        "an"
      ],
      [
        "c",
        "i"
      ],
      [
        "r",
        "y"
      ],
      [
        "-",
        "-"
      ],
      [
        "the",
        "y"
      ],
      [
        "for",
        "e"
      ],
      [
        "en",
        "ce"
      ],
      [
        "a",
        "g"
      ],
      [
        "e",
        "p"
      ],
      [
        "e",
        "ar"
      ],
      [
        "li",
        "ke"
      ],
      [
        "s",
        "pe"
      ],
      [
        "G",
        "o"
      ],
      [
        "er",
        "s"
      ],
      [
        "h",
        "y"
      ],
      [
        "m",
        "ay"
      ],
      [
        "L",
        "O"
      ],
      [
        "b",
        "ro"
      ],
      [
        "u",
        "m"
      ],
      [
        "w",
        "ere"
      ],
      [
        "w",
        "ay"
      ],
      [
        "A",
        "s"
      ],
      [
        "p",
        "ro"
      ],
      [
        "a",
        "st"
      ],
      [
        "W",
        "e"
      ],
      [
        "v",
        "es"
      ],
      [
        "is",
        "h"
      ],
      [
        "in",
        "k"
      ],
      [
        "K",
        "E"
      ],
      [
        "ti",
        "me"
      ],
      [
        "ha",
        "th"
      ],
      [
        "I",
        "I"
      ],
      [
        "q",
        "u"
      ],
      [
        "N",
        "o"
      ],
      [
        "u",
        "re"
      ],
      [
        "ir",
        "st"
      ],
      [
        "H",
        "e"
      ],
      [
        "ma",
        "ke"
      ],
      [
        "o",
        "l"
      ],
      [
        "p",
        "le"
      ],
      [
        "Y",
        "ou"
      ],
      [
        "w",
        "ho"
      ],
      [
        "th",
        "ing"
      ],
      [
        "r",
        "ow"
      ],
      [
        "m",
        "ust"
      ],
      [
        "g",
        "ra"
      ],
      [
        "ou",
        "nd"
      ],
      [
        "i",
        "th"
      ],
      [
        "a",
        "p"
      ],
      [
        "a",
        "ve"
      ],
      [
        "s",
        "ome"
      ],
      [
        "oo",
        "k"
      ],
      [
        "sh",
        "ould"
      ],
      [
        "O",
        "L"
      ],
      [
        "fa",
        "ther"
      ],
      [
        "f",
        "i"
      ],
      [
        "L",
        "A"
      ],
      [
        "R",
        "O"
      ],
      [
        "T",
        "IO"
      ],
      [
        "u",
        "se"
      ],
      [
        "it",
        "y"
      ],
      [
        "to",
        "o"
      ],
      [
        "ha",
        "d"
      ],
      [
        "up",
        "on"
      ],
      [
        "s",
        "on"
      ],
      [
        "d",
        "id"
      ],
      [
        "C",
        "A"
      ],
      [
        "d",
        "ay"
      ],
      [
        "i",
        "g"
      ],
      [
        "an",
        "ce"
      ],
      [
        "w",
        "ard"
      ],
      [
        "O",
        "N"
      ],
      [
        "d",
        "is"
      ],
      [
        "h",
        "ow"
      ],
      [
        "w",
        "o"
      ],
      [
        "w",
        "hich"
      ],
      [
        "de",
        "ath"
      ],
      [
        "ou",
        "n"
      ],
      [
        "re",
        "at"
      ],
      [
        "I",
        "S"
      ],
      [
        "w",
        "ord"
      ],
      [
        "f",
        "ri"
      ],
      [
        "I",
        "f"
      ],
      [
        "s",
        "p"
      ],
      [
        "w",
        "hen"
      ],
      [
        "e",
        "st"
      ],
      [
        "m",
        "en"
      ],
      [
        "spe",
        "ak"
      ],
      [
        "ent",
        "le"
      ],
      [
        "I",
        "n"
      ],
      [
        "he",
        "art"
      ],
      [
        "IC",
        "H"
      ],
      [
        "ag",
        "ain"
      ],
      [
        "R",
        "ICH"
      ],
      [
        "f",
        "ul"
      ],
      [
        "v",
        "i"
      ],
      [
        "D",
        "U"
      ],
      [
        "DU",
        "KE"
      ],
      [
        "h",
        "and"
      ],
      [
        "y",
        "et"
      ],
      [
        "o",
        "ld"
      ],
      [
        "m",
        "ar"
      ],
      [
        "e",
        "l"
      ],
      [
        "Th",
        "ou"
      ],
      [
        "U",
        "L"
      ],
      [
        "m",
        "ine"
      ],
      [
        "ver",
        "y"
      ],
      [
        "th",
        "ink"
      ],
      [
        "RICH",
        "ARD"
      ],
      [
        "EN",
        "TIO"
      ],
      [
        "ta",
        "ke"
      ],
      [
        "W",
        "hich"
      ],
      [
        "p",
        "l"
      ],
      [
        "s",
        "i"
      ],
      [
        "s",
        "we"
      ],
      [
        "a",
        "c"
      ],
      [
        "Go",
        "d"
      ],
      [
        "he",
        "ar"
      ],
      [
        "B",
        "e"
      ],
      [
        "W",
        "ith"
      ],
      [
        "in",
        "ce"
      ],
      [
        "IN",
        "C"
      ],
      [
        "st",
        "r"
      ],
      [
        "ig",
        "n"
      ],
      [
        "W",
        "hy"
      ],
      [
        "g",
        "ive"
      ],
      [
        "O",
        "f"
      ],
      [
        "n",
        "a"
      ],
      [
        "su",
        "ch"
      ],
      [
        "F",
        "irst"
      ],
      [
        "l",
        "and"
      ],
      [
        "an",
        "g"
      ],
      [
        "A",
        "B"
      ],
      [
        "n",
        "ess"
      ],
      [
        "u",
        "ch"
      ],
      [
        "mo",
        "st"
      ],
      [
        "bl",
        "ood"
      ],
      [
        "d",
        "es"
      ],
      [
        "e",
        "x"
      ],
      [
        "st",
        "er"
      ],
      [
        "bro",
        "ther"
      ],
      [
        "b",
        "r"
      ],
      [
        "the",
        "se"
      ],
      [
        "he",
        "a"
      ],
      [
        "te",
        "ll"
      ],
      [
        "t",
        "is"
      ],
      [
        "an",
        "y"
      ],
      [
        "b",
        "a"
      ],
      [
        "e",
        "y"
      ],
      [
        "U",
        "E"
      ],
      [
        "is",
        "e"
      ],
      [
        "on",
        "our"
      ],
      [
        "b",
        "re"
      ],
      [
        "o",
        "ther"
      ],
      [
        "i",
        "m"
      ],
      [
        "w",
        "here"
      ],
      [
        "H",
        "ow"
      ],
      [
        "q",
        "ue"
      ],
      [
        "ll",
        "ow"
      ],
      [
        "C",
        "ome"
      ],
      [
        "l",
        "ess"
      ],
      [
        "t",
        "y"
      ],
      [
        "ar",
        "m"
      ],
      [
        "li",
        "fe"
      ],
      [
        "T",
        "his"
      ],
      [
        "T",
        "ER"
      ],
      [
        "c",
        "oun"
      ],
      [
        "l",
        "ook"
      ],
      [
        "ne",
        "w"
      ],
      [
        "S",
        "o"
      ],
      [
        "or",
        "t"
      ],
      [
        "UC",
        "H"
      ],
      [
        "W",
        "ho"
      ],
      [
        "fri",
        "end"
      ],
      [
        "g",
        "entle"
      ],
      [
        "ou",
        "l"
      ],
      [
        "G",
        "LO"
      ],
      [
        "u",
        "ght"
      ],
      [
        "v",
        "o"
      ],
      [
        "UC",
        "ES"
      ],
      [
        "GLO",
        "UCES"
      ],
      [
        "GLOUCES",
        "TER"
      ],
      [
        "c",
        "hi"
      ],
      [
        "ar",
        "s"
      ],
      [
        "a",
        "f"
      ],
      [
        "m",
        "is"
      ],
      [
        "v",
        "ing"
      ],
      [
        "ha",
        "st"
      ],
      [
        "ad",
        "y"
      ],
      [
        "L",
        "ord"
      ],
      [
        "a",
        "b"
      ],
      [
        "ur",
        "se"
      ],
      [
        "t",
        "s"
      ],
      [
        "R",
        "ome"
      ],
      [
        "R",
        "Y"
      ],
      [
        "n",
        "ight"
      ],
      [
        "r",
        "own"
      ],
      [
        "of",
        "f"
      ],
      [
        "fa",
        "ir"
      ],
      [
        "ma",
        "de"
      ],
      [
        "a",
        "ge"
      ],
      [
        "L",
        "E"
      ],
      [
        "Q",
        "UE"
      ],
      [
        "V",
        "INC"
      ],
      [
        "QUE",
        "EN"
      ],
      [
        "VINC",
        "ENTIO"
      ],
      [
        "h",
        "onour"
      ],
      [
        "O",
        "F"
      ],
      [
        "S",
        "e"
      ],
      [
        "m",
        "uch"
      ],
      [
        "an",
        "s"
      ],
      [
        "ti",
        "on"
      ],
      [
        "on",
        "d"
      ],
      [
        "I",
        "s"
      ],
      [
        "W",
        "here"
      ],
      [
        "li",
        "e"
      ],
      [
        "ur",
        "n"
      ],
      [
        "U",
        "M"
      ],
      [
        "L",
        "AN"
      ],
      [
        "st",
        "and"
      ],
      [
        "M",
        "ar"
      ],
      [
        "p",
        "re"
      ],
      [
        "H",
        "EN"
      ],
      [
        "con",
        "d"
      ],
      [
        "N",
        "ow"
      ],
      [
        "c",
        "he"
      ],
      [
        "na",
        "me"
      ],
      [
        "t",
        "le"
      ],
      [
        "e",
        "m"
      ],
      [
        "e",
        "f"
      ],
      [
        "HEN",
        "RY"
      ],
      [
        "n",
        "g"
      ],
      [
        "b",
        "er"
      ],
      [
        "p",
        "art"
      ],
      [
        "ne",
        "ver"
      ],
      [
        "fe",
        "ar"
      ],
      [
        "i",
        "o"
      ],
      [
        "Y",
        "our"
      ],
      [
        "c",
        "es"
      ],
      [
        "i",
        "es"
      ],
      [
        "l",
        "t"
      ],
      [
        "li",
        "ve"
      ],
      [
        "ow",
        "er"
      ],
      [
        "j",
        "o"
      ],
      [
        "s",
        "er"
      ],
      [
        "u",
        "ke"
      ],
      [
        "I",
        "t"
      ],
      [
        "c",
        "all"
      ],
      [
        "g",
        "reat"
      ],
      [
        "as",
        "s"
      ],
      [
        "Y",
        "OR"
      ],
      [
        "f",
        "o"
      ],
      [
        "he",
        "ad"
      ],
      [
        "YOR",
        "K"
      ],
      [
        "re",
        "e"
      ],
      [
        "m",
        "ent"
      ],
      [
        "u",
        "nd"
      ],
      [
        "O",
        "r"
      ],
      [
        "at",
        "ion"
      ],
      [
        "IN",
        "IUS"
      ],
      [
        "e",
        "ver"
      ],
      [
        "pr",
        "ay"
      ],
      [
        "can",
        "not"
      ],
      [
        "re",
        "d"
      ],
      [
        "tr",
        "ue"
      ],
      [
        "hea",
        "ven"
      ],
      [
        "P",
        "ET"
      ],
      [
        "a",
        "se"
      ],
      [
        "no",
        "ble"
      ],
      [
        "f",
        "l"
      ],
      [
        "p",
        "a"
      ],
      [
        "be",
        "en"
      ],
      [
        "swe",
        "et"
      ],
      [
        "for",
        "t"
      ],
      [
        "A",
        "n"
      ],
      [
        "D",
        "W"
      ],
      [
        "E",
        "DW"
      ],
      [
        "c",
        "o"
      ],
      [
        "EDW",
        "ARD"
      ],
      [
        "G",
        "R"
      ],
      [
        "d",
        "one"
      ],
      [
        "m",
        "er"
      ],
      [
        "be",
        "t"
      ],
      [
        ",",
        "--"
      ],
      [
        "T",
        "H"
      ],
      [
        "do",
        "th"
      ],
      [
        "i",
        "z"
      ],
      [
        "n",
        "or"
      ],
      [
        "ou",
        "gh"
      ],
      [
        "L",
        "UC"
      ],
      [
        "M",
        "EN"
      ],
      [
        "p",
        "t"
      ],
      [
        "r",
        "es"
      ],
      [
        "A",
        "y"
      ],
      [
        "d",
        "a"
      ],
      [
        "p",
        "p"
      ],
      [
        "u",
        "ll"
      ],
      [
        "w",
        "ar"
      ],
      [
        "ou",
        "se"
      ],
      [
        "T",
        "here"
      ],
      [
        "i",
        "e"
      ],
      [
        "com",
        "m"
      ],
      [
        "g",
        "r"
      ],
      [
        "in",
        "t"
      ],
      [
        "W",
        "hen"
      ],
      [
        "re",
        "st"
      ],
      [
        "E",
        "d"
      ],
      [
        "w",
        "r"
      ],
      [
        "be",
        "ar"
      ],
      [
        "M",
        "E"
      ],
      [
        "U",
        "T"
      ],
      [
        "gra",
        "ce"
      ],
      [
        "s",
        "oul"
      ],
      [
        "be",
        "fore"
      ],
      [
        "RO",
        "ME"
      ],
      [
        "Ed",
        "ward"
      ],
      [
        "ROME",
        "O"
      ],
      [
        "B",
        "y"
      ],
      [
        "s",
        "c"
      ],
      [
        "s",
        "s"
      ],
      [
        "EN",
        "IUS"
      ],
      [
        "bo",
        "th"
      ],
      [
        "wor",
        "ld"
      ],
      [
        "MEN",
        "ENIUS"
      ],
      [
        "R",
        "i"
      ],
      [
        "que",
        "en"
      ],
      [
        "a",
        "ce"
      ],
      [
        "H",
        "ere"
      ],
      [
        "L",
        "et"
      ],
      [
        "Th",
        "en"
      ],
      [
        "come",
        "s"
      ],
      [
        "ught",
        "er"
      ],
      [
        "R",
        "UCH"
      ],
      [
        "d",
        "own"
      ],
      [
        "p",
        "ri"
      ],
      [
        "or",
        "n"
      ],
      [
        "de",
        "ad"
      ],
      [
        "PET",
        "RUCH"
      ],
      [
        "PETRUCH",
        "IO"
      ],
      [
        "O",
        "M"
      ],
      [
        "ing",
        "s"
      ],
      [
        "T",
        "ES"
      ],
      [
        "l",
        "ong"
      ],
      [
        "ve",
        "d"
      ],
      [
        "it",
        "e"
      ],
      [
        "pr",
        "es"
      ],
      [
        "a",
        "ke"
      ],
      [
        "i",
        "ce"
      ],
      [
        "be",
        "ing"
      ],
      [
        "wi",
        "ck"
      ],
      [
        "Th",
        "an"
      ],
      [
        "r",
        "u"
      ],
      [
        "le",
        "ave"
      ],
      [
        "my",
        "self"
      ],
      [
        "ho",
        "ld"
      ],
      [
        "mo",
        "ther"
      ],
      [
        "C",
        "l"
      ],
      [
        "H",
        "A"
      ],
      [
        "M",
        "AR"
      ],
      [
        "or",
        "e"
      ],
      [
        "se",
        "t"
      ],
      [
        "c",
        "our"
      ],
      [
        "h",
        "ouse"
      ],
      [
        "p",
        "ut"
      ],
      [
        "th",
        "us"
      ],
      [
        "ca",
        "use"
      ],
      [
        "C",
        "OR"
      ],
      [
        "I",
        "Z"
      ],
      [
        "o",
        "p"
      ],
      [
        "re",
        "t"
      ],
      [
        "IO",
        "LAN"
      ],
      [
        "COR",
        "IOLAN"
      ],
      [
        "CORIOLAN",
        "US"
      ],
      [
        "N",
        "or"
      ],
      [
        "t",
        "ri"
      ],
      [
        "wi",
        "fe"
      ],
      [
        "Se",
        "cond"
      ],
      [
        "d",
        "er"
      ],
      [
        "u",
        "ck"
      ],
      [
        "w",
        "hi"
      ],
      [
        "be",
        "g"
      ],
      [
        "ey",
        "es"
      ],
      [
        "de",
        "ed"
      ],
      [
        "thou",
        "ght"
      ],
      [
        "B",
        "A"
      ],
      [
        "c",
        "l"
      ],
      [
        "Ri",
        "ch"
      ],
      [
        "d",
        "y"
      ],
      [
        "chi",
        "ld"
      ],
      [
        "IN",
        "A"
      ],
      [
        "po",
        "or"
      ],
      [
        "D",
        "o"
      ],
      [
        "S",
        "he"
      ],
      [
        "it",
        "iz"
      ],
      [
        "di",
        "e"
      ],
      [
        "itiz",
        "en"
      ],
      [
        "f",
        "oo"
      ],
      [
        "t",
        "ra"
      ],
      [
        "le",
        "d"
      ],
      [
        "a",
        "way"
      ],
      [
        "I",
        "V"
      ],
      [
        "ri",
        "ght"
      ],
      [
        "friend",
        "s"
      ],
      [
        "d",
        "s"
      ],
      [
        "II",
        "I"
      ],
      [
        "S",
        "ir"
      ],
      [
        "m",
        "ight"
      ],
      [
        "c",
        "rown"
      ],
      [
        "k",
        "s"
      ],
      [
        "p",
        "la"
      ],
      [
        "at",
        "ch"
      ],
      [
        "at",
        "ter"
      ],
      [
        "st",
        "ay"
      ],
      [
        "li",
        "ght"
      ],
      [
        "b",
        "id"
      ],
      [
        "t",
        "en"
      ],
      [
        "man",
        "y"
      ],
      [
        "W",
        "ar"
      ],
      [
        "f",
        "t"
      ],
      [
        "in",
        "s"
      ],
      [
        "War",
        "wick"
      ],
      [
        "a",
        "ch"
      ],
      [
        "g",
        "ri"
      ],
      [
        "l",
        "it"
      ],
      [
        "H",
        "is"
      ],
      [
        "t",
[...]
