{
  "version": "1.0",
  "truncation": null,
  "padding": null,
  "added_tokens": [
    {
      "id": 0,
      "content": "<eos>",
      "single_word": false,
      "lstrip": false,
      "rstrip": false,
      "normalized": false,
      "special": true
    }
  ],
  "normalizer": null,
  "pre_tokenizer": {
    "type": "Whitespace"
  },
  "post_processor": null,
  "decoder": null,
  "model": {
    "type": "BPE",
    "dropout": null,
    "unk_token": null,
    "continuing_subword_prefix": null,
    "end_of_word_suffix": null,
    "fuse_unk": false,
    "byte_fallback": false,
    "ignore_merges": false,
    "vocab": {
      "<eos>": 0,
      "!": 1,
      "\"": 2,
      "#": 3,
      "$": 4,
      "%": 5,
      "&": 6,
      "'": 7,
      "(": 8,
      ")": 9,
      "*": 10,
      "+": 11,
      ",": 12,
      "-": 13,
      ".": 14,
      "/": 15,
      "0": 16,
      "1": 17,
      "2": 18,
      "3": 19,
      "4": 20,
      "5": 21,
      "6": 22,
      "7": 23,
      "8": 24,
      "9": 25,
      ":": 26,
      ";": 27,
      "<": 28,
      "=": 29,
      ">": 30,
      "?": 31,
      "@": 32,
      "A": 33,
      "B": 34,
      "C": 35,
      "D": 36,
      "E": 37,
      "F": 38,
      "G": 39,
      "H": 40,
      "I": 41,
      "J": 42,
      "K": 43,
      "L": 44,
      "M": 45,
      "N": 46,
      "O": 47,
      "P": 48,
      "Q": 49,
      "R": 50,
      "S": 51,
      "T": 52,
      "U": 53,
      "V": 54,
      "W": 55,
      "X": 56,
      "Y": 57,
      "Z": 58,
      "[": 59,
      "\\": 60,
      "]": 61,
      "_": 62,
      "`": 63,
      "a": 64,
      "b": 65,
      "c": 66,
      "d": 67,
      "e": 68,
      "f": 69,
      "g": 70,
      "h": 71,
      "i": 72,
      "j": 73,
      "k": 74,
      "l": 75,
      "m": 76,
      "n": 77,
      "o": 78,
      "p": 79,
      "q": 80,
      "r": 81,
      "s": 82,
      "t": 83,
      "u": 84,
      "v": 85,
      "w": 86,
      "x": 87,
      "y": 88,
      "z": 89,
      "{": 90,
      "|": 91,
      "}": 92,
      "~": 93,
      "he": 94,
      "an": 95,
      "the": 96,
      "ed": 97,
      "to": 98,
      "and": 99,
      "in": 100,
      "re": 101,
      "it": 102,
      "wa": 103,
      "ou": 104,
      "ha": 105,
      "The": 106,
      "er": 107,
      "was": 108,
      "ay": 109,
      "en": 110,
      "om": 111,
      "is": 112,
      "ar": 113,
      "on": 114,
      "im": 115,
      "sa": 116,
      "id": 117,
      "ll": 118,
      "le": 119,
      "ing": 120,
      "st": 121,
      "ot": 122,
      "am": 123,
      "or": 124,
      "ir": 125,
      "ne": 126,
      "They": 127,
      "pl": 128,
      "ig": 129,
      "at": 130,
      "He": 131,
      "be": 132,
      "il": 133,
      "lo": 134,
      "all": 135,
      "ri": 136,
      "ver": 137,
      "his": 138,
      "day": 139,
      "ut": 140,
      "play": 141,
      "said": 142,
      "Tim": 143,
      "ith": 144,
      "se": 145,
      "with": 146,
      "pp": 147,
      "her": 148,
      "ked": 149,
      "ow": 150,
      "ce": 151,
      "un": 152,
      "ke": 153,
      "She": 154,
      "hat": 155,
      "ld": 156,
      "th": 157,
      "big": 158,
      "end": 159,
      "you": 160,
      "very": 161,
      "ted": 162,
      "ve": 163,
      "li": 164,
      "ck": 165,
      "we": 166,
      "happ": 167,
      "eo": 168,
      "of": 169,
      "riend": 170,
      "friend": 171,
      "up": 172,
      "ily": 173,
      "they": 174,
      "had": 175,
      "ad": 176,
      "not": 177,
      "wan": 178,
      "ge": 179,
      "itt": 180,
      "eos": 181,
      "ome": 182,
      "ther": 183,
      "do": 184,
      "nd": 185,
      "bo": 186,
      "al": 187,
      "happy": 188,
      "ch": 189,
      "Lily": 190,
      "ent": 191,
      "for": 192,
      "that": 193,
      "saw": 194,
      "she": 195,
      "One": 196,
      "ould": 197,
      "mom": 198,
      "ittle": 199,
      "little": 200,
      "ime": 201,
      "as": 202,
      "so": 203,
      "Tom": 204,
      "time": 205,
      "ro": 206,
      ".\"": 207,
      "fe": 208,
      "nam": 209,
      "ound": 210,
      "es": 211,
      "there": 212,
      "oo": 213,
      "named": 214,
      "sm": 215,
      "were": 216,
      "!\"": 217,
      "It": 218,
      "wanted": 219,
      "but": 220,
      "friends": 221,
      "ved": 222,
      "ht": 223,
      "ird": 224,
      "sh": 225,
      "ry": 226,
      "are": 227,
      "bird": 228,
      "too": 229,
      "ra": 230,
      "On": 231,
      "my": 232,
      "out": 233,
      "ug": 234,
      "ake": 235,
      "lp": 236,
      "ter": 237,
      "went": 238,
      "ide": 239,
      "Once": 240,
      "car": 241,
      "loo": 242,
      "ue": 243,
      "help": 244,
      "upon": 245,
      "thing": 246,
      "ind": 247,
      "fun": 248,
      "toy": 249,
      "ill": 250,
      "ame": 251,
      "did": 252,
      "ly": 253,
      "gether": 254,
      "ur": 255,
      "way": 256,
      "some": 257,
      "one": 258,
      "cat": 259,
      "me": 260,
      "together": 261,
      "ore": 262,
      "tre": 263,
      "ack": 264,
      "ag": 265,
      "new": 266,
      "can": 267,
      "dog": 268,
      "came": 269,
      "could": 270,
      "ood": 271,
      "their": 272,
      "ball": 273,
      "ic": 274,
      "?\"": 275,
      "par": 276,
      "gir": 277,
      "played": 278,
      "him": 279,
      "But": 280,
      "girl": 281,
      "go": 282,
      "pe": 283,
      "fu": 284,
      "ho": 285,
      "man": 286,
      "them": 287,
      "hen": 288,
      "um": 289,
      "ax": 290,
      "sad": 291,
      "Sue": 292,
      "rom": 293,
      "boy": 294,
      "have": 295,
      "tree": 296,
      "Max": 297,
      "loved": 298,
      "looked": 299,
      "oug": 300,
      "hed": 301,
      "found": 302,
      "star": 303,
      "ab": 304,
      "side": 305,
      "other": 306,
      "back": 307,
      "Ben": 308,
      "la": 309,
      "lt": 310,
      "park": 311,
      "like": 312,
      "ain": 313,
      "Sam": 314,
      "ful": 315,
      "own": 316,
      "de": 317,
      "pr": 318,
      "co": 319,
      "et": 320,
      "ong": 321,
      "ight": 322,
      "no": 323,
      "pot": 324,
      "fa": 325,
      "ran": 326,
      "liked": 327,
      "would": 328,
      "sto": 329,
      "make": 330,
      "felt": 331,
      "You": 332,
      "see": 333,
      "now": 334,
      "want": 335,
      "asked": 336,
      "ouse": 337,
      "ard": 338,
      "ca": 339,
      "started": 340,
      "ought": 341,
      "iled": 342,
      "ice": 343,
      "good": 344,
      "small": 345,
      "wor": 346,
      "smiled": 347,
      "more": 348,
      "say": 349,
      "ried": 350,
      "ex": 351,
      "mad": 352,
      "scar": 353,
      "red": 354,
      "gr": 355,
      "Spot": 356,
      "put": 357,
      "king": 358,
      "find": 359,
      "Mom": 360,
      "ty": 361,
      "home": 362,
      "away": 363,
      "what": 364,
      "something": 365,
      "from": 366,
      "made": 367,
      "uc": 368,
      "thought": 369,
      "ened": 370,
      "sha": 371,
      "playing": 372,
      "ia": 373,
      "wal": 374,
      "every": 375,
      "ach": 376,
      "mu": 377,
      "arn": 378,
      "Mia": 379,
      "ile": 380,
      "box": 381,
      "again": 382,
      "house": 383,
      "laug": 384,
      "ret": 385,
      "down": 386,
      "use": 387,
      "took": 388,
      "scared": 389,
      "learn": 390,
      "op": 391,
      "ny": 392,
      "ure": 393,
      "toys": 394,
      "get": 395,
      "ss": 396,
      "will": 397,
      "got": 398,
      "dd": 399,
      "around": 400,
      "things": 401,
      "ish": 402,
      "your": 403,
      "oud": 404,
      ",\"": 405,
      "lived": 406,
      "el": 407,
      "ick": 408,
      "low": 409,
      "lot": 410,
      "ave": 411,
      "pec": 412,
      "then": 413,
      "sun": 414,
      "ep": 415,
      "So": 416,
      "der": 417,
      "when": 418,
      "ob": 419,
      "pped": 420,
      "ie": 421,
      "na": 422,
      "bot": 423,
      "ru": 424,
      "Luc": 425,
      "Lucy": 426,
      "if": 427,
      "te": 428,
      "ant": 429,
      "room": 430,
      "tried": 431,
      "know": 432,
      "says": 433,
      "ump": 434,
      "ited": 435,
      "who": 436,
      "any": 437,
      "many": 438,
      "pic": 439,
      "ple": 440,
      "about": 441,
      "us": 442,
      "care": 443,
      "pret": 444,
      "dec": 445,
      "We": 446,
      "by": 447,
      "knew": 448,
      "ous": 449,
      "ise": 450,
      "ally": 451,
      "pu": 452,
      "ist": 453,
      "ways": 454,
      "qu": 455,
      "learned": 456,
      "ate": 457,
      "water": 458,
      "ank": 459,
      "And": 460,
      "fter": 461,
      "became": 462,
      "best": 463,
      "ive": 464,
      "ust": 465,
      "gre": 466,
      "long": 467,
      "nex": 468,
      "bl": 469,
      "exc": 470,
      "cause": 471,
      "outside": 472,
      "laughed": 473,
      "mo": 474,
      "look": 475,
      "always": 476,
      "here": 477,
      "decid": 478,
      "show": 479,
      "eat": 480,
      "ite": 481,
      "decided": 482,
      "because": 483,
      "fore": 484,
      "cl": 485,
      "into": 486,
      "po": 487,
      "cle": 488,
      "ang": 489,
      "Let": 490,
      "jump": 491,
      "both": 492,
      "Then": 493,
      "run": 494,
      "hug": 495,
      "ers": 496,
      "dad": 497,
      "ma": 498,
      "ok": 499,
      "An": 500,
      "fast": 501,
      "sur": 502,
      "clo": 503,
      "When": 504,
      "this": 505,
      "excited": 506,
      "nice": 507,
      "feel": 508,
      "Yes": 509,
      "sor": 510,
      "wh": 511,
      "bb": 512,
      "pa": 513,
      "old": 514,
      "bu": 515,
      "ink": 516,
      "told": 517,
      "sk": 518,
      "come": 519,
      "Bob": 520,
      "br": 521,
      "inside": 522,
      "fish": 523,
      "surpr": 524,
      "His": 525,
      "iny": 526,
      "ook": 527,
      "pretty": 528,
      "fly": 529,
      "ara": 530,
      "gave": 531,
      "take": 532,
      "ta": 533,
      "our": 534,
      "let": 535,
      "each": 536,
      "jo": 537,
      "much": 538,
      "its": 539,
      "how": 540,
      "Anna": 541,
      "lew": 542,
      "under": 543,
      "imal": 544,
      "animal": 545,
      "Amy": 546,
      "udd": 547,
      "need": 548,
      "than": 549,
      "ven": 550,
      "able": 551,
      "ac": 552,
      "flow": 553,
      "As": 554,
      "har": 555,
      "sorry": 556,
      "sw": 557,
      "ell": 558,
      "uck": 559,
      "Can": 560,
      "Th": 561,
      "Sara": 562,
      "ged": 563,
      "ised": 564,
      "rock": 565,
      "dre": 566,
      "Thank": 567,
      "walked": 568,
      "urt": 569,
      "bear": 570,
      "read": 571,
      "hand": 572,
      "urn": 573,
      "kind": 574,
      "rain": 575,
      "try": 576,
      "just": 577,
      "happened": 578,
      "str": 579,
      "Her": 580,
      "list": 581,
      "food": 582,
      "bet": 583,
      "didn": 584,
      "igh": 585,
      "fi": 586,
      "animals": 587,
      "war": 588,
      "spec": 589,
      "In": 590,
      "wat": 591,
      "near": 592,
      "sky": 593,
      "ine": 594,
      "cre": 595,
      "ving": 596,
      "bug": 597,
      "From": 598,
      "idea": 599,
      "better": 600,
      "heard": 601,
      "never": 602,
      "ket": 603,
      "che": 604,
      "tw": 605,
      "bro": 606,
      "bed": 607,
      "pla": 608,
      "ff": 609,
      "tal": 610,
      "love": 611,
      "nt": 612,
      "sp": 613,
      "ber": 614,
      "careful": 615,
      "share": 616,
      "tow": 617,
      "col": 618,
      "ial": 619,
      "flew": 620,
      "anymore": 621,
      "com": 622,
      "special": 623,
      "ion": 624,
      "lots": 625,
      "lf": 626,
      "per": 627,
      "where": 628,
      "don": 629,
      "wind": 630,
      "give": 631,
      "book": 632,
      "Every": 633,
      "safe": 634,
      "lad": 635,
      "clean": 636,
      "That": 637,
      "ground": 638,
      "ase": 639,
      "even": 640,
      "eople": 641,
      "mag": 642,
      "over": 643,
      "cake": 644,
      "ass": 645,
      "shiny": 646,
      "udden": 647,
      "turn": 648,
      "fam": 649,
      "bad": 650,
      "after": 651,
      "Do": 652,
      "uddenly": 653,
      "people": 654,
      "proud": 655,
      "rabb": 656,
      "ever": 657,
      "door": 658,
      "surprised": 659,
      "high": 660,
      "hurt": 661,
      "pected": 662,
      "gard": 663,
      "garden": 664,
      "opened": 665,
      "picked": 666,
      "loud": 667,
      "clim": 668,
      "far": 669,
      "nexpected": 670,
      "unexpected": 671,
      "fo": 672,
      "bea": 673,
      "hard": 674,
      "app": 675,
      "What": 676,
      "place": 677,
      "unt": 678,
      "color": 679,
      "thanked": 680,
      "blue": 681,
      "still": 682,
      "ear": 683,
      "hugged": 684,
      "ct": 685,
      "call": 686,
      "No": 687,
      "off": 688,
      "mor": 689,
      "ough": 690,
      "magic": 691,
      "ummy": 692,
      "Wh": 693,
      "jumped": 694,
      "Jo": 695,
      "should": 696,
      "family": 697,
      "kid": 698,
      "walk": 699,
      "ool": 700,
      "smile": 701,
      "squ": 702,
      "rog": 703,
      "cha": 704,
      "uff": 705,
      "rel": 706,
      "great": 707,
      "Suddenly": 708,
      "bra": 709,
      "stay": 710,
      "imp": 711,
      "strong": 712,
      "ark": 713,
      "forest": 714,
      "tru": 715,
      "dan": 716,
      "itty": 717,
      "ture": 718,
      "sl": 719,
      "ble": 720,
      "frog": 721,
      "until": 722,
      "Sally": 723,
      "beaut": 724,
      "stick": 725,
      "dy": 726,
      "boat": 727,
      "ort": 728,
      "ning": 729,
      "ess": 730,
      "next": 731,
      "This": 732,
      "Kitty": 733,
      "After": 734,
      "pt": 735,
      "happily": 736,
      "listen": 737,
      "ched": 738,
      "ak": 739,
      "kids": 740,
      "beauti": 741,
      "beautiful": 742,
      "sed": 743,
      "helped": 744,
      "yes": 745,
      "showed": 746,
      "while": 747,
      "unny": 748,
      "story": 749,
      "town": 750,
      "cu": 751,
      "keep": 752,
      "At": 753,
      "picture": 754,
      "oft": 755,
      "ree": 756,
      "ste": 757,
      "lly": 758,
      "being": 759,
      "met": 760,
      "everyone": 761,
      "ip": 762,
      "raw": 763,
      "called": 764,
      "les": 765,
      "stopped": 766,
      "game": 767,
      "Now": 768,
      "Fin": 769,
      "sing": 770,
      "angry": 771,
      "joy": 772,
      "uffy": 773,
      "open": 774,
      "ane": 775,
      "truck": 776,
      "luffy": 777,
      "soft": 778,
      "yummy": 779,
      "cry": 780,
      "lost": 781,
      "Jack": 782,
      "vent": 783,
      "warm": 784,
      "ild": 785,
      "ask": 786,
      "brave": 787,
      "work": 788,
      "mouse": 789,
      "ond": 790,
      "won": 791,
      "ished": 792,
      "watch": 793,
      "couldn": 794,
      "doll": 795,
      "face": 796,
      "leave": 797,
      "flower": 798,
      "also": 799,
      "fell": 800,
      "flowers": 801,
      "green": 802,
      "mon": 803,
      "llo": 804,
      "two": 805,
      "laugh": 806,
      "less": 807,
      "lock": 808,
      "gan": 809,
      "Look": 810,
      "noise": 811,
      "irst": 812,
      "owl": 813,
      "right": 814,
      "store": 815,
      "cream": 816,
      "soon": 817,
      "self": 818,
      "top": 819,
      "slide": 820,
      "ser": 821,
      "hole": 822,
      "Hi": 823,
      "Fluffy": 824,
      "iz": 825,
      "sat": 826,
      "before": 827,
      "irrel": 828,
      "key": 829,
      "ung": 830,
      "ired": 831,
      "illy": 832,
      "hear": 833,
      "race": 834,
      "table": 835,
      "kept": 836,
      "yard": 837,
      "nodd": 838,
      "squirrel": 839,
      "tor": 840,
      "nodded": 841,
      "used": 842,
      "swing": 843,
      "expl": 844,
      "birds": 845,
      "vo": 846,
      "rabbit": 847,
      "having": 848,
      "pain": 849,
      "hands": 850,
      "mber": 851,
      "set": 852,
      "going": 853,
      "tr": 854,
      "looking": 855,
      "Don": 856,
      "funny": 857,
      "rest": 858,
      "head": 859,
      "aybe": 860,
      "uch": 861,
      "catch": 862,
      "ught": 863,
      "fin": 864,
      "shed": 865,
      "yell": 866,
      "think": 867,
      "leep": 868,
      "fix": 869,
      "lled": 870,
      "ting": 871,
      "sn": 872,
      "tired": 873,
      "bunny": 874,
      "ama": 875,
      "wr": 876,
      "ries": 877,
      "night": 878,
      "thr": 879,
      "kit": 880,
      "tell": 881,
      "sound": 882,
      "member": 883,
      "has": 884,
      "mean": 885,
      "cook": 886,
      "cold": 887,
      "Why": 888,
      "pond": 889,
      "sunny": 890,
      "others": 891,
      "talk": 892,
      "flo": 893,
      "chen": 894,
      "ds": 895,
      "kitchen": 896,
      "wait": 897,
      "cut": 898,
      "pie": 899,
      "Dad": 900,
      "cou": 901,
      "dif": 902,
      "first": 903,
      "Hello": 904,
      "mommy": 905,
      "eyes": 906,
      "import": 907,
      "age": 908,
      "fav": 909,
      "ies": 910,
      "swe": 911,
      "con": 912,
      "ath": 913,
      "remember": 914,
      "climb": 915,
      "party": 916,
      "ft": 917,
      "ious": 918,
      "sand": 919,
      "bar": 920,
      "orn": 921,
      "move": 922,
      "llow": 923,
      "curi": 924,
      "important": 925,
      "light": 926,
      "duck": 927,
      "moral": 928,
      "shared": 929,
      "zy": 930,
      "ster": 931,
      "okay": 932,
      "dress": 933,
      "advent": 934,
      "ash": 935,
      "worked": 936,
      "making": 937,
      "enjoy": 938,
      "bright": 939,
      "times": 940,
      "curious": 941,
      "fru": 942,
      "agre": 943,
      "Mommy": 944,
      "af": 945,
      "Joh": 946,
      "tall": 947,
      "dir": 948,
      "hone": 949,
      "hid": 950,
      "John": 951,
      "favor": 952,
      "dis": 953,
      "Wow": 954,
      "sleep": 955,
      "favorite": 956,
      "began": 957,
      "shar": 958,
      "Bo": 959,
      "bag": 960,
      "fire": 961,
      "hill": 962,
      "agreed": 963,
      "draw": 964,
      "sho": 965,
      "ken": 966,
      "bre": 967,
      "cla": 968,
      "que": 969,
      "hind": 970,
      "watched": 971,
      "follow": 972,
      "mess": 973,
      "zed": 974,
      "Mr": 975,
      "pick": 976,
      "please": 977,
      "block": 978,
      "stop": 979,
      "hung": 980,
      "behind": 981,
      "gu": 982,
      "surprise": 983,
      "paper": 984,
      "hot": 985,
      "Maybe": 986,
      "worry": 987,
      "dark": 988,
      "dro": 989,
      "Bobo": 990,
      "trees": 991,
      "voice": 992,
      "grass": 993,
      "walking": 994,
      "air": 995,
      "tail": 996,
      "fere": 997,
      "lion": 998,
      "floor": 999,
      "farm": 1000,
      "differe": 1001,
      "song": 1002,
      "stand": 1003,
      "feeling": 1004,
      "butter": 1005,
      "led": 1006,
      "wel": 1007,
      "ready": 1008,
      "ied": 1009,
      "colors": 1010,
      "lady": 1011,
      "Jane": 1012,
      "ange": 1013,
      "Timmy": 1014,
      "isy": 1015,
      "leaves": 1016,
      "closer": 1017,
      "ign": 1018,
      "cars": 1019,
      "turned": 1020,
      "needed": 1021,
      "wood": 1022,
      "cried": 1023,
      "tri": 1024,
      "different": 1025,
      "piece": 1026,
      "adventure": 1027,
      "does": 1028,
      "prin": 1029,
      "hair": 1030,
      "hungry": 1031,
      "cked": 1032,
      "tra": 1033,
      "bye": 1034,
      "yellow": 1035,
      "sweet": 1036,
      "ced": 1037,
      "full": 1038,
      "touch": 1039,
      "wet": 1040,
      "mar": 1041,
      "friendly": 1042,
      "mis": 1043,
      "ike": 1044,
      "cr": 1045,
      "ger": 1046,
      "din": 1047,
      "broken": 1048,
      "mou": 1049,
      "cra": 1050,
      "All": 1051,
      "land": 1052,
      "ient": 1053,
      "sit": 1054,
      "med": 1055,
      "prom": 1056,
      "another": 1057,
      "pretend": 1058,
      "dance": 1059,
      "reac": 1060,
      "climbed": 1061,
      "listened": 1062,
      "plan": 1063,
      "tle": 1064,
      "pen": 1065,
      "ater": 1066,
      "fl": 1067,
      "running": 1068,
      "To": 1069,
      "only": 1070,
      "river": 1071,
      "gone": 1072,
      "swim": 1073,
      "ila": 1074,
      "train": 1075,
      "andma": 1076,
      "smell": 1077,
      "thank": 1078,
      "There": 1079,
      "close": 1080,
      "gg": 1081,
      "Lila": 1082,
      "pet": 1083,
      "hold": 1084,
      "aby": 1085,
      "chair": 1086,
      "blocks": 1087,
      "wonder": 1088,
      "Everyone": 1089,
      "av": 1090,
      "fight": 1091,
      "reached": 1092,
      "lie": 1093,
      "wall": 1094,
      "bor": 1095,
      "rag": 1096,
      "ner": 1097,
      "helping": 1098,
      "ary": 1099,
      "kay": 1100,
      "slow": 1101,
      "ze": 1102,
      "cool": 1103,
      "glad": 1104,
      "hop": 1105,
      "goodbye": 1106,
      "been": 1107,
      "wear": 1108,
      "fair": 1109,
      "pushed": 1110,
      "ins": 1111,
      "ered": 1112,
      "oon": 1113,
      "iced": 1114,
      "dr": 1115,
      "bit": 1116,
      "Just": 1117,
      "sees": 1118,
      "hide": 1119,
      "coming": 1120,
      "must": 1121,
      "moment": 1122,
      "window": 1123,
      "fr": 1124,
      "balloon": 1125,
      "repl": 1126,
      "done": 1127,
      "snow": 1128,
      "explore": 1129,
      "bow": 1130,
      "Soon": 1131,
      "wished": 1132,
      "baby": 1133,
      "stuck": 1134,
      "buy": 1135,
      "real": 1136,
      "fall": 1137,
      "might": 1138,
      "name": 1139,
      "apple": 1140,
      "trying": 1141,
      "quick": 1142,
      "scary": 1143,
      "looks": 1144,
      "dream": 1145,
      "doing": 1146,
      "aisy": 1147,
      "ings": 1148,
      "dirty": 1149,
      "build": 1150,
      "outed": 1151,
      "ppy": 1152,
      "cket": 1153,
      "held": 1154,
      "Be": 1155,
      "ames": 1156,
      "spo": 1157,
      "arm": 1158,
      "je": 1159,
      "wise": 1160,
      "cast": 1161,
      "butterfly": 1162,
      "swa": 1163,
      "left": 1164,
      "deli": 1165,
      "shouted": 1166,
      "replied": 1167,
      "sure": 1168,
      "wo": 1169,
      "win": 1170,
      "em": 1171,
      "reach": 1172,
      "why": 1173,
      "bran": 1174,
      "through": 1175,
      "tiny": 1176,
      "wag": 1177,
      "mi": 1178,
      "mat": 1179,
      "three": 1180,
      "treat": 1181,
      "grow": 1182,
      "pulled": 1183,
      "brother": 1184,
      "woods": 1185,
      "art": 1186,
      "fill": 1187,
      "ton": 1188,
      "bus": 1189,
      "seen": 1190,
      "cup": 1191,
      "pink": 1192,
      "plant": 1193,
      "clapped": 1194,
      "ield": 1195,
      "sometimes": 1196,
      "andy": 1197,
      "year": 1198,
      "cloud": 1199,
      "swam": 1200,
      "grabb": 1201,
      "Okay": 1202,
      "Inside": 1203,
      "job": 1204,
      "colorful": 1205,
      "nest": 1206,
      "remembered": 1207,
      "bigger": 1208,
      "mouth": 1209,
      "join": 1210,
      "lesson": 1211,
      "Oh": 1212,
      "waved": 1213,
      "grabbed": 1214,
      "stayed": 1215,
      "Daisy": 1216,
      "uddy": 1217,
      "rot": 1218,
      "Buddy": 1219,
      "clothe": 1220,
      "nap": 1221,
      "oup": 1222,
      "waited": 1223,
      "clothes": 1224,
      "heav": 1225,
      "quickly": 1226,
      "pare": 1227,
      "lease": 1228,
      "broke": 1229,
      "games": 1230,
      "gent": 1231,
      "ather": 1232,
      "vis": 1233,
      "blew": 1234,
      "Finally": 1235,
      "gl": 1236,
      "ucky": 1237,
      "erous": 1238,
      "While": 1239,
      "row": 1240,
      "zz": 1241,
      "noticed": 1242,
      "enjoyed": 1243,
      "tast": 1244,
      "pur": 1245,
      "thre": 1246,
      "likes": 1247,
      "paint": 1248,
      "sea": 1249,
      "pictures": 1250,
      "books": 1251,
      "dry": 1252,
      "heavy": 1253,
      "gif": 1254,
      "alone": 1255,
      "mus": 1256,
      "asure": 1257,
      "anything": 1258,
      "spot": 1259,
      "live": 1260,
      "hopped": 1261,
      "turns": 1262,
      "Tommy": 1263,
      "world": 1264,
      "castle": 1265,
      "cont": 1266,
      "pat": 1267,
      "Sarah": 1268,
      "mix": 1269,
      "bike": 1270,
      "tight": 1271,
      "forgot": 1272,
      "\".": 1273,
      "everywhere": 1274,
      "Joe": 1275,
      "tower": 1276,
      "round": 1277,
      "threw": 1278,
      "whis": 1279,
      "himself": 1280,
      "Please": 1281,
      "followed": 1282,
      "ju": 1283,
      "ride": 1284,
      "board": 1285,
      "fruit": 1286,
      "white": 1287,
      "sec": 1288,
      "wrong": 1289,
      "makes": 1290,
      "stran": 1291,
      "Em": 1292,
      "break": 1293,
      "pre": 1294,
      "black": 1295,
      "parent": 1296,
      "thy": 1297,
      "bee": 1298,
      "music": 1299,
      "deep": 1300,
      "cess": 1301,
      "Re": 1302,
      "stone": 1303,
      "olly": 1304,
      "Billy": 1305,
      "ation": 1306,
      "ap": 1307,
      "whe": 1308,
      "oun": 1309,
      "stre": 1310,
      "pill": 1311,
      "wi": 1312,
      "lar": 1313,
      "iet": 1314,
      "danced": 1315,
      "ali": 1316,
      "leaf": 1317,
      "wants": 1318,
      "quiet": 1319,
      "monster": 1320,
      "understand": 1321,
      "bowl": 1322,
      "fur": 1323,
      "Come": 1324,
      "pes": 1325,
      "ub": 1326,
      "talked": 1327,
      "itten": 1328,
      "faster": 1329,
      "fully": 1330,
      "cookies": 1331,
      "pro": 1332,
      "brought": 1333,
      "leg": 1334,
      "ross": 1335,
      "ph": 1336,
      "sc": 1337,
      "cy": 1338,
      "mum": 1339,
      "sign": 1340,
      "ued": 1341,
      "ts": 1342,
      "sis": 1343,
      "well": 1344,
      "ance": 1345,
      "smart": 1346,
      "rocks": 1347,
      "someone": 1348,
      "poin": 1349,
      "sharing": 1350,
      "cover": 1351,
      "reali": 1352,
      "fox": 1353,
      "button": 1354,
      "happen": 1355,
      "branch": 1356,
      "finished": 1357,
      "really": 1358,
      "oom": 1359,
      "hit": 1360,
      "ence": 1361,
      "orange": 1362,
      "Gr": 1363,
      "itch": 1364,
      "sister": 1365,
      "corn": 1366,
      "dinner": 1367,
      "zing": 1368,
      "gi": 1369,
      "flying": 1370,
      "ele": 1371,
      "most": 1372,
      "contin": 1373,
      "fect": 1374,
      "worried": 1375,
      "sy": 1376,
      "beach": 1377,
      "plane": 1378,
      "dang": 1379,
      "wish": 1380,
      "secret": 1381,
      "stu": 1382,
      "dren": 1383,
      "chil": 1384,
      "free": 1385,
      "spe": 1386,
      "today": 1387,
      "perfect": 1388,
      "min": 1389,
      "shin": 1390,
      "everything": 1391,
      "silly": 1392,
      "children": 1393,
      "filled": 1394,
      "field": 1395,
      "else": 1396,
      "oth": 1397,
      "stead": 1398,
      "smiles": 1399,
      "OK": 1400,
      "visit": 1401,
      "pow": 1402,
      "sang": 1403,
      "snack": 1404,
      "pull": 1405,
      "asks": 1406,
      "parents": 1407,
      "pudd": 1408,
      "eating": 1409,
      "pieces": 1410,
      "realized": 1411,
      "promised": 1412,
      "ctor": 1413,
      "pig": 1414,
      "spr": 1415,
      "pers": 1416,
      "continued": 1417,
      "bite": 1418,
      "carefully": 1419,
      "itting": 1420,
      "ons": 1421,
      "hig": 1422,
      "gra": 1423,
      "jar": 1424,
      "phone": 1425,
      "pper": 1426,
      "cow": 1427,
      "ated": 1428,
      "words": 1429,
      "ses": 1430,
      "drag": 1431,
      "moved": 1432,
      "mud": 1433,
      "rolled": 1434,
      "wave": 1435,
      "appear": 1436,
      "amp": 1437,
      "crying": 1438,
      "enough": 1439,
      "blan": 1440,
      "blanket": 1441,
      "Jim": 1442,
      "bath": 1443,
      "oney": 1444,
      "soup": 1445,
      "dri": 1446,
      "mother": 1447,
      "sail": 1448,
      "push": 1449,
      "imi": 1450,
      "Mimi": 1451,
      "My": 1452,
      "Jen": 1453,
      "drink": 1454,
      "Some": 1455,
      "boun": 1456,
      "snake": 1457,
      "pass": 1458,
      "throw": 1459,
      "roll": 1460,
      "fairy": 1461,
      "crab": 1462,
      "laughing": 1463,
      "amazing": 1464,
      "ote": 1465,
      "getting": 1466,
      "purple": 1467,
      "without": 1468,
      "bottle": 1469,
      "grandma": 1470,
      "gift": 1471,
      "mail": 1472,
      "spl": 1473,
      "money": 1474,
      "barked": 1475,
      "wagged": 1476,
      "monkey": 1477,
      "past": 1478,
      "welcome": 1479,
      "chool": 1480,
      "brown": 1481,
      "sel": 1482,
      "doctor": 1483,
      "ises": 1484,
      "closed": 1485,
      "school": 1486,
      "pping": 1487,
      "cious": 1488,
      "morning": 1489,
      "owner": 1490,
      "candy": 1491,
      "lone": 1492,
      "higher": 1493,
      "sitting": 1494,
      "stoo": 1495,
      "treasure": 1496,
      "hes": 1497,
      "dangerous": 1498,
      "net": 1499,
      "lonely": 1500,
      "shop": 1501,
      "living": 1502,
      "icy": 1503,
      "apples": 1504,
      "count": 1505,
      "strange": 1506,
      "comfor": 1507,
      "Bl": 1508,
      "smo": 1509,
      "road": 1510,
      "shining": 1511,
      "egg": 1512,
      "ants": 1513,
      "paw": 1514,
      "una": 1515,
      "creat": 1516,
      "cks": 1517,
      "shoes": 1518,
      "ible": 1519,
      "talking": 1520,
      "ba": 1521,
      "althy": 1522,
      "caught": 1523,
      "Ch": 1524,
      "stood": 1525,
      "lake": 1526,
      "letter": 1527,
      "runs": 1528,
      "coat": 1529,
      "bas": 1530,
      "wings": 1531,
      "chee": 1532,
      "cho": 1533,
      "fan": 1534,
      "nee": 1535,
      "Fred": 1536,
      "years": 1537,
      "basket": 1538,
      "dragon": 1539,
      "days": 1540,
      "belie": 1541,
      "mine": 1542,
      "thinks": 1543,
      "delicious": 1544,
      "puddle": 1545,
      "nose": 1546,
      "igg": 1547,
      "farmer": 1548,
      "same": 1549,
      "Emma": 1550,
      "teddy": 1551,
      "mind": 1552,
      "unch": 1553,
      "sear": 1554,
      "ches": 1555,
      "Whis": 1556,
      "Molly": 1557,
      "Good": 1558,
      "fit": 1559,
      "bring": 1560,
      "gentle": 1561,
      "wards": 1562,
      "start": 1563,
      "Together": 1564,
      "finally": 1565,
      "cray": 1566,
      "kite": 1567,
      "scream": 1568,
      "pol": 1569,
      "shell": 1570,
      "vill": 1571,
      "singing": 1572,
      "hor": 1573,
      "tasty": 1574,
      "idge": 1575,
      "ace": 1576,
      "ben": 1577,
      "trou": 1578,
      "herself": 1579,
      "hoped": 1580,
      "wore": 1581,
      "answ": 1582,
      "arri": 1583,
      "swings": 1584,
      "Blue": 1585,
      "uni": 1586,
      "kis": 1587,
      "belong": 1588,
      "pack": 1589,
      "kers": 1590,
      "bush": 1591,
      "ng": 1592,
      "kn": 1593,
      "woke": 1594,
      "carrot": 1595,
      "ming": 1596,
      "Bell": 1597,
      "ughty": 1598,
      "teach": 1599,
      "eleph": 1600,
      "naughty": 1601,
      "dropped": 1602,
      "hu": 1603,
      "Whiskers": 1604,
      "teac": 1605,
      "coll": 1606,
      "pile": 1607,
      "hiding": 1608,
      "cour": 1609,
      "Their": 1610,
      "Remy": 1611,
      "di": 1612,
      "Bella": 1613,
      "bell": 1614,
      "touc": 1615,
      "isa": 1616,
      "val": 1617,
      "kno": 1618,
      "su": 1619,
      "puppy": 1620,
      "llie": 1621,
      "If": 1622,
      "lunch": 1623,
      "twins": 1624,
      "sack": 1625,
      "ment": 1626,
      "rope": 1627,
      "mach": 1628,
      "Mark": 1629,
      "Lisa": 1630,
      "course": 1631,
      "Grandma": 1632,
      "shapes": 1633,
      "cheered": 1634,
      "grew": 1635,
      "lay": 1636,
      "village": 1637,
      "fused": 1638,
      "shelf": 1639,
      "erful": 1640,
      "irth": 1641,
      "spin": 1642,
      "juice": 1643,
      "word": 1644,
      "rainbow": 1645,
      "part": 1646,
      "irthday": 1647,
      "shook": 1648,
      "bench": 1649,
      "fence": 1650,
      "street": 1651,
      "cute": 1652,
      "nut": 1653,
      "Jill": 1654,
      "cal": 1655,
      "cheese": 1656,
      "touched": 1657,
      "balls": 1658,
      "orm": 1659,
      "shad": 1660,
      "wand": 1661,
      "seed": 1662,
      "eas": 1663,
      "teacher": 1664,
      "des": 1665,
      "loom": 1666,
      "arrived": 1667,
      "band": 1668,
      "wra": 1669,
      "forever": 1670,
      "carry": 1671,
      "few": 1672,
      "lla": 1673,
      "bugs": 1674,
      "sounds": 1675,
      "sli": 1676,
      "Go": 1677,
      "blem": 1678,
      "problem": 1679,
      "cing": 1680,
      "num": 1681,
      "promise": 1682,
      "ilk": 1683,
      "ier": 1684,
      "birthday": 1685,
      "wonderful": 1686,
      "dolls": 1687,
      "How": 1688,
      "stor": 1689,
      "busy": 1690,
      "shy": 1691,
      "irp": 1692,
      "feels": 1693,
      "bread": 1694,
      "ade": 1695,
      "neck": 1696,
      "milk": 1697,
      "ian": 1698,
      "robot": 1699,
      "vel": 1700,
      "ntain": 1701,
      "pop": 1702,
      "heart": 1703,
      "believe": 1704,
      "irt": 1705,
      "cave": 1706,
      "pocket": 1707,
      "shake": 1708,
      "seek": 1709,
      "helpful": 1710,
      "storm": 1711,
      "slowly": 1712,
      "umpy": 1713,
      "patient": 1714,
      "berries": 1715,
      "appeared": 1716,
      "ugly": 1717,
      "driver": 1718,
      "holding": 1719,
      "towards": 1720,
      "elephant": 1721,
      "upset": 1722,
      "ring": 1723,
      "turt": 1724,
      "kitten": 1725,
      "stories": 1726,
      "suc": 1727,
      "late": 1728,
      "splash": 1729,
      "Sure": 1730,
      "honey": 1731,
      "zoom": 1732,
      "cir": 1733,
      "noises": 1734,
      "sharp": 1735,
      "Later": 1736,
      "spark": 1737,
      "gray": 1738,
      "dirt": 1739,
      "Leo": 1740,
      "dist": 1741,
      "seat": 1742,
      "Ann": 1743,
      "ucket": 1744,
      "bucket": 1745,
      "shr": 1746,
      "meet": 1747,
      "young": 1748,
      "note": 1749,
      "uce": 1750,
      "amazed": 1751,
      "turtle": 1752,
      "spoon": 1753,
      "treats": 1754,
      "spid": 1755,
      "ull": 1756,
      "magical": 1757,
      "wash": 1758,
      "shine": 1759,
      "ator": 1760,
      "glow": 1761,
      "Mama": 1762,
      "fold": 1763,
      "lemon": 1764,
      "trip": 1765,
      "comfortable": 1766,
      "gen": 1767,
      "mist": 1768,
      "ped": 1769,
      "quest": 1770,
      "hang": 1771,
      "jour": 1772,
      "horse": 1773,
      "loth": 1774,
      "add": 1775,
      "cloth": 1776,
      "puzz": 1777,
      "Daddy": 1778,
      "organ": 1779,
      "princess": 1780,
      "roar": 1781,
      "cookie": 1782,
      "picy": 1783,
      "drive": 1784,
      "oose": 1785,
      "hugs": 1786,
      "wild": 1787,
      "taking": 1788,
      "wheel": 1789,
      "bled": 1790,
      "organiz": 1791,
      "miss": 1792,
      "sug": 1793,
      "iling": 1794,
      "rich": 1795,
      "Of": 1796,
      "string": 1797,
      "instead": 1798,
      "ti": 1799,
      "rude": 1800,
      "lucky": 1801,
      "drove": 1802,
      "ero": 1803,
      "Bu": 1804,
      "huge": 1805,
      "mer": 1806,
      "coin": 1807,
      "lice": 1808,
      "fighting": 1809,
      "stars": 1810,
      "spicy": 1811,
      "bone": 1812,
      "Mary": 1813,
      "craw": 1814,
      "Hey": 1815,
      "tie": 1816,
      "den": 1817,
      "cor": 1818,
      "ek": 1819,
      "bubb": 1820,
      "last": 1821,
      "wide": 1822,
      "card": 1823,
      "Cat": 1824,
      "life": 1825,
      "Ro": 1826,
      "whistle": 1827,
      "path": 1828,
      "ney": 1829,
      "cannot": 1830,
      "sick": 1831,
      "bat": 1832,
      "comes": 1833,
      "rush": 1834,
      "resting": 1835,
      "fle": 1836,
      "circle": 1837,
      "spider": 1838,
      "foot": 1839,
      "inv": 1840,
      "songs": 1841,
      "snowman": 1842,
      "change": 1843,
      "Luna": 1844,
      "pillow": 1845,
      "fixed": 1846,
      "With": 1847,
      "sage": 1848,
      "boss": 1849,
      "giant": 1850,
      "joke": 1851,
      "erry": 1852,
      "forget": 1853,
      "ship": 1854,
      "pra": 1855,
      "moon": 1856,
      "worm": 1857,
      "taste": 1858,
      "grumpy": 1859,
      "wing": 1860,
      "machine": 1861,
      "coun": 1862,
      "thin": 1863,
      "step": 1864,
      "bri": 1865,
      "grab": 1866,
      "att": 1867,
      "rad": 1868,
      "peace": 1869,
      "Chirp": 1870,
      "sour": 1871,
      "ined": 1872,
      "daddy": 1873,
      "fing": 1874,
      "suddenly": 1875,
      "landed": 1876,
      "hidden": 1877,
      "wasn": 1878,
      "write": 1879,
      "confused": 1880,
      "chased": 1881,
      "inte": 1882,
      "ert": 1883,
      "ee": 1884,
      "fruits": 1885,
      "myster": 1886,
      "smooth": 1887,
      "cage": 1888,
      "stepped": 1889,
      "oven": 1890,
      "adventures": 1891,
      "ps": 1892,
      "missed": 1893,
      "takes": 1894,
      "selfish": 1895,
      "ggy": 1896,
      "kin": 1897,
      "tu": 1898,
      "sheep": 1899,
      "messy": 1900,
      "across": 1901,
      "dest": 1902,
      "pan": 1903,
      "though": 1904,
      "hero": 1905,
      "sticks": 1906,
      "Momo": 1907,
      "later": 1908,
      "gy": 1909,
      "io": 1910,
      "bought": 1911,
      "elly": 1912,
      "tea": 1913,
      "drew": 1914,
      "grate": 1915,
      "cord": 1916,
      "Chirpy": 1917,
      "ars": 1918,
      "cop": 1919,
      "loves": 1920,
      "Ollie": 1921,
      "beak": 1922,
      "line": 1923,
      "child": 1924,
      "ducks": 1925,
      "body": 1926,
      "legs": 1927,
      "covered": 1928,
      "da": 1929,
      "grateful": 1930,
      "fil": 1931,
      "Bunny": 1932,
      "ye": 1933,
      "pty": 1934,
      "hope": 1935,
      "slid": 1936,
      "empty": 1937,
      "feather": 1938,
      "Doggy": 1939,
      "sleepy": 1940,
      "zoo": 1941,
      "ions": 1942,
      "drum": 1943,
      "save": 1944,
      "ward": 1945,
      "Help": 1946,
      "smelly": 1947,
      "ban": 1948,
      "Mum": 1949,
      "Jerry": 1950,
      "clever": 1951,
      "shes": 1952,
      "interesting": 1953,
      "chick": 1954,
      "Jimmy": 1955,
      "test": 1956,
      "watching": 1957,
      "finish": 1958,
      "izzy": 1959,
      "rubb": 1960,
      "banan": 1961,
      "log": 1962,
      "gest": 1963,
      "plate": 1964,
      "faces": 1965,
      "clouds": 1966,
      "Where": 1967,
      "wolf": 1968,
      "dogs": 1969,
      "backyard": 1970,
      "izz": 1971,
      "seemed": 1972,
      "spray": 1973,
      "rank": 1974,
      "Here": 1975,
      "og": 1976,
      "prote": 1977,
      "whole": 1978,
      "fancy": 1979,
      "arms": 1980,
      "healthy": 1981,
      "gives": 1982,
      "pin": 1983,
      "rocket": 1984,
      "sent": 1985,
      "puzzle": 1986,
      "along": 1987,
      "explain": 1988,
      "tom": 1989,
      "jewel": 1990,
      "easy": 1991,
      "trouble": 1992,
      "working": 1993,
      "pract": 1994,
      "jelly": 1995,
      "tid": 1996,
      "maybe": 1997,
      "scre": 1998,
      "fake": 1999,
      "spla": 2000,
      "crayons": 2001,
      "wondered": 2002,
      "hing": 2003,
      "fron": 2004,
      "stair": 2005,
      "cape": 2006,
      "iger": 2007,
      "nothing": 2008,
      "ipp": 2009,
      "pool": 2010,
      "longer": 2011,
      "Bird": 2012,
      "front": 2013,
      "anyone": 2014,
      "mir": 2015,
      "queen": 2016,
      "ast": 2017,
      "van": 2018,
      "such": 2019,
      "sol": 2020,
      "imag": 2021,
      "hello": 2022,
      "bossy": 2023,
      "ves": 2024,
      "saved": 2025,
      "neigh": 2026,
      "smelled": 2027,
      "shirt": 2028,
      "Bobby": 2029,
      "honest": 2030,
      "vie": 2031,
      "barr": 2032,
      "berry": 2033,
      "iting": 2034,
      "embarr": 2035,
      "lift": 2036,
      "tidy": 2037,
      "weak": 2038,
      "shout": 2039,
      "Are": 2040,
      "kick": 2041,
      "puts": 2042,
      "embarrass": 2043,
      "calm": 2044,
      "plants": 2045,
      "gently": 2046,
      "coo": 2047,
      "cozy": 2048,
      "sco": 2049,
      "explor": 2050,
      "ugg": 2051,
      "mistake": 2052,
      "aser": 2053,
      "onto": 2054,
      "cross": 2055,
      "yog": 2056,
      "waiting": 2057,
      "pointed": 2058,
      "erly": 2059,
      "jumping": 2060,
      "prince": 2061,
      "forgive": 2062,
      "bul": 2063,
      "chicken": 2064,
      "Stop": 2065,
      "stret": 2066,
      "lovely": 2067,
      "bal": 2068,
      "ladder": 2069,
      "large": 2070,
      "match": 2071,
      "couch": 2072,
      "ughter": 2073,
      "deer": 2074,
      "lown": 2075,
      "places": 2076,
      "colle": 2077,
      "bridge": 2078,
      "return": 2079,
      "daughter": 2080,
      "dish": 2081,
      "stir": 2082,
      "raid": 2083,
      "Tiny": 2084,
      "afraid": 2085,
      "era": 2086,
      "cleaned": 2087,
      "nic": 2088,
      "building": 2089,
      "tomor": 2090,
      "tomorrow": 2091,
      "law": 2092,
      "person": 2093,
      "wich": 2094,
      "ado": 2095,
      "ned": 2096,
      "sandwich": 2097,
      "asha": 2098,
      "pretended": 2099,
      "bounce": 2100,
      "ending": 2101,
      "search": 2102,
      "eth": 2103,
      "gather": 2104,
      "pizz": 2105,
      "wom": 2106,
      "boring": 2107,
      "protect": 2108,
      "Pe": 2109,
      "woman": 2110,
      "teeth": 2111,
      "pri": 2112,
      "goes": 2113,
      "jog": 2114,
      "scarf": 2115,
      "hin": 2116,
      "swimming": 2117,
      "furry": 2118,
      "Your": 2119,
      "splashed": 2120,
      "number": 2121,
      "screamed": 2122,
      "true": 2123,
      "eag": 2124,
      "lazy": 2125,
      "ually": 2126,
      "fear": 2127,
      "answer": 2128,
      "ashamed": 2129,
      "pens": 2130,
      "pizza": 2131,
      "Benny": 2132,
      "brush": 2133,
      "ones": 2134,
      "nearby": 2135,
      "Sometimes": 2136,
      "powerful": 2137,
      "motor": 2138,
      "flag": 2139,
      "vous": 2140,
      "clown": 2141,
      "Ducky": 2142,
      "ress": 2143,
      "respec": 2144,
      "Will": 2145,
      "success": 2146,
      "TV": 2147,
      "polite": 2148,
      "chocol": 2149,
      "clear": 2150,
      "hose": 2151,
      "trust": 2152,
      "ail": 2153,
      "wearing": 2154,
      "creative": 2155,
      "case": 2156,
      "matter": 2157,
      "noisy": 2158,
      "dig": 2159,
      "fli": 2160,
      "ult": 2161,
      "ror": 2162,
      "tool": 2163,
      "nervous": 2164,
      "shadow": 2165,
      "smiling": 2166,
      "sold": 2167,
      "saur": 2168,
      "Bear": 2169,
      "ery": 2170,
      "drank": 2171,
      "form": 2172,
      "osaur": 2173,
      "tries": 2174,
      "oc": 2175,
      "chocolate": 2176,
      "Give": 2177,
      "impress": 2178,
      "wha": 2179,
      "dinosaur": 2180,
      "Who": 2181,
      "icro": 2182,
      "gun": 2183,
      "knee": 2184,
      "mirror": 2185,
      "gold": 2186,
      "rare": 2187,
      "cand": 2188,
      "jam": 2189,
      "carried": 2190,
      "balloons": 2191,
      "known": 2192,
      "pensive": 2193,
      "ich": 2194,
      "cri": 2195,
      "expensive": 2196,
      "au": 2197,
      "ute": 2198,
      "bald": 2199,
      "ina": 2200,
      "oppy": 2201,
      "map": 2202,
      "mysterious": 2203,
      "respect": 2204,
      "pump": 2205,
      "class": 2206,
      "march": 2207,
      "weird": 2208,
      "gate": 2209,
      "tent": 2210,
      "act": 2211,
      "issor": 2212,
      "snee": 2213,
      "soap": 2214,
      "icked": 2215,
      "Me": 2216,
      "these": 2217,
      "issors": 2218,
      "towel": 2219,
      "poor": 2220,
      "tape": 2221,
      "whale": 2222,
      "Ella": 2223,
      "feet": 2224,
      "dizzy": 2225,
      "rough": 2226,
      "andpa": 2227,
      "itter": 2228,
      "chew": 2229,
      "generous": 2230,
      "tory": 2231,
      "ness": 2232,
      "ours": 2233,
      "wake": 2234,
      "sque": 2235,
      "lead": 2236,
      "ventually": 2237,
      "sugar": 2238,
      "picnic": 2239,
      "micro": 2240,
      "ling": 2241,
      "boot": 2242,
      "journey": 2243,
      "embarrassed": 2244,
      "print": 2245,
      "Andy": 2246,
      "peaceful": 2247,
      "scissors": 2248,
      "fat": 2249,
      "mel": 2250,
      "kiss": 2251,
      "yelled": 2252,
      "hur": 2253,
      "glue": 2254,
      "tasted": 2255,
      "dancing": 2256,
      "lose": 2257,
      "decor": 2258,
      "oop": 2259,
      "closet": 2260,
      "crown": 2261,
      "chase": 2262,
      "ual": 2263,
      "lamp": 2264,
      "eld": 2265,
      "scare": 2266,
      "usual": 2267,
      "vase": 2268,
      "pay": 2269,
      "locked": 2270,
      "cele": 2271,
      "relie": 2272,
      "celebr": 2273,
      "tele": 2274,
      "spa": 2275,
      "blow": 2276,
      "stairs": 2277,
      "painted": 2278,
      "burn": 2279,
      "norm": 2280,
      "spread": 2281,
      "mixed": 2282,
      "bake": 2283,
      "wouldn": 2284,
      "Jenny": 2285,
      "rod": 2286,
      "getable": 2287,
      "cred": 2288,
      "gust": 2289,
      "mountain": 2290,
      "bean": 2291,
      "clock": 2292,
      "famous": 2293,
      "become": 2294,
      "drawing": 2295,
      "Little": 2296,
      "knocked": 2297,
      "vegetable": 2298,
      "kicked": 2299,
      "normal": 2300,
      "shark": 2301,
      "team": 2302,
      "incred": 2303,
      "Rex": 2304,
      "group": 2305,
      "ignor": 2306,
      "collect": 2307,
      "glass": 2308,
      "fine": 2309,
      "elderly": 2310,
      "thick": 2311,
      "guess": 2312,
      "lace": 2313,
      "corner": 2314,
      "frustr": 2315,
      "mighty": 2316,
      "cone": 2317,
      "incredible": 2318,
      "nail": 2319,
      "sup": 2320,
      "gas": 2321,
      "Zoom": 2322,
      "ighed": 2323,
      "breath": 2324,
      "moms": 2325,
      "Sammy": 2326,
      "balance": 2327,
      "sock": 2328,
      "space": 2329,
      "fright": 2330,
      "frag": 2331,
      "tun": 2332,
      "organized": 2333,
      "branches": 2334,
      "sell": 2335,
      "fool": 2336,
      "feed": 2337,
      "alous": 2338,
      "neighbor": 2339,
      "umble": 2340,
      "shoe": 2341,
      "which": 2342,
      "aw": 2343,
      "hel": 2344,
      "fragile": 2345,
      "jealous": 2346,
      "pair": 2347,
      "horn": 2348,
      "understood": 2349,
      "pir": 2350,
      "yarn": 2351,
      "exam": 2352,
      "pray": 2353,
      "stubb": 2354,
      "est": 2355,
      "frustrated": 2356,
      "whisper": 2357,
      "stubborn": 2358,
      "anc": 2359,
      "cher": 2360,
      "twist": 2361,
      "chest": 2362,
      "cube": 2363,
      "ten": 2364,
      "spent": 2365,
      "taught": 2366,
      "stic": 2367,
      "bark": 2368,
      "cart": 2369,
      "chang": 2370,
      "ray": 2371,
      "ancient": 2372,
      "spoiled": 2373,
      "terri": 2374,
      "relieved": 2375,
      "fier": 2376,
      "creature": 2377,
      "fierce": 2378,
      "goat": 2379,
      "owed": 2380,
      "measure": 2381,
      "barn": 2382,
      "eggs": 2383,
      "unique": 2384,
      "frightened": 2385,
      "pumpkin": 2386,
      "wrap": 2387,
      "toug": 2388,
      "wagon": 2389,
      "useful": 2390,
      "foolish": 2391,
      "straw": 2392,
      "cab": 2393,
      "dead": 2394,
      "exploring": 2395,
      "toma": 2396,
      "clay": 2397,
      "tomato": 2398,
      "dug": 2399,
      "gigg": 2400,
      "unusual": 2401,
      "present": 2402,
      "police": 2403,
      "finding": 2404,
      "clum": 2405,
      "wrote": 2406,
      "Br": 2407,
      "ity": 2408,
      "square": 2409,
      "waves": 2410,
      "hears": 2411,
      "ony": 2412,
      "soar": 2413,
      "iver": 2414,
      "dull": 2415,
      "tough": 2416,
      "tells": 2417,
      "necklace": 2418,
      "clumsy": 2419,
      "cabin": 2420,
      "bubbles": 2421,
      "searched": 2422,
      "nosy": 2423,
      "lu": 2424,
      "orry": 2425,
      "washed": 2426,
      "painting": 2427,
      "ham": 2428,
      "yal": 2429,
      "bathroom": 2430,
      "paws": 2431,
      "rat": 2432,
      "ize": 2433,
      "wis": 2434,
      "cil": 2435,
      "fic": 2436,
      "bitter": 2437,
      "ipped": 2438,
      "clap": 2439,
      "asking": 2440,
      "crazy": 2441,
      "thankful": 2442,
      "Sorry": 2443,
      "ficult": 2444,
      "swan": 2445,
      "difficult": 2446,
      "ato": 2447,
      "unknown": 2448,
      "Today": 2449,
      "witch": 2450,
      "rose": 2451,
      "bloom": 2452,
      "pencil": 2453,
      "gloom": 2454,
      "meal": 2455,
      "sword": 2456,
      "ife": 2457,
      "finger": 2458,
      "sca": 2459,
      "jet": 2460,
      "lin": 2461,
      "gloomy": 2462,
      "loyal": 2463,
      "Many": 2464,
      "wealthy": 2465,
      "zip": 2466,
      "moving": 2467,
      "cats": 2468,
      "guit": 2469,
      "cate": 2470,
      "joined": 2471,
      "terrible": 2472,
      "dove": 2473,
      "changed": 2474,
      "value": 2475,
      "anut": 2476,
      "yours": 2477,
      "nuts": 2478,
      "stri": 2479,
      "salad": 2480,
      "bers": 2481,
      "iant": 2482,
      "rise": 2483,
      "order": 2484,
      "cane": 2485,
      "selves": 2486,
      "Ted": 2487,
      "Brown": 2488,
      "potato": 2489,
      "tiger": 2490,
      "shoot": 2491,
      "xible": 2492,
      "Instead": 2493,
      "knowing": 2494,
      "exciting": 2495,
      "hairy": 2496,
      "cheap": 2497,
      "lif": 2498,
      "guitar": 2499,
      "enorm": 2500,
      "enormous": 2501,
      "irsty": 2502,
      "yourself": 2503,
      "adventur": 2504,
      "cro": 2505,
      "marble": 2506,
      "bored": 2507,
      "fla": 2508,
      "record": 2509,
      "remind": 2510,
      "smaller": 2511,
      "pepper": 2512,
      "acorn": 2513,
      "adventurous": 2514,
      "stuff": 2515,
      "agree": 2516,
      "hats": 2517,
      "solve": 2518,
      "sunshine": 2519,
      "flash": 2520,
      "knife": 2521,
      "flexible": 2522,
      "snacks": 2523,
      "delicate": 2524,
      "dle": 2525,
      "lliant": 2526,
      "coura": 2527,
      "disgust": 2528,
      "shore": 2529,
      "nods": 2530,
      "thirsty": 2531,
      "brilliant": 2532,
      "market": 2533,
      "dough": 2534,
      "upid": 2535,
      "res": 2536,
      "frown": 2537,
      "banana": 2538,
      "stat": 2539,
      "seeds": 2540,
      "asleep": 2541,
      "counted": 2542,
      "heal": 2543,
      "Ow": 2544,
      "sport": 2545,
      "mailbox": 2546,
      "rane": 2547,
      "stage": 2548,
      "trick": 2549,
      "hoop": 2550,
      "ungle": 2551,
      "St": 2552,
      "ident": 2553,
      "jungle": 2554,
      "supp": 2555,
      "squee": 2556,
      "stupid": 2557,
      "disgusting": 2558,
      "page": 2559,
      "explained": 2560,
      "umbre": 2561,
      "jolly": 2562,
      "dge": 2563,
      "cater": 2564,
      "flies": 2565,
      "caterpill": 2566,
      "dep": 2567,
      "fridge": 2568,
      "ilt": 2569,
      "Jake": 2570,
      "igin": 2571,
      "four": 2572,
      "ular": 2573,
      "obed": 2574,
      "iddle": 2575,
      "relax": 2576,
      "island": 2577,
      "sunflower": 2578,
      "crane": 2579,
      "iginal": 2580,
      "medic": 2581,
      "epend": 2582,
      "iness": 2583,
      "harm": 2584,
      "shiver": 2585,
      "See": 2586,
      "goose": 2587,
      "eng": 2588,
      "spring": 2589,
      "ates": 2590,
      "stove": 2591,
      "obedient": 2592,
      "gets": 2593,
      "suit": 2594,
      "using": 2595,
      "del": 2596,
      "independ": 2597,
      "Tr": 2598,
      "medicine": 2599,
      "verse": 2600,
      "rug": 2601,
      "Emily": 2602,
      "original": 2603,
      "gem": 2604,
      "batter": 2605,
      "stones": 2606,
      "sighed": 2607,
      "vegetables": 2608,
      "stal": 2609,
      "stamp": 2610,
      "mark": 2611,
      "port": 2612,
      "careless": 2613,
      "successful": 2614,
      "jeep": 2615,
      "Lu": 2616,
      "carrots": 2617,
      "depend": 2618,
      "men": 2619,
      "cries": 2620,
      "popcorn": 2621,
      "vid": 2622,
      "sauce": 2623,
      "study": 2624,
      "independent": 2625,
      "almost": 2626,
      "middle": 2627,
      "pal": 2628,
      "spit": 2629,
      "caterpillar": 2630,
      "fearful": 2631,
      "escape": 2632,
      "inky": 2633,
      "belt": 2634,
      "press": 2635,
      "pebb": 2636,
      "brace": 2637,
      "parrot": 2638,
      "serious": 2639,
      "eager": 2640,
      "ountain": 2641,
      "bedroom": 2642,
      "helmet": 2643,
      "statue": 2644,
      "pasta": 2645,
      "peanut": 2646,
      "raven": 2647,
      "acket": 2648,
      "fountain": 2649,
      "jacket": 2650,
      "umbrella": 2651,
      "belonged": 2652,
      "filthy": 2653,
      "borrow": 2654,
      "comb": 2655,
      "houses": 2656,
      "design": 2657,
      "prize": 2658,
      "liz": 2659,
      "erable": 2660,
      "hay": 2661,
      "standing": 2662,
      "melon": 2663,
      "bracelet": 2664,
      "raced": 2665,
      "miserable": 2666,
      "uli": 2667,
      "taken": 2668,
      "gum": 2669,
      "avo": 2670,
      "lean": 2671,
      "fork": 2672,
      "crayon": 2673,
      "triang": 2674,
      "web": 2675,
      "impressive": 2676,
      "fig": 2677,
      "choose": 2678,
      "steal": 2679,
      "nel": 2680,
      "oured": 2681,
      "tied": 2682,
      "True": 2683,
      "vest": 2684,
      "lifted": 2685,
      "Mummy": 2686,
      "spotted": 2687,
      "slipped": 2688,
      "liable": 2689,
      "thoughtful": 2690,
      "tank": 2691,
      "ased": 2692,
      "cer": 2693,
      "dependable": 2694,
      "wip": 2695,
      "Peter": 2696,
      "arrow": 2697,
      "toast": 2698,
      "built": 2699,
      "arage": 2700,
      "Even": 2701,
      "garage": 2702,
      "crack": 2703,
      "news": 2704,
      "lid": 2705,
      "dolp": 2706,
      "boats": 2707,
      "crawled": 2708,
      "ipe": 2709,
      "scale": 2710,
      "mole": 2711,
      "giving": 2712,
      "picks": 2713,
      "bottom": 2714,
      "iano": 2715,
      "cheerful": 2716,
      "char": 2717,
      "dile": 2718,
      "smoke": 2719,
      "shroom": 2720,
      "hammer": 2721,
      "piano": 2722,
      "shows": 2723,
      "moder": 2724,
      "jug": 2725,
      "codile": 2726,
      "hurts": 2727,
      "oin": 2728,
      "aunt": 2729,
      "serve": 2730,
      "modern": 2731,
      "wrapped": 2732,
      "waff": 2733,
      "mask": 2734,
      "cco": 2735,
      "reliable": 2736,
      "tunnel": 2737,
      "nder": 2738,
      "host": 2739,
      "boys": 2740,
      "mushroom": 2741,
      "hopping": 2742,
      "squash": 2743,
      "rubbed": 2744,
      "movie": 2745,
      "sink": 2746,
      "pear": 2747,
      "flute": 2748,
      "popular": 2749,
      "sil": 2750,
      "rid": 2751,
      "cam": 2752,
      "rub": 2753,
      "tax": 2754,
      "beet": 2755,
      "copter": 2756,
      "licopter": 2757,
      "compet": 2758,
      "crystal": 2759,
      "needs": 2760,
      "appoin": 2761,
      "crocodile": 2762,
      "lizard": 2763,
      "dinary": 2764,
      "llip": 2765,
      "llipop": 2766,
      "troubled": 2767,
      "ordinary": 2768,
      "helicopter": 2769,
      "pige": 2770,
      "competit": 2771,
      "playful": 2772,
      "tricks": 2773,
      "humble": 2774,
      "lollipop": 2775,
      "kissed": 2776,
      "cap": 2777,
      "uncomfortable": 2778,
      "amond": 2779,
      "licked": 2780,
      "taxi": 2781,
      "muff": 2782,
      "Sus": 2783,
      "anx": 2784,
      "angel": 2785,
      "edy": 2786,
      "grace": 2787,
      "pants": 2788,
      "torn": 2789,
      "diamond": 2790,
      "cident": 2791,
      "twig": 2792,
      "helps": 2793,
      "anxious": 2794,
      "camera": 2795,
      "disappoin": 2796,
      "quar": 2797,
      "ghost": 2798,
      "ruined": 2799,
      "lime": 2800,
      "tears": 2801,
      "weet": 2802,
      "ext": 2803,
      "env": 2804,
      "ilty": 2805,
      "happiness": 2806,
      "guilty": 2807,
      "tube": 2808,
      "bull": 2809,
      "helpless": 2810,
      "walks": 2811,
      "aero": 2812,
      "une": 2813,
      "cean": 2814,
      "load": 2815,
      "passed": 2816,
      "ocean": 2817,
      "Next": 2818,
      "radio": 2819,
      "deaf": 2820,
      "stretch": 2821,
      "ears": 2822,
      "fluffy": 2823,
      "polish": 2824,
      "runk": 2825,
      "meant": 2826,
      "bees": 2827,
      "coco": 2828,
      "candle": 2829,
      "cact": 2830,
      "harmless": 2831,
      "Poppy": 2832,
      "mop": 2833,
      "answered": 2834,
      "compl": 2835,
      "comple": 2836,
      "stum": 2837,
      "trum": 2838,
      "beetle": 2839,
      "shape": 2840,
      "quarrel": 2841,
      "tti": 2842,
      "Pipp": 2843,
      "collar": 2844,
      "lit": 2845,
      "flashlight": 2846,
      "engine": 2847,
      "poured": 2848,
      "harder": 2849,
      "persist": 2850,
      "cereal": 2851,
      "tag": 2852,
      "cado": 2853,
      "passion": 2854,
      "trumpet": 2855,
      "invited": 2856,
      "spill": 2857,
      "melt": 2858,
      "office": 2859,
      "comput": 2860,
      "scoot": 2861,
      "triangle": 2862,
      "tooth": 2863,
      "shade": 2864,
      "accident": 2865,
      "inse": 2866,
      "hip": 2867,
      "mug": 2868,
      "gular": 2869,
      "yogurt": 2870,
      "aghe": 2871,
      "aghetti": 2872,
      "screen": 2873,
      "cush": 2874,
      "Buzz": 2875,
      "barber": 2876,
      "regular": 2877,
      "disappointed": 2878,
      "figure": 2879,
      "avocado": 2880,
      "cactus": 2881,
      "roof": 2882,
      "Fo": 2883,
      "thie": 2884,
      "sheet": 2885,
      "pale": 2886,
      "asses": 2887,
      "rice": 2888,
      "whispered": 2889,
      "power": 2890,
      "gue": 2891,
      "create": 2892,
      "tellig": 2893,
      "pipe": 2894,
      "harsh": 2895,
      "intellig": 2896,
      "libr": 2897,
      "practiced": 2898,
      "rode": 2899,
      "uth": 2900,
      "gifted": 2901,
      "ubby": 2902,
      "velo": 2903,
      "thread": 2904,
      "spaghetti": 2905,
      "icycle": 2906,
      "vol": 2907,
      "dust": 2908,
      "tur": 2909,
      "cycle": 2910,
      "Dan": 2911,
      "sailed": 2912,
      "compassion": 2913,
      "forward": 2914,
      "speed": 2915,
      "bicycle": 2916,
      "persistent": 2917,
      "ccoli": 2918,
      "envelo": 2919,
      "Mis": 2920,
      "cocoa": 2921,
      "Polly": 2922,
      "nod": 2923,
      "stream": 2924,
      "mitten": 2925,
      "computer": 2926,
      "questions": 2927,
      "feathers": 2928,
      "tic": 2929,
      "pigeon": 2930,
      "desk": 2931,
      "shrimp": 2932,
      "glove": 2933,
      "turkey": 2934,
      "cano": 2935,
      "envious": 2936,
      "azz": 2937,
      "charming": 2938,
      "knot": 2939,
      "stronger": 2940,
      "tem": 2941,
      "raft": 2942,
      "magnet": 2943,
      "coins": 2944,
      "ctive": 2945,
      "boxes": 2946,
      "seal": 2947,
      "wheat": 2948,
      "atch": 2949,
      "comet": 2950,
      "trunk": 2951,
      "chubby": 2952,
      "friendship": 2953,
      "carpet": 2954,
      "dreams": 2955,
      "spun": 2956,
      "aeroplane": 2957,
      "restless": 2958,
      "Alice": 2959,
      "intelligent": 2960,
      "half": 2961,
      "bandage": 2962,
      "salt": 2963,
      "crawl": 2964,
      "deliver": 2965,
      "Bet": 2966,
      "roy": 2967,
      "mill": 2968,
      "sle": 2969,
      "week": 2970,
      "volcano": 2971,
      "acce": 2972,
      "vio": 2973,
      "vine": 2974,
      "onion": 2975,
      "attra": 2976,
      "broccoli": 2977,
      "cauli": 2978,
      "track": 2979,
      "leo": 2980,
      "ticket": 2981,
      "louder": 2982,
      "essie": 2983,
      "thief": 2984,
      "pebble": 2985,
      "destroy": 2986,
      "judge": 2987,
      "sleeping": 2988,
      "numbers": 2989,
      "alert": 2990,
      "yaw": 2991,
      "insect": 2992,
      "haircut": 2993,
      "Pet": 2994,
      "eventually": 2995,
      "excite": 2996,
      "spital": 2997,
      "hospital": 2998,
      "Lulu": 2999,
      "returned": 3000,
      "eraser": 3001,
      "happening": 3002,
      "pour": 3003,
      "planet": 3004,
      "graceful": 3005,
      "decide": 3006,
      "learning": 3007,
      "lying": 3008,
      "leopar": 3009,
      "urse": 3010,
      "nicely": 3011,
      "celebrate": 3012,
      "cauliflower": 3013,
      "keeper": 3014,
      "competitive": 3015,
      "poem": 3016,
      "ignorant": 3017,
      "glasses": 3018,
      "hun": 3019,
      "sau": 3020,
      "catter": 3021,
      "peach": 3022,
      "lk": 3023,
      "sausage": 3024,
      "attractive": 3025,
      "zzy": 3026,
      "curt": 3027,
      "soldier": 3028,
      "dolphin": 3029,
      "base": 3030,
      "parade": 3031,
      "curtain": 3032,
      "scatter": 3033,
      "travel": 3034,
      "Car": 3035,
      "atient": 3036,
      "mes": 3037,
      "violin": 3038,
      "deter": 3039,
      "compassionate": 3040,
      "wheels": 3041,
      "yach": 3042,
      "ud": 3043,
      "envelope": 3044,
      "Bye": 3045,
      "bulb": 3046,
      "barrel": 3047,
      "Is": 3048,
      "Pete": 3049,
      "sort": 3050,
      "pho": 3051,
      "bin": 3052,
      "cob": 3053,
      "motorcycle": 3054,
      "pit": 3055,
      "firework": 3056,
      "photo": 3057,
      "ither": 3058,
      "bubble": 3059,
      "question": 3060,
      "father": 3061,
      "shells": 3062,
      "trap": 3063,
      "oat": 3064,
      "leopard": 3065,
      "float": 3066,
      "scooter": 3067,
      "needle": 3068,
      "teas": 3069,
      "perform": 3070,
      "determin": 3071,
      "tern": 3072,
      "yacht": 3073,
      "dom": 3074,
      "truth": 3075,
      "cricket": 3076,
      "ador": 3077,
      "cel": 3078,
      "hook": 3079,
      "pony": 3080,
      "igator": 3081,
      "rem": 3082,
      "homes": 3083,
      "uncle": 3084,
      "Birdy": 3085,
      "bushes": 3086,
      "guard": 3087,
      "grown": 3088,
      "cushion": 3089,
      "spell": 3090,
      "tire": 3091,
      "cooked": 3092,
      "Sp": 3093,
      "Tina": 3094,
      "packed": 3095,
      "adorable": 3096,
      "skin": 3097,
      "chalk": 3098,
      "impatient": 3099,
      "themselves": 3100,
      "celery": 3101,
      "tray": 3102,
      "purse": 3103,
      "pengu": 3104,
      "snif": 3105,
      "speak": 3106,
      "lively": 3107,
      "alligator": 3108,
      "walls": 3109,
      "prune": 3110,
      "radish": 3111,
      "saying": 3112,
      "distant": 3113,
      "city": 3114,
      "meat": 3115,
      "post": 3116,
      "illa": 3117,
      "cleaning": 3118,
      "forth": 3119,
      "bounced": 3120,
      "counting": 3121,
      "spinning": 3122,
      "Tweet": 3123,
      "marry": 3124,
      "behave": 3125,
      "slept": 3126,
      "steak": 3127,
      "thus": 3128,
      "metal": 3129,
      "skip": 3130,
      "enthus": 3131,
      "wallet": 3132,
      "biggest": 3133,
      "film": 3134,
      "oy": 3135,
      "wiped": 3136,
      "vator": 3137,
      "impro": 3138,
      "scr": 3139,
      "Well": 3140,
      "pole": 3141,
      "shut": 3142,
      "elevator": 3143,
      "edge": 3144,
      "dive": 3145,
      "laughs": 3146,
      "pattern": 3147,
      "courage": 3148,
      "skipped": 3149,
      "isted": 3150,
      "unlock": 3151,
      "distur": 3152,
      "az": 3153,
      "bags": 3154,
      "diary": 3155,
      "Susie": 3156,
      "nal": 3157,
      "armchair": 3158,
      "affe": 3159,
      "screw": 3160,
      "showing": 3161,
      "club": 3162,
      "tap": 3163,
      "earth": 3164,
      "journal": 3165,
      "ject": 3166,
      "gathered": 3167,
      "nurse": 3168,
      "jellyfish": 3169,
      "seem": 3170,
      "sweater": 3171,
      "stranger": 3172,
      "bulance": 3173,
      "bump": 3174,
      "chain": 3175,
      "lights": 3176,
      "ambulance": 3177,
      "skull": 3178,
      "aged": 3179,
      "notebook": 3180,
      "folder": 3181,
      "shield": 3182,
      "loudly": 3183,
      "Rose": 3184,
      "mixer": 3185,
      "ito": 3186,
      "wire": 3187,
      "library": 3188,
      "buttons": 3189,
      "nament": 3190,
      "playground": 3191,
      "kne": 3192,
      "hunter": 3193,
      "pointing": 3194,
      "loop": 3195,
      "squito": 3196,
      "trucks": 3197,
      "decorate": 3198,
      "tummy": 3199,
      "station": 3200,
      "falls": 3201,
      "cupboard": 3202,
      "gri": 3203,
      "?\".": 3204,
      "herb": 3205,
      "fed": 3206,
      "knows": 3207,
      "ornament": 3208,
      "modest": 3209,
      "mosquito": 3210,
      "lives": 3211,
      "giraffe": 3212,
      "attic": 3213,
      "oby": 3214,
      "sailor": 3215,
      "yet": 3216,
      "Lo": 3217,
      "whenever": 3218,
      "Sunny": 3219,
      "disappeared": 3220,
      "strawberry": 3221,
      "ceed": 3222,
      "package": 3223,
      "once": 3224,
      "ribb": 3225,
      "steps": 3226,
      "pirate": 3227,
      "People": 3228,
      "brothers": 3229,
      "Miss": 3230,
      "tear": 3231,
      "ippo": 3232,
      "hippo": 3233,
      "topus": 3234,
      "kele": 3235,
      "hall": 3236,
      "support": 3237,
      "keleton": 3238,
      "cli": 3239,
      "repe": 3240,
      "stack": 3241,
      "driving": 3242,
      "split": 3243,
      "cable": 3244,
      "calling": 3245,
      "lood": 3246,
      "fre": 3247,
      "football": 3248,
      "tho": 3249,
      "drop": 3250,
      "aff": 3251,
      "wishes": 3252,
      "coal": 3253,
      "tripped": 3254,
      "complete": 3255,
      "poke": 3256,
      "added": 3257,
      "root": 3258,
      "obile": 3259,
      "octopus": 3260,
      "Betty": 3261,
      "succeed": 3262,
      "tomobile": 3263,
      "kayak": 3264,
      "determined": 3265,
      "repair": 3266,
      "mild": 3267,
      "reading": 3268,
      "thunder": 3269,
      "automobile": 3270,
      "complain": 3271,
      "kindness": 3272,
      "suggest": 3273,
      "utes": 3274,
      "scope": 3275,
      "rolling": 3276,
      "unk": 3277,
      "gor": 3278,
      "uring": 3279,
      "iastic": 3280,
      "send": 3281,
      "enthusiastic": 3282,
      "hive": 3283,
      "math": 3284,
      "sneeze": 3285,
      "drawer": 3286,
      "chess": 3287,
      "adow": 3288,
      "yoga": 3289,
      "flea": 3290,
      "carto": 3291,
      "growl": 3292,
      "five": 3293,
      "htub": 3294,
      "inde": 3295,
      "tress": 3296,
      "meadow": 3297,
      "golf": 3298,
      "means": 3299,
      "bathtub": 3300,
      "tro": 3301,
      "Toby": 3302,
      "skeleton": 3303,
      "veil": 3304,
      "shel": 3305,
      "sity": 3306,
      "cups": 3307,
      "spend": 3308,
      "flame": 3309,
      "video": 3310,
      "penny": 3311,
      "Bessie": 3312,
      "troph": 3313,
      "Zip": 3314,
      "Mar": 3315,
      "Pippin": 3316,
      "sunglasses": 3317,
      "glowing": 3318,
      "itself": 3319,
      "oyster": 3320,
      "drawings": 3321,
      "vet": 3322,
      "ache": 3323,
      "pine": 3324,
      "muffin": 3325,
      "Snow": 3326,
      "switch": 3327,
      "stume": 3328,
      "powder": 3329,
      "costume": 3330,
      "aky": 3331,
      "dess": 3332,
      "pun": 3333,
      "Did": 3334,
      "medal": 3335,
      "maze": 3336,
      "iron": 3337,
      "pastry": 3338,
      "hedge": 3339,
      "minutes": 3340,
      "makeup": 3341,
      "handle": 3342,
      "telephone": 3343,
      "Un": 3344,
      "Rob": 3345,
      "waffle": 3346,
      "knight": 3347,
      "son": 3348,
      "mattress": 3349,
      "shocked": 3350,
      "goal": 3351,
      "frame": 3352,
      "spir": 3353,
      "trophy": 3354,
      "missile": 3355,
      "separ": 3356,
      "wife": 3357,
      "managed": 3358,
      "Grandpa": 3359,
      "Spike": 3360,
      "zi": 3361,
      "eye": 3362,
      "struc": 3363,
      "grapes": 3364,
      "magaz": 3365,
      "ait": 3366,
      "zebra": 3367,
      "camp": 3368,
      "file": 3369,
      "cobweb": 3370,
      "wool": 3371,
      "rushed": 3372,
      "chor": 3373,
      "message": 3374,
      "either": 3375,
      "bathe": 3376,
      "microphone": 3377,
      "leash": 3378,
      "vend": 3379,
      "fee": 3380,
      "weep": 3381,
      "view": 3382,
      "staff": 3383,
      "barking": 3384,
      "basketball": 3385,
      "safely": 3386,
      "whist": 3387,
      "washer": 3388,
      "ature": 3389,
      "offee": 3390,
      "tol": 3391,
      "slides": 3392,
      "trem": 3393,
      "bananas": 3394,
      "gorilla": 3395,
      "istol": 3396,
      "mp": 3397,
      "giggled": 3398,
      "hoc": 3399,
      "those": 3400,
      "fis": 3401,
      "Wait": 3402,
      "hockey": 3403,
      "cooler": 3404,
      "urch": 3405,
      "spear": 3406,
      "sof": 3407,
      "Mrs": 3408,
      "vendor": 3409,
      "grandpa": 3410,
      "early": 3411,
      "tion": 3412,
      "mint": 3413,
      "marched": 3414,
      "Al": 3415,
      "va": 3416,
      "remain": 3417,
      "flour": 3418,
      "hotel": 3419,
      "sty": 3420,
      "gain": 3421,
      "temple": 3422,
      "dessert": 3423,
      "pas": 3424,
      "hic": 3425,
      "ilot": 3426,
      "Would": 3427,
      "cell": 3428,
      "may": 3429,
      "often": 3430,
      "otter": 3431,
      "church": 3432,
      "uel": 3433,
      "pee": 3434,
      "ey": 3435,
      "cooking": 3436,
      "Kim": 3437,
      "vehic": 3438,
      "lea": 3439,
      "dishwasher": 3440,
      "anchor": 3441,
      "pretending": 3442,
      "organize": 3443,
      "sight": 3444,
      "pistol": 3445,
      "thinking": 3446,
      "tools": 3447,
      "Teddy": 3448,
      "battery": 3449,
      "fireman": 3450,
      "oil": 3451,
      "opens": 3452,
      "realised": 3453,
      "laser": 3454,
      "sne": 3455,
      "patch": 3456,
      "umb": 3457,
      "hours": 3458,
      "robe": 3459,
      "brea": 3460,
      "pilot": 3461,
      "spirit": 3462,
      "buck": 3463,
      "sandbox": 3464,
      "baseball": 3465,
      "fac": 3466,
      "whip": 3467,
      "grill": 3468,
      "trash": 3469,
      "rhin": 3470,
      "lotion": 3471,
      "suppl": 3472,
      "fort": 3473,
      "factory": 3474,
      "seum": 3475,
      "short": 3476,
      "museum": 3477,
      "coffee": 3478,
      "valu": 3479,
      "cardboard": 3480,
      "avail": 3481,
      "wardro": 3482,
      "wardrobe": 3483,
      "ugged": 3484,
      "shrink": 3485,
      "hanging": 3486,
      "check": 3487,
      "napkin": 3488,
      "towers": 3489,
      "blackboard": 3490,
      "xy": 3491,
      "quit": 3492,
      "picking": 3493,
      "excitement": 3494,
      "reward": 3495,
      "dreamed": 3496,
      "penguin": 3497,
      "passport": 3498,
      "Before": 3499,
      "fauce": 3500,
      "available": 3501,
      "igloo": 3502,
      "laun": 3503,
      "stumbled": 3504,
      "sla": 3505,
      "juicy": 3506,
      "aroo": 3507,
      "angaroo": 3508,
      "already": 3509,
      "Everywhere": 3510,
      "allowed": 3511,
      "holds": 3512,
      "novel": 3513,
      "beep": 3514,
      "ense": 3515,
      "fingers": 3516,
      "tornado": 3517,
      "faucet": 3518,
      "hanger": 3519,
      "htray": 3520,
      "fisher": 3521,
      "size": 3522,
      "chim": 3523,
      "oak": 3524,
      "laundry": 3525,
      "chimney": 3526,
      "telling": 3527,
      "ately": 3528,
      "kangaroo": 3529,
      "mule": 3530,
      "cherries": 3531,
      "gging": 3532,
      "aid": 3533,
      "mummy": 3534,
      "spilled": 3535,
      "notice": 3536,
      "practice": 3537,
      "por": 3538,
      "wander": 3539,
      "snap": 3540,
      "weigh": 3541,
      "enjoying": 3542,
      "hut": 3543,
      "imagine": 3544,
      "hurry": 3545,
      "bel": 3546,
      "reinde": 3547,
      "microscope": 3548,
      "sub": 3549,
      "ocero": 3550,
      "Co": 3551,
      "fastest": 3552,
      "cheer": 3553,
      "magazine": 3554,
      "anda": 3555,
      "Mandy": 3556,
      "fireplace": 3557,
      "umber": 3558,
      "listening": 3559,
      "doors": 3560,
      "cabinet": 3561,
      "ashtray": 3562,
      "rake": 3563,
      "bathrobe": 3564,
      "palace": 3565,
      "cows": 3566,
      "Dolly": 3567,
      "improve": 3568,
      "enny": 3569,
      "colour": 3570,
      "falling": 3571,
      "oceros": 3572,
      "arian": 3573,
      "skirt": 3574,
      "discovered": 3575,
      "blin": 3576,
      "stared": 3577,
      "reindeer": 3578,
      "miner": 3579,
      "silver": 3580,
      "trail": 3581,
      "memor": 3582,
      "roared": 3583,
      "stretched": 3584,
      "vision": 3585,
      "bill": 3586,
      "fog": 3587,
      "iction": 3588,
      "toile": 3589,
      "valuable": 3590,
      "taller": 3591,
      "fisherman": 3592,
      "happier": 3593,
      "object": 3594,
      "shamp": 3595,
      "ictionary": 3596,
      "shampoo": 3597,
      "oats": 3598,
      "holes": 3599,
      "ire": 3600,
      "offered": 3601,
      "rhinoceros": 3602,
      "boots": 3603,
      "climbing": 3604,
      "toilet": 3605,
      "zipper": 3606,
      "mineral": 3607,
      "names": 3608,
      "Frog": 3609,
      "vice": 3610,
      "!\".": 3611,
      "fuel": 3612,
      "jewelry": 3613,
      "opera": 3614,
      "perfu": 3615,
      "Or": 3616,
      "television": 3617,
      "reverse": 3618,
      "axe": 3619,
      "jokes": 3620,
      "gn": 3621,
      "sym": 3622,
      "raz": 3623,
      "sparkly": 3624,
      "stops": 3625,
      "calend": 3626,
      "jumps": 3627,
      "bury": 3628,
      "pressed": 3629,
      "perfume": 3630,
      "razor": 3631,
      "super": 3632,
      "zer": 3633,
      "bol": 3634,
      "attach": 3635,
      "sses": 3636,
      "int": 3637,
      "dictionary": 3638,
      "rece": 3639,
      "neat": 3640,
      "zag": 3641,
      "popped": 3642,
      "gasped": 3643,
      "Pandy": 3644,
      "papers": 3645,
      "calendar": 3646,
      "unpack": 3647,
      "resist": 3648,
      "creek": 3649,
      "symbol": 3650,
      "gear": 3651,
      "pinch": 3652,
      "tuna": 3653,
      "subway": 3654,
      "freezer": 3655,
      "letters": 3656,
      "chose": 3657,
      "Ouch": 3658,
      "bikes": 3659,
      "porch": 3660,
      "spoke": 3661,
      "helper": 3662,
      "anyway": 3663,
      "ival": 3664,
      "shaking": 3665,
      "wic": 3666,
      "wiches": 3667,
      "tightly": 3668,
      "ended": 3669,
      "newspaper": 3670,
      "igzag": 3671,
      "aur": 3672,
      "sandwiches": 3673,
      "against": 3674,
      "billboard": 3675,
      "blouse": 3676,
      "stickers": 3677,
      "swinging": 3678,
      "incl": 3679,
      "restaur": 3680,
      "bookcase": 3681,
      "gym": 3682,
      "lic": 3683,
      "squirrels": 3684,
      "vehicle": 3685,
      "buckle": 3686,
      "nature": 3687,
      "growing": 3688,
      "belongs": 3689,
      "butterflies": 3690,
      "restaurant": 3691,
      "swamp": 3692,
      "hate": 3693,
      "mustache": 3694,
      "stirred": 3695,
      "cards": 3696,
      "Ellie": 3697,
      "lightning": 3698,
      "fest": 3699,
      "reco": 3700,
      "distance": 3701,
      "disturb": 3702,
      "discover": 3703,
      "poon": 3704,
      "recogn": 3705,
      "tease": 3706,
      "beef": 3707,
      "rubber": 3708,
      "festival": 3709,
      "doesn": 3710,
      "crib": 3711,
      "musician": 3712,
      "noon": 3713,
      "alarm": 3714,
      "drain": 3715,
      "model": 3716,
      "ik": 3717,
      "cted": 3718,
      "advice": 3719,
      "sweetie": 3720,
      "apr": 3721,
      "sofa": 3722,
      "Dave": 3723,
      "separate": 3724,
      "surf": 3725,
      "comm": 3726,
      "circles": 3727,
      "breakfast": 3728,
      "arry": 3729,
      "blueberries": 3730,
      "tutor": 3731,
      "shelter": 3732,
      "airport": 3733,
      "ured": 3734,
      "knob": 3735,
      "asis": 3736,
      "ummer": 3737,
      "mall": 3738,
      "These": 3739,
      "bookshelf": 3740,
      "Johnny": 3741,
      "frogs": 3742,
      "Red": 3743,
      "lands": 3744,
      "Bubb": 3745,
      "Spe": 3746,
      "junk": 3747,
      "Bill": 3748,
      "riding": 3749,
      "pleased": 3750,
      "lend": 3751,
      "display": 3752,
      "wipe": 3753,
      "ahead": 3754,
      "soil": 3755,
      "resc": 3756,
      "oasis": 3757,
      "rescue": 3758,
      "painter": 3759,
      "rail": 3760,
      "squeeze": 3761,
      "leaving": 3762,
      "pedal": 3763,
      "ination": 3764,
      "lumber": 3765,
      "peeked": 3766,
      "poked": 3767,
      "Bow": 3768,
      "quiz": 3769,
      "disappear": 3770,
      "chance": 3771,
      "trains": 3772,
      "tub": 3773,
      "knock": 3774,
      "ometer": 3775,
      "extra": 3776,
      "mometer": 3777,
      "Boun": 3778,
      "refused": 3779,
      "repeat": 3780,
      "point": 3781,
      "dar": 3782,
      "birdcage": 3783,
      "rules": 3784,
      "ga": 3785,
      "winter": 3786,
      "ost": 3787,
      "sounded": 3788,
      "happens": 3789,
      "dancer": 3790,
      "teaspoon": 3791,
      "waste": 3792,
      "theater": 3793,
      "comfort": 3794,
      "weather": 3795,
      "invite": 3796,
      "carrying": 3797,
      "swung": 3798,
      "reef": 3799,
      "trade": 3800,
      "Have": 3801,
      "oph": 3802,
      "Jazz": 3803,
      "cliff": 3804,
      "accept": 3805,
      "uage": 3806,
      "anguage": 3807,
      "lawn": 3808,
      "uniform": 3809,
      "Soph": 3810,
      "admi": 3811,
      "leaned": 3812,
      "lab": 3813,
      "dreaming": 3814,
      "planes": 3815,
      "Lee": 3816,
      "task": 3817,
      "accidentally": 3818,
      "language": 3819,
      "license": 3820,
      "remove": 3821,
      "friger": 3822,
      "frigerator": 3823,
      "Buzzy": 3824,
      "pastel": 3825,
      "peek": 3826,
      "twir": 3827,
      "suff": 3828,
      "summer": 3829,
      "refrigerator": 3830,
      "blinked": 3831,
      "mas": 3832,
      "panda": 3833,
      "Big": 3834,
      "Pat": 3835,
      "starts": 3836,
      "anywhere": 3837,
      "imagined": 3838,
      "stable": 3839,
      "grand": 3840,
      "thermometer": 3841,
      "admire": 3842,
      "caring": 3843,
      "classroom": 3844,
      "ceiling": 3845,
      "shower": 3846,
      "adm": 3847,
      "bove": 3848,
      "Whe": 3849,
      "Sun": 3850,
      "missing": 3851,
      "monkeys": 3852,
      "Ru": 3853,
      "warned": 3854,
      "ium": 3855,
      "wine": 3856,
      "brick": 3857,
      "respectful": 3858,
      "aced": 3859,
      "enter": 3860,
      "above": 3861,
      "cudd": 3862,
      "Lola": 3863,
      "Binky": 3864,
      "problems": 3865,
      "chasing": 3866,
      "apron": 3867,
      "Freddy": 3868,
      "lawy": 3869,
      "strugg": 3870,
      "reg": 3871,
      "freeze": 3872,
      "iture": 3873,
      "urniture": 3874,
      "label": 3875,
      "zoomed": 3876,
      "uggage": 3877,
      "bent": 3878,
      "frowned": 3879,
      "aked": 3880,
      "furniture": 3881,
      "handed": 3882,
      "sunset": 3883,
      "Eventually": 3884,
      "pages": 3885,
      "ostrich": 3886,
      "luggage": 3887,
      "mistakes": 3888,
      "alley": 3889,
      "windows": 3890,
      "ison": 3891,
      "lions": 3892,
      "suggested": 3893,
      "jail": 3894,
      "older": 3895,
      "cur": 3896,
      "grape": 3897,
      "ribbon": 3898,
      "unite": 3899,
      "shouts": 3900,
      "spoil": 3901,
      "chamber": 3902,
      "structure": 3903,
      "delay": 3904,
      "fixing": 3905,
      "Ge": 3906,
      "finds": 3907,
      "fought": 3908,
      "searching": 3909,
      "Geor": 3910,
      "tick": 3911,
      "fant": 3912,
      "surre": 3913,
      "yield": 3914,
      "lawyer": 3915,
      "ady": 3916,
      "meeting": 3917,
      "brightly": 3918,
      "choice": 3919,
      "surprises": 3920,
      "incre": 3921,
      "adium": 3922,
      "favour": 3923,
      "terin": 3924,
      "terinarian": 3925,
      "stadium": 3926,
      "fresh": 3927,
      "veterinarian": 3928,
      "proudly": 3929,
      "veal": 3930,
      "chairs": 3931,
      "iki": 3932,
      "ations": 3933,
      "Carl": 3934,
      "sadly": 3935,
      "fro": 3936,
      "Olive": 3937,
      "puddles": 3938,
      "introd": 3939,
      "Speedy": 3940,
      "reveal": 3941,
      "ranch": 3942,
      "Char": 3943,
      "favourite": 3944,
      "argue": 3945,
      "steam": 3946,
      "admired": 3947,
      "human": 3948,
      "grabs": 3949,
      "saving": 3950,
      "excitedly": 3951,
      "Lilly": 3952,
      "Mike": 3953,
      "oh": 3954,
      "George": 3955,
      "Bubbles": 3956,
      "appla": 3957,
      "pushing": 3958,
      "ized": 3959,
      "reminded": 3960,
      "recomm": 3961,
      "leak": 3962,
      "regret": 3963,
      "ues": 3964,
      "weap": 3965,
      "castles": 3966,
      "Wo": 3967,
      "apo": 3968,
      "wigg": 3969,
      "cuss": 3970,
      "matches": 3971,
      "valley": 3972,
      "forgave": 3973,
      "Wel": 3974,
      "putting": 3975,
      "evening": 3976,
      "Welcome": 3977,
      "chan": 3978,
      "vy": 3979,
      "sneezed": 3980,
      "Pau": 3981,
      "Zoomy": 3982,
      "vroom": 3983,
      "supply": 3984,
      "spade": 3985,
      "discuss": 3986,
      "pup": 3987,
      "cared": 3988,
      "ignore": 3989,
      "prepare": 3990,
      "plates": 3991,
      "country": 3992,
      "restore": 3993,
      "pulls": 3994,
      "plastic": 3995,
      "harbor": 3996,
      "sniffed": 3997,
      "Ho": 3998,
      "replace": 3999,
      "shovel": 4000,
      "raise": 4001,
      "meas": 4002,
      "given": 4003,
      "prevent": 4004,
      "mystery": 4005,
      "socks": 4006,
      "cartoon": 4007,
      "Because": 4008,
      "Ready": 4009,
      "Under": 4010,
      "sticker": 4011,
      "Kiki": 4012,
      "sudden": 4013,
      "slipper": 4014,
      "ience": 4015,
      "wre": 4016,
      "ighted": 4017,
      "player": 4018,
      "kinds": 4019,
      "ricane": 4020,
      "slippery": 4021,
      "panic": 4022,
      "hoping": 4023,
      "shone": 4024,
      "gro": 4025,
      "rained": 4026,
      "superhero": 4027,
      "Boo": 4028,
      "delighted": 4029,
      "Yay": 4030,
      "surrender": 4031,
      "..": 4032,
      "chickens": 4033,
      "gran": 4034,
      "lex": 4035,
      "colourful": 4036,
      "shoulder": 4037,
      "liday": 4038,
      "Yuck": 4039,
      "softly": 4040,
      "claw": 4041,
      "holiday": 4042,
      "Dog": 4043,
      "shakes": 4044,
      "throwing": 4045,
      "barks": 4046,
      "kneel": 4047,
      "ines": 4048,
      "keeping": 4049,
      "vide": 4050,
      "applaud": 4051,
      "shivering": 4052,
      "pushes": 4053,
      "sunrise": 4054,
      "ason": 4055,
      "Alex": 4056,
      "thanks": 4057,
      "image": 4058,
      "tip": 4059,
      "ude": 4060,
      "suffer": 4061,
      "Cl": 4062,
      "points": 4063,
      "expec": 4064,
      "beg": 4065,
      "Shar": 4066,
      "imed": 4067,
      "giggle": 4068,
      "Grace": 4069,
      "copper": 4070,
      "Danny": 4071,
      "infant": 4072,
      "heads": 4073,
      "apolog": 4074,
      "End": 4075,
      "smells": 4076,
      "Happ": 4077,
      "dear": 4078,
      "chanic": 4079,
      "provide": 4080,
      "cherry": 4081,
      "hurricane": 4082,
      "warning": 4083,
      "Bee": 4084,
      "dishes": 4085,
      "meowed": 4086,
      "ince": 4087,
      "mechanic": 4088,
      "menu": 4089,
      "brighter": 4090,
      "thumb": 4091,
      "second": 4092,
      "cakes": 4093,
      "poison": 4094,
      "weapon": 4095,
      "event": 4096,
      "Joey": 4097,
      "letting": 4098,
      "laught": 4099,
      "sprayed": 4100,
      "laughter": 4101,
      "Hoppy": 4102,
      "feelings": 4103,
      "clapping": 4104,
      "score": 4105,
      "rec": 4106,
      "Sophie": 4107,
      "hy": 4108,
      "rooms": 4109,
      "splashing": 4110,
      "navy": 4111,
      "icky": 4112,
      "iest": 4113,
      "Happy": 4114,
      "universe": 4115,
      "sticky": 4116,
      "Paul": 4117,
      "Gig": 4118,
      "mit": 4119,
      "unhappy": 4120,
      "Woof": 4121,
      "Gigi": 4122,
      "cation": 4123,
      "dare": 4124,
      "Sque": 4125,
      "massage": 4126,
      "greedy": 4127,
      "coats": 4128,
      "ener": 4129,
      "Su": 4130,
      "alive": 4131,
      "bend": 4132,
      "breaks": 4133,
      "Qu": 4134,
      "mand": 4135,
      "crash": 4136,
      "invit": 4137,
      "demand": 4138,
      "Hen": 4139,
      "ating": 4140,
      "sie": 4141,
      "Annie": 4142,
      "swee": 4143,
      "wreck": 4144,
      "sigh": 4145,
      "Mag": 4146,
      "trusted": 4147,
      "eaten": 4148,
      "somewhere": 4149,
      "punish": 4150,
      "permit": 4151,
      "Charlie": 4152,
      "toe": 4153,
      "delight": 4154,
      "skill": 4155,
      "erc": 4156,
      "examine": 4157,
      "parts": 4158,
      "versity": 4159,
      "mention": 4160,
      "nes": 4161,
      "slip": 4162,
      "chirp": 4163,
      "raining": 4164,
      "brain": 4165,
      "Henry": 4166,
      "strip": 4167,
      "throws": 4168,
      "jogged": 4169,
      "Le": 4170,
      "starting": 4171,
      "university": 4172,
      "drops": 4173,
      "pirates": 4174,
      "request": 4175,
      "Snowy": 4176,
      "flapped": 4177,
      "sparkled": 4178,
      "Sk": 4179,
      "streng": 4180,
      "boo": 4181,
      "steel": 4182,
      "bumped": 4183,
      "yawned": 4184,
      "equ": 4185,
      "scold": 4186,
      "myself": 4187,
      "exerc": 4188,
      "shrugged": 4189,
      "theart": 4190,
      "strength": 4191,
      "paid": 4192,
      "Lucky": 4193,
      "pigs": 4194,
      "scratch": 4195,
      "tracks": 4196,
      "danger": 4197,
      "impressed": 4198,
      "prayed": 4199,
      "crossed": 4200,
      "upstairs": 4201,
      "bouncing": 4202,
      "squeezed": 4203,
      "breathe": 4204,
      "Elly": 4205,
      "badly": 4206,
      "expect": 4207,
      "rabbits": 4208,
      "minute": 4209,
      "snugg": 4210,
      "leather": 4211,
      "rhy": 4212,
      "nation": 4213,
      "Finny": 4214,
      "ix": 4215,
      "choo": 4216,
      "tide": 4217,
      "Finn": 4218,
      "tour": 4219,
      "stud": 4220,
      "flood": 4221,
      "recommend": 4222,
      "sweetheart": 4223,
      "bears": 4224,
      "espec": 4225,
      "claws": 4226,
      "heat": 4227,
      "history": 4228,
      "content": 4229,
      "strawberries": 4230,
      "settle": 4231,
      "vacation": 4232,
      "sandcastle": 4233,
      "network": 4234,
      "Coco": 4235,
      "observe": 4236,
      "explored": 4237,
      "thm": 4238,
      "yawn": 4239,
      "believed": 4240,
      "horses": 4241,
      "neighb": 4242,
      "ially": 4243,
      "checked": 4244,
      "mare": 4245,
      "inking": 4246,
      "placed": 4247,
      "Fox": 4248,
      "bling": 4249,
      "cheek": 4250,
      "Tilly": 4251,
      "ffic": 4252,
      "Not": 4253,
      "Harry": 4254,
      "offer": 4255,
      "easily": 4256,
      "First": 4257,
      "spots": 4258,
      "blueberry": 4259,
      "energy": 4260,
      "mission": 4261,
      "safar": 4262,
      "ween": 4263,
      "between": 4264,
      "nightmare": 4265,
      "imagination": 4266,
      "Penny": 4267,
      "Pa": 4268,
      "daisy": 4269,
      "waving": 4270,
      "soak": 4271,
      "twisted": 4272,
      "counter": 4273,
      "writing": 4274,
      "baking": 4275,
      "safari": 4276,
      "blowing": 4277,
      "quake": 4278,
      "prunes": 4279,
      "rhythm": 4280,
      "stomach": 4281,
      "insisted": 4282,
      "muscle": 4283,
      "Owl": 4284,
      "entered": 4285,
      "beauty": 4286,
      "bother": 4287,
      "palm": 4288,
      "poppy": 4289,
      "ipment": 4290,
      "hills": 4291,
      "equipment": 4292,
      "burned": 4293,
      "ddy": 4294,
      "especially": 4295,
      "increase": 4296,
      "cky": 4297,
      "sir": 4298,
      "ingred": 4299,
      "nobody": 4300,
      "ingredient": 4301,
      "ignored": 4302,
      "earthquake": 4303,
      "xygen": 4304,
      "calls": 4305,
      "exper": 4306,
      "Mill": 4307,
      "hood": 4308,
      "tug": 4309,
      "Whenever": 4310,
      "afternoon": 4311,
      "Maria": 4312,
      "lemonade": 4313,
      "Goodbye": 4314,
      "learnt": 4315,
      "hearts": 4316,
      "Zara": 4317,
      "napped": 4318,
      "Ju": 4319,
      "tremble": 4320,
      "mailman": 4321,
      "whistled": 4322,
      "shopkeeper": 4323,
      "backpack": 4324,
      "yucky": 4325,
      "lemons": 4326,
      "beans": 4327,
      "sting": 4328,
      "moves": 4329,
      "introduce": 4330,
      "strike": 4331,
      "Wed": 4332,
      "Wednes": 4333,
      "Mitten": 4334,
      "ris": 4335,
      "include": 4336,
      "floated": 4337,
      "Froggy": 4338,
      "folded": 4339,
      "traffic": 4340,
      "Sandy": 4341,
      "Sharing": 4342,
      "Mittens": 4343,
      "price": 4344,
      "planned": 4345,
      "Squeaky": 4346,
      "rested": 4347,
      "Sur": 4348,
      "racing": 4349,
      "wisdom": 4350,
      "luck": 4351,
      "Sh": 4352,
      "Bounce": 4353,
      "pitch": 4354,
      "wags": 4355,
      "excla": 4356,
      "following": 4357,
      "mama": 4358,
      "slap": 4359,
      "lip": 4360,
      "below": 4361,
      "heel": 4362,
      "encourage": 4363,
      "served": 4364,
      "weight": 4365,
      "gling": 4366,
      "Gre": 4367,
      "buried": 4368,
      "exclaimed": 4369,
      "prints": 4370,
      "crow": 4371,
      "oper": 4372,
      "pted": 4373,
      "follows": 4374,
      "ingredients": 4375,
      "recognize": 4376,
      "allow": 4377,
      "candles": 4378,
      "Remember": 4379,
      "Millie": 4380,
      "Kate": 4381,
      "bey": 4382,
      "urge": 4383,
      "Wednesday": 4384,
      "ler": 4385,
      "ptain": 4386,
      "apart": 4387,
      "bang": 4388,
      "marbles": 4389,
      "teaching": 4390,
      "growled": 4391,
      "chore": 4392,
      "hopes": 4393,
      "Baby": 4394,
      "sim": 4395,
      "closely": 4396,
      "James": 4397,
      "tch": 4398,
      "Follow": 4399,
      "May": 4400,
      "zigzag": 4401,
      "pulling": 4402,
      "lect": 4403,
      "chewed": 4404,
      "bouncy": 4405,
      "digg": 4406,
      "further": 4407,
      "dresses": 4408,
      "riage": 4409,
      "winning": 4410,
      "digging": 4411,
      "Pinky": 4412,
      "solved": 4413,
      "gie": 4414,
      "Pip": 4415,
      "ifi": 4416,
      "twis": 4417,
      "puzzles": 4418,
      "shouting": 4419,
      "cery": 4420,
      "grocery": 4421,
      "attent": 4422,
      "peanuts": 4423,
      "chores": 4424,
      "twisty": 4425,
      "worms": 4426,
      "scrat": 4427,
      "dressed": 4428,
      "Papa": 4429,
      "Tony": 4430,
      "operation": 4431,
      "snail": 4432,
      "hon": 4433,
      "deeper": 4434,
      "exercise": 4435,
      "Bluey": 4436,
      "spike": 4437,
      "acorns": 4438,
      "izes": 4439,
      "planted": 4440,
      "oxygen": 4441,
      "wink": 4442,
      "Fifi": 4443,
      "Ruby": 4444,
      "lecture": 4445,
      "attention": 4446,
      "quite": 4447,
      "marriage": 4448,
      "underground": 4449,
      "Everything": 4450,
      "creatures": 4451,
      "argu": 4452,
      "washing": 4453,
      "vanished": 4454,
      "struggle": 4455,
      "hurting": 4456,
      "invitation": 4457,
      "gifts": 4458,
      "licks": 4459,
      "petal": 4460,
      "snuggled": 4461,
      "quietly": 4462,
      "awe": 4463,
      "jazz": 4464,
      "disagree": 4465,
      "blood": 4466,
      "elephants": 4467,
      "fallen": 4468,
      "Liz": 4469,
      "release": 4470,
      "reci": 4471,
      "dried": 4472,
      "sizes": 4473,
      "poss": 4474,
      "landscape": 4475,
      "neighbour": 4476,
      "Tues": 4477,
      "mice": 4478,
      "exit": 4479,
      "sprink": 4480,
      "sailing": 4481,
      "eagerly": 4482,
      "appreci": 4483,
      "Sunday": 4484,
      "paused": 4485,
      "ooped": 4486,
      "Ste": 4487,
      "Surpr": 4488,
      "vanish": 4489,
      "worth": 4490,
      "Uncle": 4491,
      "style": 4492,
      "aking": 4493,
      "shined": 4494,
      "ashion": 4495,
      "reaches": 4496,
      "mm": 4497,
      "Wigg": 4498,
      "atta": 4499,
      "bricks": 4500,
      "kisses": 4501,
      "Sm": 4502,
      "plays": 4503,
      "ideas": 4504,
      "balan": 4505,
      "wob": 4506,
      "fireworks": 4507,
      "seeing": 4508,
      "ucked": 4509,
      "Yum": 4510,
      "tomatoes": 4511,
      "accepted": 4512,
      "stra": 4513,
      "blink": 4514,
      "fashion": 4515,
      "memory": 4516,
      "ups": 4517,
      "married": 4518,
      "nce": 4519,
      "muddy": 4520,
      "Each": 4521,
      "reeze": 4522,
      "Watch": 4523,
      "resp": 4524,
      "Rosie": 4525,
      "wagging": 4526,
      "Clara": 4527,
      "wandered": 4528,
      "captain": 4529,
      "manage": 4530,
      "gloves": 4531,
      "rang": 4532,
      "receive": 4533,
      "famil": 4534,
      "God": 4535,
      "during": 4536,
      "lick": 4537,
      "petals": 4538,
      "zipped": 4539,
      "Mo": 4540,
      "watered": 4541,
      "pillows": 4542,
      "Spark": 4543,
      "couraged": 4544,
      "meow": 4545,
      "brings": 4546,
      "Che": 4547,
      "Ke": 4548,
      "pinched": 4549,
      "destroyed": 4550,
      "printer": 4551,
      "Wiggly": 4552,
      "shot": 4553,
      "bones": 4554,
      "Tuesday": 4555,
      "hadn": 4556,
      "catching": 4557,
      "treasures": 4558,
      "hers": 4559,
      "worse": 4560,
      "beam": 4561,
      "hi": 4562,
      "aches": 4563,
      "scattered": 4564,
      "hits": 4565,
      "sorts": 4566,
      "toes": 4567,
      "memories": 4568,
      "xu": 4569,
      "Kat": 4570,
      "velvet": 4571,
      "scolded": 4572,
      "oranges": 4573,
      "seats": 4574,
      "snapped": 4575,
      "signs": 4576,
      "sits": 4577,
      "Mor": 4578,
      "bby": 4579,
      "gazed": 4580,
      "pears": 4581,
      "raised": 4582,
      "acked": 4583,
      "pies": 4584,
      "sliding": 4585,
      "Wally": 4586,
      "rect": 4587,
      "climbs": 4588,
      "baked": 4589,
      "llen": 4590,
      "easier": 4591,
      "King": 4592,
      "skills": 4593,
      "Beep": 4594,
      "luxu": 4595,
      "ccer": 4596,
      "omed": 4597,
      "forgotten": 4598,
      "twirled": 4599,
      "blankets": 4600,
      "possible": 4601,
      "difference": 4602,
      "zero": 4603,
      "sterday": 4604,
      "cutting": 4605,
      "wed": 4606,
      "Ha": 4607,
      "golden": 4608,
      "Surprise": 4609,
      "kitty": 4610,
      "olive": 4611,
      "season": 4612,
      "Maggie": 4613,
      "soccer": 4614,
      "ys": 4615,
      "bru": 4616,
      "beha": 4617,
      "nowhere": 4618,
      "lung": 4619,
      "emer": 4620,
      "Slow": 4621,
      "dared": 4622,
      "Out": 4623,
      "Tuna": 4624,
      "Zo": 4625,
      "bites": 4626,
      "celebrated": 4627,
      "Hop": 4628,
      "west": 4629,
      "sorting": 4630,
      "sters": 4631,
      "straight": 4632,
      "ah": 4633,
      "padd": 4634,
      "unlocked": 4635,
      "Moral": 4636,
      "bleed": 4637,
      "comed": 4638,
      "nies": 4639,
      "welcomed": 4640,
      "collected": 4641,
      "stitch": 4642,
      "visited": 4643,
      "spoons": 4644,
      "Ok": 4645,
      "jogging": 4646,
      "warn": 4647,
      "medi": 4648,
      "tore": 4649,
      "mediately": 4650,
      "isn": 4651,
      "buzz": 4652,
      "trave": 4653,
      "recei": 4654,
      "since": 4655,
      "winner": 4656,
      "ruin": 4657,
      "fortun": 4658,
      "bab": 4659,
      "prepar": 4660,
      "ipping": 4661,
      "attached": 4662,
      "luxury": 4663,
      "bur": 4664,
      "Suzy": 4665,
      "Din": 4666,
      "weeping": 4667,
      "Meow": 4668,
      "marching": 4669,
      "simple": 4670,
      "\",": 4671,
      "Both": 4672,
      "shouldn": 4673,
      "guessed": 4674,
      "stuffed": 4675,
      "selling": 4676,
      "Smith": 4677,
      "pets": 4678,
      "created": 4679,
      "vic": 4680,
      "urged": 4681,
      "waist": 4682,
      "bowed": 4683,
      "floating": 4684,
      "Someone": 4685,
      "kingdom": 4686,
      "olives": 4687,
      "Always": 4688,
      "kicking": 4689,
      "printed": 4690,
      "punished": 4691,
      "Dr": 4692,
      "muscles": 4693,
      "understanding": 4694,
      "beds": 4695,
      "melted": 4696,
      "uses": 4697,
      "jewels": 4698,
      "perfor": 4699,
      "lined": 4700,
      "grin": 4701,
      "measured": 4702,
      "collection": 4703,
      "slice": 4704,
      "grant": 4705,
      "omeday": 4706,
      "fortunately": 4707,
      "acted": 4708,
      "offic": 4709,
      "trapped": 4710,
      "gers": 4711,
      "encouraged": 4712,
      "resu": 4713,
      "iers": 4714,
      "waffles": 4715,
      "received": 4716,
      "sip": 4717,
      "ents": 4718,
      "patterns": 4719,
      "mouths": 4720,
      "hest": 4721,
      "kins": 4722,
      "peaches": 4723,
      "breeze": 4724,
      "chy": 4725,
      "six": 4726,
      "someday": 4727,
      "Stay": 4728,
      "potatoes": 4729,
      "soldiers": 4730,
      "result": 4731,
      "Toto": 4732,
      "presents": 4733,
      "experience": 4734,
      "pupil": 4735,
      "drinks": 4736,
      "none": 4737,
      "ging": 4738,
      "flap": 4739,
      "Rocky": 4740,
      "lets": 4741,
      "surround": 4742,
      "appro": 4743,
      "!'": 4744,
      "drinking": 4745,
      "voices": 4746,
      "breaking": 4747,
      "relaxed": 4748,
      "victory": 4749,
      "tongue": 4750,
      "twink": 4751,
      "bak": 4752,
      "fetch": 4753,
      "hurried": 4754,
      "paints": 4755,
      "stumes": 4756,
      "whistling": 4757,
      "costumes": 4758,
      "mentioned": 4759,
      "Chicky": 4760,
      "disagreed": 4761,
      "begged": 4762,
      "Pepper": 4763,
      "teasing": 4764,
      "pearl": 4765,
      "flat": 4766,
      "lips": 4767,
      "permission": 4768,
      "Like": 4769,
      "skipping": 4770,
      "highest": 4771,
      "sorted": 4772,
      "cus": 4773,
      "works": 4774,
      "Its": 4775,
      "fishing": 4776,
      "ringing": 4777,
      "aded": 4778,
      "watches": 4779,
      "tonight": 4780,
      "!\",": 4781,
      "opin": 4782,
      "shadows": 4783,
      "Sky": 4784,
      "Milly": 4785,
      "crun": 4786,
      "sniff": 4787,
      "immediately": 4788,
      "perfectly": 4789,
      "suppo": 4790,
      "ruck": 4791,
      "icing": 4792,
      "warmth": 4793,
      "remained": 4794,
      "herbs": 4795,
      "obey": 4796,
      "Our": 4797,
      "mbers": 4798,
      "sett": 4799,
      "sneak": 4800,
      "emergen": 4801,
      "napping": 4802,
      "Dino": 4803,
      "kneeled": 4804,
      "lines": 4805,
      "colours": 4806,
      "contest": 4807,
      "cartoons": 4808,
      "east": 4809,
      "headed": 4810,
      "ago": 4811,
      "stamps": 4812,
      "Bug": 4813,
      "sidewalk": 4814,
      "Pr": 4815,
      "rust": 4816,
      "girls": 4817,
      "roots": 4818,
      "supposed": 4819,
      "cones": 4820,
      "mixing": 4821,
      "members": 4822,
      "Zigzag": 4823,
      "For": 4824,
      "Dav": 4825,
      "Frank": 4826,
      "decorations": 4827,
      "Keep": 4828,
      "Ex": 4829,
      "melting": 4830,
      "Friend": 4831,
      "Rab": 4832,
      "lily": 4833,
      "sid": 4834,
      "setting": 4835,
      "laid": 4836,
      "Really": 4837,
      "utter": 4838,
      "Ye": 4839,
      "Thanks": 4840,
      "wiggle": 4841,
      "studied": 4842,
      "succeeded": 4843,
      "strangers": 4844,
      "fields": 4845,
      "ding": 4846,
      "shock": 4847,
      "twigs": 4848,
      "theirs": 4849,
      "ordered": 4850,
      "stirring": 4851,
      "However": 4852,
      "screams": 4853,
      "Something": 4854,
      "stealing": 4855,
      "alright": 4856,
      "moments": 4857,
      "threat": 4858,
      "mister": 4859,
      "Rabbit": 4860,
      "David": 4861,
      "bravely": 4862,
      "Steve": 4863,
      "playtime": 4864,
      "esca": 4865,
      "tucked": 4866,
      "invest": 4867,
      "scratched": 4868,
      "waits": 4869,
      "ripped": 4870,
      "burning": 4871,
      "Lizzy": 4872,
      "investig": 4873,
      "inch": 4874,
      "matched": 4875,
      "ishes": 4876,
      "bridges": 4877,
      "settled": 4878,
      "otion": 4879,
      "Rac": 4880,
      "officer": 4881,
      "bun": 4882,
      "exture": 4883,
      "Hope": 4884,
      "lap": 4885,
      "emergency": 4886,
      "Je": 4887,
      "texture": 4888,
      "achie": 4889,
      "turning": 4890,
      "Unfortunately": 4891,
      "keys": 4892,
      "trembling": 4893,
      "nails": 4894,
      "Aunt": 4895,
      "nie": 4896,
      "sore": 4897,
      "izard": 4898,
      "piles": 4899,
      "muffins": 4900,
      "decis": 4901,
      "escaped": 4902,
      "Ray": 4903,
      "silence": 4904,
      "babies": 4905,
      "investigate": 4906,
      "admir": 4907,
      "sisters": 4908,
      "appreciate": 4909,
      "Star": 4910,
      "Slowly": 4911,
      "dads": 4912,
      "slapped": 4913,
      "chewing": 4914,
      "Katie": 4915,
      "area": 4916,
      "answers": 4917,
      "importance": 4918,
      "safety": 4919,
      "pupp": 4920,
      "broom": 4921,
      "Put": 4922,
      "wizard": 4923,
      "iggy": 4924,
      "owned": 4925,
      "Abig": 4926,
      "Moo": 4927,
      "beat": 4928,
      "sparkle": 4929,
      "soared": 4930,
      "touching": 4931,
      "quack": 4932,
      "antly": 4933,
      "sings": 4934,
      "amaze": 4935,
      "Abigail": 4936,
      "dam": 4937,
      "--": 4938,
      "chip": 4939,
      "'.": 4940,
      "Those": 4941,
      "amazement": 4942,
      "Squ": 4943,
      "brushes": 4944,
      "ms": 4945,
      "soaked": 4946,
      "hesit": 4947,
      "twin": 4948,
      "revealed": 4949,
      "writ": 4950,
      "keeps": 4951,
      "Leave": 4952,
      "Mmm": 4953,
      "Rachel": 4954,
      "foods": 4955,
      ".'": 4956,
      "dinosaurs": 4957,
      "recorded": 4958,
      "rides": 4959,
      "curled": 4960,
      "tickle": 4961,
      "spaceship": 4962,
      "trips": 4963,
      "glowed": 4964,
      "rr": 4965,
      "ached": 4966,
      "vor": 4967,
      "beamed": 4968,
      "ppers": 4969,
      "shopping": 4970,
      "Zoe": 4971,
      "hated": 4972,
      "direct": 4973,
      "eats": 4974,
      "wooden": 4975,
      "Spl": 4976,
      "Joy": 4977,
      "studying": 4978,
      "praised": 4979,
      "crawling": 4980,
      "thri": 4981,
      "ruler": 4982,
      "ids": 4983,
      "bringing": 4984,
      "anna": 4985,
      "marks": 4986,
      "mittens": 4987,
      "includ": 4988,
      "downstairs": 4989,
      "shooting": 4990,
      "dot": 4991,
      "tastes": 4992,
      "cuddled": 4993,
      "collecting": 4994,
      "Hold": 4995,
      "sprinkles": 4996,
      "families": 4997,
      "fut": 4998,
      "monsters": 4999,
      "ef": 5000,
      "measuring": 5001,
      "Ma": 5002,
      "ib": 5003,
      "challen": 5004,
      "future": 5005,
      "Jess": 5006,
      "irts": 5007,
      "ising": 5008,
      "fy": 5009,
      "approached": 5010,
      "crunchy": 5011,
      "ladybug": 5012,
      "Yummy": 5013,
      "leader": 5014,
      "tails": 5015,
      "disturbed": 5016,
      "boom": 5017,
      "remembers": 5018,
      "bleeding": 5019,
      "nicer": 5020,
      "isten": 5021,
      "sneaky": 5022,
      "scaring": 5023,
      "peel": 5024,
      "Sad": 5025,
      "Splash": 5026,
      "vi": 5027,
      "snowball": 5028,
      "Behind": 5029,
      "neighborhood": 5030,
      "grey": 5031,
      "Jam": 5032,
      "motion": 5033,
      "firemen": 5034,
      "Listen": 5035,
      "weighed": 5036,
      "apologized": 5037,
      "gained": 5038,
      "tickets": 5039,
      "loose": 5040,
      "woof": 5041,
      "naps": 5042,
      "youth": 5043,
      "pride": 5044,
      "worker": 5045,
      "behaved": 5046,
      "strings": 5047,
      "Pippa": 5048,
      "Vel": 5049,
      "recognized": 5050,
      "Nan": 5051,
      "sire": 5052,
      "siren": 5053,
      "En": 5054,
      "crashed": 5055,
      "poking": 5056,
      "fied": 5057,
      "wonders": 5058,
      "tricked": 5059,
      "Velvet": 5060,
      "Quick": 5061,
      "Robby": 5062,
      "wanting": 5063,
      "prepared": 5064,
      "struck": 5065,
      "draws": 5066,
      "seesaw": 5067,
      "zooming": 5068,
      "opinion": 5069,
      "scooped": 5070,
      "By": 5071,
      "acting": 5072,
      "grinned": 5073,
      "yelling": 5074,
      "poems": 5075,
      "happiest": 5076,
      "rubbing": 5077,
      "doggy": 5078,
      "Get": 5079,
      "respons": 5080,
      "zes": 5081,
      "chef": 5082,
      "sneaked": 5083,
      "Achoo": 5084,
      "fer": 5085,
      "Quack": 5086,
      "lier": 5087,
      "zen": 5088,
      "anytime": 5089,
      "knelt": 5090,
      "decorated": 5091,
      "pedals": 5092,
      "sides": 5093,
      "bunnies": 5094,
      "Jan": 5095,
      "ena": 5096,
      "agreement": 5097,
      "secrets": 5098,
      "tallest": 5099,
      "horns": 5100,
      "rescu": 5101,
      "During": 5102,
      "De": 5103,
      "sen": 5104,
      "Time": 5105,
      "decides": 5106,
      "bank": 5107,
      "Stitch": 5108,
      "challenge": 5109,
      "tugged": 5110,
      "goodnight": 5111,
      "Spr": 5112,
      "Bree": 5113,
      "Exc": 5114,
      "slim": 5115,
      "sparkling": 5116,
      "chirped": 5117,
      "osity": 5118,
      "Bad": 5119,
      "Thom": 5120,
      "precious": 5121,
      "repeated": 5122,
      "indy": 5123,
      "pause": 5124,
      "Friends": 5125,
      "Being": 5126,
      "Green": 5127,
      "uggling": 5128,
      "loaded": 5129,
      "claps": 5130,
      "Birdie": 5131,
      "contain": 5132,
      "ourselves": 5133,
      "rs": 5134,
      "Bouncy": 5135,
      "snowballs": 5136,
      "eight": 5137,
      "Dare": 5138,
      "giraffes": 5139,
      "frozen": 5140,
      "balancing": 5141,
      "kindly": 5142,
      "Gogo": 5143,
      "united": 5144,
      "alien": 5145,
      "Sn": 5146,
      "spending": 5147,
      "writes": 5148,
      "Thomas": 5149,
      "Po": 5150,
      "hissed": 5151,
      "flavor": 5152,
      "Ava": 5153,
      "frosting": 5154,
      "Two": 5155,
      "struggled": 5156,
      "buzzing": 5157,
      "rele": 5158,
      "admiring": 5159,
      "sweeties": 5160,
      "Mi": 5161,
      "slimy": 5162,
      "brushed": 5163,
      "Water": 5164,
      "polished": 5165,
      "bloomed": 5166,
      "comfy": 5167,
      "Olly": 5168,
      "Fish": 5169,
      "rings": 5170,
      "loving": 5171,
      "Mouse": 5172,
      "powers": 5173,
      "staying": 5174,
      "Julie": 5175,
      "honk": 5176,
      "folding": 5177,
      "thrilled": 5178,
      "Zero": 5179,
      "beside": 5180,
      "rocking": 5181,
      "Kids": 5182,
      "Cla": 5183,
      "Mir": 5184,
      "Wis": 5185,
      "pockets": 5186,
      "earlier": 5187,
      "Wisdom": 5188,
      "seems": 5189,
      "yesterday": 5190,
      "machines": 5191,
      "traveled": 5192,
      "ities": 5193,
      "sew": 5194,
      "spraying": 5195,
      "radishes": 5196,
      "zookeeper": 5197,
      "hugging": 5198,
      "cracked": 5199,
      "opening": 5200,
      "tim": 5201,
      "pebbles": 5202,
      "gaze": 5203,
      "surrounded": 5204,
      "removed": 5205,
      "demanded": 5206,
      "curiosity": 5207,
      "paintings": 5208,
      "Spring": 5209,
      "hardly": 5210,
      "pots": 5211,
      "Beth": 5212,
      "petted": 5213,
      "Day": 5214,
      "catches": 5215,
      "circus": 5216,
      "stripes": 5217,
      "Abby": 5218,
      "matching": 5219,
      "crumb": 5220,
      "cub": 5221,
      "urry": 5222,
      "deser": 5223,
      "Jamie": 5224,
      "splashes": 5225,
      "cin": 5226,
      "Lou": 5227,
      "aster": 5228,
      "ric": 5229,
      "toss": 5230,
      "stare": 5231,
      "loe": 5232,
      "Fl": 5233,
      "belly": 5234,
      "stron": 5235,
      "Everyday": 5236,
      "whatever": 5237,
      "apologize": 5238,
      "sled": 5239,
      "tles": 5240,
      "ribbons": 5241,
      "comforted": 5242,
      "stored": 5243,
      "roads": 5244,
      "rocked": 5245,
      "expected": 5246,
      "struggling": 5247,
      "chases": 5248,
      "decision": 5249,
      "steep": 5250,
      "lied": 5251,
      "protected": 5252,
      "Mon": 5253,
      "beard": 5254,
      "neighbors": 5255,
      "granted": 5256,
      "Chloe": 5257,
      "diving": 5258,
      "smiley": 5259,
      "purred": 5260,
      "heroes": 5261,
      "Nina": 5262,
      "eagle": 5263,
      "stro": 5264,
      "sadness": 5265,
      "organizing": 5266,
      "disco": 5267,
      "safer": 5268,
      "dipped": 5269,
      "goals": 5270,
      "argued": 5271,
      "sunlight": 5272,
      "pastels": 5273,
      "Take": 5274,
      "discovery": 5275,
      "villag": 5276,
      "dragons": 5277,
      "peered": 5278,
      "buildings": 5279,
      "parties": 5280,
      "buckets": 5281,
      "cuts": 5282,
      "shirts": 5283,
      "wedding": 5284,
      "smar": 5285,
      "flutter": 5286,
      "polishing": 5287,
      "Josh": 5288,
      "fas": 5289,
      "refu": 5290,
      "planets": 5291,
      "crabs": 5292,
      "Ear": 5293,
      "sausages": 5294,
      "Hippy": 5295,
      "released": 5296,
      "Silly": 5297,
      "ads": 5298,
      "wiggled": 5299,
      "clearing": 5300,
      "vies": 5301,
      "teased": 5302,
      "arguing": 5303,
      "roaring": 5304,
      "bottles": 5305,
      "dragged": 5306,
      "gathering": 5307,
      "ction": 5308,
      "actu": 5309,
      "Kay": 5310,
      "movies": 5311,
      "Run": 5312,
      "ley": 5313,
      "teaches": 5314,
      "limes": 5315,
      "cough": 5316,
      "Bop": 5317,
      "joyed": 5318,
      "spiders": 5319,
      "Prin": 5320,
      "actually": 5321,
      "continue": 5322,
      "sighs": 5323,
      "Hanna": 5324,
      "overjoyed": 5325,
      "caut": 5326,
      "cuddle": 5327,
      "cubes": 5328,
      "smallest": 5329,
      "soaring": 5330,
      "situ": 5331,
      "drives": 5332,
      "provid": 5333,
      "sparkles": 5334,
      "grandmother": 5335,
      "proper": 5336,
      "Catty": 5337,
      "rol": 5338,
      "...": 5339,
      "mane": 5340,
      "fascin": 5341,
      "Flo": 5342,
      "peppers": 5343,
      "pouring": 5344,
      "pretends": 5345,
      "wondering": 5346,
      "shivered": 5347,
      "stretching": 5348,
      "len": 5349,
      "quarreling": 5350,
      "dusty": 5351,
      "Jump": 5352,
      "ippy": 5353,
      "comp": 5354,
      "weeks": 5355,
      "wherever": 5356,
      "villagers": 5357,
      "darker": 5358,
      "company": 5359,
      "Enjoy": 5360,
      "onwards": 5361,
      "weed": 5362,
      "laying": 5363,
      "iggling": 5364,
      "tiest": 5365,
      "tions": 5366,
      "youn": 5367,
      "prettiest": 5368,
      "Oli": 5369,
      "realize": 5370,
      "Lena": 5371,
      "penguins": 5372,
      "knights": 5373,
      "bedtime": 5374,
      "Earth": 5375,
      "control": 5376,
      "othing": 5377,
      "completed": 5378,
      "instruc": 5379,
      "flags": 5380,
      "stom": 5381,
      "actions": 5382,
      "shrug": 5383,
      "Chew": 5384,
      "Love": 5385,
      "dolph": 5386,
      "kites": 5387,
      "patience": 5388,
      "conf": 5389,
      "Anne": 5390,
      "responsible": 5391,
      "learns": 5392,
      "die": 5393,
      "Squirrel": 5394,
      "playroom": 5395,
      "gotten": 5396,
      "packing": 5397,
      "Adam": 5398,
      "Try": 5399,
      "destination": 5400,
      "sobb": 5401,
      "reply": 5402,
      "inda": 5403,
      "fault": 5404,
      "Uh": 5405,
      "mountains": 5406,
      "scrubbed": 5407,
      "wires": 5408,
      "applauded": 5409,
      "Blink": 5410,
      "wins": 5411,
      "fears": 5412,
      "wrist": 5413,
      "crept": 5414,
      "rac": 5415,
      "satis": 5416,
      "pencils": 5417,
      "wound": 5418,
      "Want": 5419,
      "sticking": 5420,
      "Brownie": 5421,
      "baker": 5422,
      "third": 5423,
      "visiting": 5424,
      "ibb": 5425,
      "aren": 5426,
      "uct": 5427,
      "peas": 5428,
      "awake": 5429,
      "reminder": 5430,
      "joking": 5431,
      "Mira": 5432,
      "ky": 5433,
      "Princess": 5434,
      "parked": 5435,
      "healed": 5436,
      "hitting": 5437,
      "Luck": 5438,
      "screaming": 5439,
      "staring": 5440,
      "icorn": 5441,
      "unicorn": 5442,
      "Hannah": 5443,
      "acti": 5444,
      "begin": 5445,
      "copy": 5446,
      "helmets": 5447,
      "Luckily": 5448,
      "bie": 5449,
      "creation": 5450,
      "crumbs": 5451,
      "shelves": 5452,
      "wasted": 5453,
      "chips": 5454,
      "towels": 5455,
      "nets": 5456,
      "masks": 5457,
      "items": 5458,
      "chat": 5459,
      "Claire": 5460,
      "agrees": 5461,
      "Hoot": 5462,
      "died": 5463,
      "lollipops": 5464,
      "uddles": 5465,
      "guns": 5466,
      "glitter": 5467,
      "firefight": 5468,
      "ica": 5469,
      "Jilly": 5470,
      "logs": 5471,
      "stole": 5472,
      "arrive": 5473,
      "scales": 5474,
      "weren": 5475,
      "tune": 5476,
      "Dot": 5477,
      "ilo": 5478,
      "Ah": 5479,
      "Ally": 5480,
      "perched": 5481,
      "candies": 5482,
      "whose": 5483,
      "seven": 5484,
      "instructions": 5485,
      "snakes": 5486,
      "practicing": 5487,
      "achieve": 5488,
      "wid": 5489,
      "pumpkins": 5490,
      "Foxy": 5491,
      "Ball": 5492,
      "batteries": 5493,
      "chirping": 5494,
      "Roar": 5495,
      "protecting": 5496,
      "activ": 5497,
      "patiently": 5498,
      "exact": 5499,
      "shoulders": 5500,
      "Tree": 5501,
      "blows": 5502,
      "crowd": 5503,
      "El": 5504,
      "faced": 5505,
      "promises": 5506,
      "videos": 5507,
      "Cra": 5508,
      "airplane": 5509,
      "ners": 5510,
      "yum": 5511,
      "examined": 5512,
      "jamas": 5513,
      "cans": 5514,
      "accompl": 5515,
      "roses": 5516,
      "Duck": 5517,
      "project": 5518,
      "Ja": 5519,
      "tasks": 5520,
      "aws": 5521,
      "Susan": 5522,
      "Great": 5523,
      "beads": 5524,
      "Cuddles": 5525,
      "bowls": 5526,
      "rubs": 5527,
      "guest": 5528,
      "listens": 5529,
      "Jeff": 5530,
      "scoop": 5531,
      "remote": 5532,
      "requested": 5533,
      "dies": 5534,
      "ining": 5535,
      "dent": 5536,
      "anta": 5537,
      "rolls": 5538,
      "dolphins": 5539,
      "bunch": 5540,
      "photos": 5541,
      "ops": 5542,
      "improved": 5543,
      "cheering": 5544,
      "brand": 5545,
      "reaching": 5546,
      "Santa": 5547,
      "stumble": 5548,
      "robb": 5549,
      "Dizzy": 5550,
      "hunt": 5551,
      "Fine": 5552,
      "workers": 5553,
      "Luke": 5554,
      "filling": 5555,
      "timer": 5556,
      "leaning": 5557,
      "stern": 5558,
      "Jessie": 5559,
      "adult": 5560,
      "eath": 5561,
      "replaced": 5562,
      "neither": 5563,
      "tum": 5564,
      "confli": 5565,
      "misses": 5566,
      "twirl": 5567,
      "curtains": 5568,
      "passing": 5569,
      "rainbows": 5570,
      "uctantly": 5571,
      "irm": 5572,
      "beneath": 5573,
      "complaining": 5574,
      "puppet": 5575,
      "conflict": 5576,
      "pajamas": 5577,
      "patted": 5578,
      "outdoors": 5579,
      "sweat": 5580,
      "refuse": 5581,
      "Juli": 5582,
      "closes": 5583,
      "Henny": 5584,
      "Trust": 5585,
      "drums": 5586,
      "Nothing": 5587,
      "hoo": 5588,
      "balanced": 5589,
      "angled": 5590,
      "introduc": 5591,
      "quacked": 5592,
      "rescued": 5593,
      "athy": 5594,
      "awesome": 5595,
      "Fire": 5596,
      "neath": 5597,
      "rip": 5598,
      "guys": 5599,
      "Days": 5600,
      "ker": 5601,
      "effort": 5602,
      "observed": 5603,
      "trig": 5604,
      "rule": 5605,
      "cautious": 5606,
      "exactly": 5607,
      "Oops": 5608,
      "becoming": 5609,
      "pastries": 5610,
      "Rover": 5611,
      "policeman": 5612,
      "Linda": 5613,
      "doctors": 5614,
      "rockets": 5615,
      "Milo": 5616,
      "mies": 5617,
      "insist": 5618,
      "blooming": 5619,
      "fairies": 5620,
      "Whistle": 5621,
      "Vroom": 5622,
      "tractor": 5623,
      "farther": 5624,
      "Gina": 5625,
      "teamwork": 5626,
      "nect": 5627,
      "zie": 5628,
      "Jenna": 5629,
      "included": 5630,
      "remembering": 5631,
      "curly": 5632,
      "Jacob": 5633,
      "fascinated": 5634,
      "Sha": 5635,
      "helpers": 5636,
      "truly": 5637,
      "sights": 5638,
      "slam": 5639,
      "Only": 5640,
      "firm": 5641,
      "wobbled": 5642,
      "onge": 5643,
      "recording": 5644,
      "paddle": 5645,
      "caused": 5646,
      "prayer": 5647,
      "Rain": 5648,
      "Jon": 5649,
      "loading": 5650,
      "cost": 5651,
      "traded": 5652,
      "starfish": 5653,
      "thro": 5654,
      "...\"": 5655,
      "inviting": 5656,
      "neighbourhood": 5657,
      "pointy": 5658,
      "Ske": 5659,
      "throat": 5660,
      "Skelly": 5661,
      "usually": 5662,
      "sponge": 5663,
      "supplies": 5664,
      "situation": 5665,
      "prett": 5666,
      "valued": 5667,
      "everyday": 5668,
      "adding": 5669,
      "dots": 5670,
      "bare": 5671,
      "steady": 5672,
      "bows": 5673,
      "reluctantly": 5674,
      "ornaments": 5675,
      "minerals": 5676,
      "prettier": 5677,
      "ledge": 5678,
      "seas": 5679,
      "shaped": 5680,
      "stays": 5681,
      "Betsy": 5682,
      "tables": 5683,
      "Dara": 5684,
      "desert": 5685,
      "anger": 5686,
      "snowmen": 5687,
      "faraway": 5688,
      "Dee": 5689,
      "Whee": 5690,
      "thorn": 5691,
      "Lion": 5692,
      "strum": 5693,
      "solut": 5694,
      "swooped": 5695,
      "forks": 5696,
      "Twink": 5697,
      "pans": 5698,
      "badge": 5699,
      "colored": 5700,
      "winked": 5701,
      "Suzie": 5702,
      "sneezing": 5703,
      "Ash": 5704,
      "confident": 5705,
      "insects": 5706,
      "sobbed": 5707,
      "growling": 5708,
      "noses": 5709,
      "Dodo": 5710,
      "itchy": 5711,
      "homework": 5712,
      "scarves": 5713,
      "windy": 5714,
      "superheroes": 5715,
      "smarter": 5716,
      "ora": 5717,
      "yourselves": 5718,
      "ido": 5719,
      "Ziggy": 5720,
      "Nana": 5721,
      "Paws": 5722,
      "lett": 5723,
      "kicks": 5724,
      "librarian": 5725,
      "Bang": 5726,
      "Mart": 5727,
      "?\",": 5728,
      "gems": 5729,
      "jackets": 5730,
      "underneath": 5731,
      "Wink": 5732,
      "master": 5733,
      "knowledge": 5734,
      "untie": 5735,
      "Snap": 5736,
      "ropes": 5737,
      "Yeah": 5738,
      "Gu": 5739,
      "princesses": 5740,
      "vin": 5741,
      "Fido": 5742,
      "warnings": 5743,
      "cot": 5744,
      "giggling": 5745,
      "reads": 5746,
      "squares": 5747,
      "Skip": 5748,
      "rusty": 5749,
      "zzed": 5750,
      "orted": 5751,
      "swallow": 5752,
      "biting": 5753,
      "Sadly": 5754,
      "Yesterday": 5755,
      "deal": 5756,
      "Ew": 5757,
      "aut": 5758,
      "seag": 5759,
      "clowns": 5760,
      "younger": 5761,
      "seagull": 5762,
      "delivered": 5763,
      "Fe": 5764,
      "wears": 5765,
      "Pu": 5766,
      "nine": 5767,
      "Twinkle": 5768,
      "pite": 5769,
      "complained": 5770,
      "buzzed": 5771,
      "rance": 5772,
      "Shh": 5773,
      "Jessica": 5774,
      "Buggy": 5775,
      "paddled": 5776,
      "onions": 5777,
      "bumpy": 5778,
      "piggy": 5779,
      "dived": 5780,
      "direction": 5781,
      "startled": 5782,
      "Jones": 5783,
      "froze": 5784,
      "surface": 5785,
      "Cara": 5786,
      "Cindy": 5787,
      "tangled": 5788,
      "Cathy": 5789,
      "Ba": 5790,
      "vowed": 5791,
      "covers": 5792,
      "napkins": 5793,
      "tickled": 5794,
      "iv": 5795,
      "squeal": 5796,
      "itches": 5797,
      "cous": 5798,
      "ripe": 5799,
      "Near": 5800,
      "yells": 5801,
      "swims": 5802,
      "satisfied": 5803,
      "knocks": 5804,
      "Mine": 5805,
      "fits": 5806,
      "freshed": 5807,
      "wow": 5808,
      "refreshed": 5809,
      "Tara": 5810,
      "?'": 5811,
      "signed": 5812,
      "marked": 5813,
      "arrows": 5814,
      "Kayla": 5815,
      "speaking": 5816,
      "lettuce": 5817,
      "wipes": 5818,
      "choices": 5819,
      "Mat": 5820,
      "praying": 5821,
      "Sof": 5822,
      "ented": 5823,
      "seeker": 5824,
      "guessing": 5825,
      "fab": 5826,
      "hides": 5827,
      "creating": 5828,
      "introduced": 5829,
      "slower": 5830,
      "Nice": 5831,
      "singer": 5832,
      "behaving": 5833,
      "Oliver": 5834,
      "joked": 5835,
      "explorers": 5836,
      "provided": 5837,
      "Julia": 5838,
      "refle": 5839,
      "toaster": 5840,
      "uggles": 5841,
      "Excuse": 5842,
      "discovering": 5843,
      "rainy": 5844,
      "bars": 5845,
      "paying": 5846,
      "written": 5847,
      "Fu": 5848,
      "mushrooms": 5849,
      "magnets": 5850,
      "knees": 5851,
      "Mic": 5852,
      "hider": 5853,
      "wandering": 5854,
      "images": 5855,
      "Rolly": 5856,
      "ese": 5857,
      "ences": 5858,
      "barely": 5859,
      "Grumpy": 5860,
      "avoid": 5861,
      "restored": 5862,
      "leading": 5863,
      "stung": 5864,
      "sequ": 5865,
      "Snuggles": 5866,
      "Copper": 5867,
      "Mikey": 5868,
      "Matt": 5869,
      "chuck": 5870,
      "ranger": 5871,
      "bravery": 5872,
      "competition": 5873,
      "properly": 5874,
      "Laser": 5875,
      "wishing": 5876,
      "ventured": 5877,
      "however": 5878,
      "deserve": 5879,
      "gears": 5880,
      "salty": 5881,
      "blocking": 5882,
      "dances": 5883,
      "matters": 5884,
      "vines": 5885,
      "darkness": 5886,
      "stem": 5887,
      "chefs": 5888,
      "consequ": 5889,
      "cobwebs": 5890,
      "ruining": 5891,
      "scur": 5892,
      "fabric": 5893,
      "avocados": 5894,
      "basement": 5895,
      "hum": 5896,
      "entire": 5897,
      "least": 5898,
      "lower": 5899,
      "performed": 5900,
      "Jay": 5901,
      "scratches": 5902,
      "Bark": 5903,
      "Pup": 5904,
      "losing": 5905,
      "heavier": 5906,
      "bbie": 5907,
      "amb": 5908,
      "Without": 5909,
      "mints": 5910,
      "twirling": 5911,
      "wraps": 5912,
      "scurried": 5913,
      "haust": 5914,
      "suits": 5915,
      "rever": 5916,
      "swords": 5917,
      "fact": 5918,
      "sunflowers": 5919,
      "flake": 5920,
      "snat": 5921,
      "flames": 5922,
      "necklaces": 5923,
      "si": 5924,
      "solution": 5925,
      "rotting": 5926,
      "relief": 5927,
      "tricky": 5928,
      "silent": 5929,
      "jobs": 5930,
      "sewed": 5931,
      "Bloom": 5932,
      "Peanut": 5933,
      "burst": 5934,
      "stain": 5935,
      "lighter": 5936,
      "exhaust": 5937,
      "thud": 5938,
      "consequences": 5939,
      "Larry": 5940,
      "pins": 5941,
      "unpacked": 5942,
      "Sophia": 5943,
      "partic": 5944,
      "accomplish": 5945,
      "races": 5946,
      "bumps": 5947,
      "Fro": 5948,
      "noy": 5949,
      "tires": 5950,
      "rious": 5951,
      "purr": 5952,
      "decorating": 5953,
      "Doctor": 5954,
      "backed": 5955,
      "click": 5956,
      "dentist": 5957,
      "Up": 5958,
      "ene": 5959,
      "lifting": 5960,
      "annoy": 5961,
      "iar": 5962,
      "isies": 5963,
      "crackers": 5964,
      "ouch": 5965,
      "needles": 5966,
      "Lizz": 5967,
      "cautiously": 5968,
      "growls": 5969,
      "ties": 5970,
      "hesitated": 5971,
      "Woo": 5972,
      "familiar": 5973,
      "bodies": 5974,
      "daisies": 5975,
      "triangles": 5976,
      "Lizzie": 5977,
      "rains": 5978,
      "Sim": 5979,
      "grabbing": 5980,
      "mater": 5981,
      "buying": 5982,
      "figured": 5983,
      "grows": 5984,
      "sweets": 5985,
      "stomped": 5986,
      "material": 5987,
      "bly": 5988,
      "cheeks": 5989,
      "bakery": 5990,
      "interested": 5991,
      "June": 5992,
      "groups": 5993,
      "Ant": 5994,
      "swans": 5995,
      "Ele": 5996,
      "suffering": 5997,
      "lungs": 5998,
      "owners": 5999,
      "repa": 6000,
      "ded": 6001,
      "freed": 6002,
      "chuckled": 6003,
      "ters": 6004,
      "source": 6005,
      "swept": 6006,
      "twinkling": 6007,
      "exhausted": 6008,
      "Frosty": 6009,
      "darling": 6010,
      "worries": 6011,
      "tapped": 6012,
      "feast": 6013,
      "tunnels": 6014,
      "Very": 6015,
      "repaired": 6016,
      "yan": 6017,
      "activities": 6018,
      "nectar": 6019,
      "indro": 6020,
      "Mel": 6021,
      "reason": 6022,
      "plent": 6023,
      "Moon": 6024,
      "mailed": 6025,
      "changing": 6026,
      "Pam": 6027,
      "kings": 6028,
      "Que": 6029,
      "dip": 6030,
      "entrance": 6031,
      "completely": 6032,
      "pecked": 6033,
      "sense": 6034,
      "fuzzy": 6035,
      "cuddly": 6036,
      "nests": 6037,
      "particular": 6038,
      "raindro": 6039,
      "meals": 6040,
      "stool": 6041,
      "waiter": 6042,
      "plenty": 6043,
      "forehead": 6044,
      "Rollie": 6045,
      "Birthday": 6046,
      "peeking": 6047,
      "Nick": 6048,
      "rist": 6049,
      "Bigg": 6050,
      "slammed": 6051,
      "ks": 6052,
      "players": 6053,
      "Stell": 6054,
      "printing": 6055,
      "month": 6056,
      "Stella": 6057,
      "handful": 6058,
      "forgets": 6059,
      "feeding": 6060,
      "gle": 6061,
      "rum": 6062,
      "budge": 6063,
      "scra": 6064,
      "Chris": 6065,
      "passports": 6066,
      "Other": 6067,
      "Cu": 6068,
      "lon": 6069,
      "Queen": 6070,
      "genie": 6071,
      "impossible": 6072,
      "talks": 6073,
      "baths": 6074,
      "determination": 6075,
      "films": 6076,
      "spikes": 6077,
      "designed": 6078,
      "wobble": 6079,
      "opp": 6080,
      "counts": 6081,
      "squish": 6082,
      "buses": 6083,
      "spreading": 6084,
      "honked": 6085,
      "blings": 6086,
      "chop": 6087,
      "steer": 6088,
      "stolen": 6089,
      "Christ": 6090,
      "wiping": 6091,
      "separated": 6092,
      "Hurry": 6093,
      "Magic": 6094,
      "Sleep": 6095,
      "lamb": 6096,
      "ranny": 6097,
      "fires": 6098,
      "siblings": 6099,
      "Biggie": 6100,
      "behavi": 6101,
      "irl": 6102,
      "ply": 6103,
      "Eleph": 6104,
      "hops": 6105,
      "thest": 6106,
      "Abbie": 6107,
      "fever": 6108,
      "sewing": 6109,
      "Missy": 6110,
      "Robert": 6111,
      "iss": 6112,
      "liqu": 6113,
      "celebration": 6114,
      "pose": 6115,
      "Lau": 6116,
      "twinkle": 6117,
      "Robo": 6118,
      "toed": 6119,
      "backward": 6120,
      "Robbie": 6121,
      "camping": 6122,
      "Maya": 6123,
      "Izzy": 6124,
      "Rock": 6125,
      "bi": 6126,
      "snatched": 6127,
      "serving": 6128,
      "Stre": 6129,
      "creams": 6130,
      "squealed": 6131,
      "shrinking": 6132,
      "cash": 6133,
      "moo": 6134,
      "celebrating": 6135,
      "twice": 6136,
      "sway": 6137,
      "hog": 6138,
      "dollhouse": 6139,
      "Lia": 6140,
      "hus": 6141,
      "immer": 6142,
      "kittens": 6143,
      "plain": 6144,
      "shops": 6145,
      "touches": 6146,
      "Honey": 6147,
      "spat": 6148,
      "mate": 6149,
      "Stretch": 6150,
      "Toot": 6151,
      "pancakes": 6152,
      "paths": 6153,
      "students": 6154,
      "dropping": 6155,
      "twisting": 6156,
      "calmed": 6157,
      "tram": 6158,
      "ul": 6159,
      "untied": 6160,
      "wrapping": 6161,
      "stroked": 6162,
      "cers": 6163,
      "peck": 6164,
      "liquid": 6165,
      "rotten": 6166,
      "iles": 6167,
      "somebody": 6168,
      "Laura": 6169,
      "Which": 6170,
      "seaweed": 6171,
      "Sparky": 6172,
      "ingo": 6173,
      "Fuzzy": 6174,
      "cent": 6175,
      "astron": 6176,
      "playhouse": 6177,
      "screws": 6178,
      "Farm": 6179,
      "haw": 6180,
      "loops": 6181,
      "bracelets": 6182,
      "wakes": 6183,
      "itched": 6184,
      "igning": 6185,
      "shoo": 6186,
      "puppies": 6187,
      "astronaut": 6188,
      "thrown": 6189,
      "planning": 6190,
      "Rudy": 6191,
      "Elephant": 6192,
      "aimed": 6193,
      "ends": 6194,
      "skunk": 6195,
      "bras": 6196,
      "firefly": 6197,
      "dancers": 6198,
      "rewarded": 6199,
      "chie": 6200,
      "belts": 6201,
      "sparks": 6202,
      "poster": 6203,
      "pennies": 6204,
      "lifts": 6205,
      "beginning": 6206,
      "Christmas": 6207,
      "sale": 6208,
      "husband": 6209,
      "Isn": 6210,
      "trampol": 6211,
      "reflection": 6212,
      "objects": 6213,
      "directions": 6214,
      "lia": 6215,
      "endy": 6216,
      "Karen": 6217,
      "increased": 6218,
      "tempt": 6219,
      "rising": 6220,
      "Ryan": 6221,
      "clues": 6222,
      "scor": 6223,
      "leads": 6224,
      "cousin": 6225,
      "ading": 6226,
      "blocked": 6227,
      "trampoline": 6228,
      "gar": 6229,
      "forgetting": 6230,
      "Open": 6231,
      "bits": 6232,
      "angle": 6233,
      "trigued": 6234,
      "pouted": 6235,
      "Martha": 6236,
      "itor": 6237,
      "storekeeper": 6238,
      "borrowed": 6239,
      "mesmer": 6240,
      "hedgehog": 6241,
      "countryside": 6242,
      "instrum": 6243,
      "dama": 6244,
      "lings": 6245,
      "damage": 6246,
      "Along": 6247,
      "frowning": 6248,
      "beyond": 6249,
      "zebras": 6250,
      "snowflake": 6251,
      "vehicles": 6252,
      "presses": 6253,
      "whispers": 6254,
      "ivity": 6255,
      "ount": 6256,
      "forts": 6257,
      "marker": 6258,
      "Mabel": 6259,
      "maker": 6260,
      "Emmy": 6261,
      "flapping": 6262,
      "cert": 6263,
      "Does": 6264,
      "warmer": 6265,
      "ammy": 6266,
      "regretted": 6267,
      "slips": 6268,
      "Snowman": 6269,
      "glued": 6270,
      "tiptoed": 6271,
      "Farmer": 6272,
      "Granny": 6273,
      "everybody": 6274,
      "bells": 6275,
      "yelp": 6276,
      "cushions": 6277,
      "colder": 6278,
      "creations": 6279,
      "smelling": 6280,
      "Show": 6281,
      "hearing": 6282,
      "earn": 6283,
      "iam": 6284,
      "tying": 6285,
      "fins": 6286,
      "Crab": 6287,
      "airy": 6288,
      "streets": 6289,
      "Tia": 6290,
      "farthest": 6291,
      "Univer": 6292,
      "spins": 6293,
      "iti": 6294,
      "Beaky": 6295,
      "strongest": 6296,
      "Ribb": 6297,
      "creativity": 6298,
      "Ron": 6299,
      "talent": 6300,
      "ortun": 6301,
      "Ne": 6302,
      "Make": 6303,
      "sank": 6304,
      "lending": 6305,
      "os": 6306,
      "Ribbit": 6307,
      "Spir": 6308,
      "including": 6309,
      "Too": 6310,
      "puff": 6311,
      "dollars": 6312,
      "cashier": 6313,
      "Never": 6314,
      "stopping": 6315,
      "health": 6316,
      "Ana": 6317,
      "spells": 6318,
      "wobbly": 6319,
      "sniffs": 6320,
      "Say": 6321,
      "trembled": 6322,
      "guests": 6323,
      "Spirit": 6324,
      "hael": 6325,
      "pon": 6326,
      "single": 6327,
      "indeed": 6328,
      "raincoat": 6329,
      "bbled": 6330,
      "Win": 6331,
      "recommended": 6332,
      "Afterwards": 6333,
      "surprising": 6334,
      "accomplishment": 6335,
      "Simon": 6336,
      "stands": 6337,
      "hopeful": 6338,
      "tweet": 6339,
      "pered": 6340,
      "supported": 6341,
      "suffered": 6342,
      "gross": 6343,
      "seasons": 6344,
      "drivers": 6345,
      "vanilla": 6346,
      "Barky": 6347,
      "forgiving": 6348,
      "slowed": 6349,
      "Titi": 6350,
      "plans": 6351,
      "Michael": 6352,
      "Holly": 6353,
      "mance": 6354,
      "suitcase": 6355,
      "artist": 6356,
      "performance": 6357,
      "raindrops": 6358,
      "flavors": 6359,
      "turtles": 6360,
      "labels": 6361,
      "racco": 6362,
      "coloured": 6363,
      "ware": 6364,
      "delivery": 6365,
      "Bones": 6366,
      "Nobody": 6367,
      "pops": 6368,
      "pours": 6369,
      "ility": 6370,
      "willing": 6371,
      "Patch": 6372,
      "guy": 6373,
      "Janie": 6374,
      "Kit": 6375,
      "hadow": 6376,
      "Guess": 6377,
      "drawn": 6378,
      "Hor": 6379,
      "geese": 6380,
      "corners": 6381,
      "Mad": 6382,
      "Turt": 6383,
      "recipe": 6384,
      "hallway": 6385,
      "charac": 6386,
      "wept": 6387,
      "surfboard": 6388,
      "widened": 6389,
      "Zee": 6390,
      "queens": 6391,
      "squeak": 6392,
      "itude": 6393,
      "watering": 6394,
      "sailboat": 6395,
      "imagining": 6396,
      "grip": 6397,
      "Mother": 6398,
      "raging": 6399,
      "robber": 6400,
      "nif": 6401,
      "seconds": 6402,
      "preparing": 6403,
      "sending": 6404,
      "minded": 6405,
      "talented": 6406,
      "grocer": 6407,
      "Cow": 6408,
      "aside": 6409,
      "softer": 6410,
      "Share": 6411,
      "tipped": 6412,
      "outfit": 6413,
      "unsure": 6414,
      "delivering": 6415,
      "sailors": 6416,
      "Baa": 6417,
      "notes": 6418,
      "treehouse": 6419,
      "knots": 6420,
      "inst": 6421,
      "horiz": 6422,
      "echo": 6423,
      "Find": 6424,
      "Poor": 6425,
      "igers": 6426,
      "zipping": 6427,
      "pleasure": 6428,
      "figures": 6429,
      "blinking": 6430,
      "horizon": 6431,
      "angels": 6432,
      "Momma": 6433,
      "achieved": 6434,
      "Ar": 6435,
      "rumble": 6436,
      "lle": 6437,
      "curiously": 6438,
      "visitor": 6439,
      "acle": 6440,
      "hotter": 6441,
      "pupils": 6442,
      "Ral": 6443,
      "backwards": 6444,
      "burrow": 6445,
      "Since": 6446,
      "pigeons": 6447,
      "prove": 6448,
      "bandages": 6449,
      "symbols": 6450,
      "tummies": 6451,
      "Ralph": 6452,
      "ives": 6453,
      "Fight": 6454,
      "hour": 6455,
      "Toys": 6456,
      "robots": 6457,
      "tossed": 6458,
      "Zoey": 6459,
      "raccoon": 6460,
      "rather": 6461,
      "roars": 6462,
      "atur": 6463,
      "Wake": 6464,
      "Se": 6465,
      "Excited": 6466,
      "blown": 6467,
      "merma": 6468,
      "groceries": 6469,
      "Wise": 6470,
      "Marie": 6471,
      "among": 6472,
      "Jackie": 6473,
      "Lenny": 6474,
      "date": 6475,
      "nu": 6476,
      "afterwards": 6477,
      "Wendy": 6478,
      "Abi": 6479,
      "Wor": 6480,
      "shovels": 6481,
      "merry": 6482,
      "overcome": 6483,
      "ments": 6484,
      "sped": 6485,
      "glee": 6486,
      "firefighters": 6487,
      "Rich": 6488,
      "issue": 6489,
      "Any": 6490,
      "heading": 6491,
      "reversed": 6492,
      "Des": 6493,
      "Davey": 6494,
      "slices": 6495,
      "swallowed": 6496,
      "flipped": 6497,
      "Fighting": 6498,
      "Am": 6499,
      "Willy": 6500,
      "squeezing": 6501,
      "disturbing": 6502,
      "scored": 6503,
      "Tweetie": 6504,
      "Bro": 6505,
      "Turtle": 6506,
      "Ra": 6507,
      "waking": 6508,
      "ades": 6509,
      "couraging": 6510,
      "item": 6511,
      "center": 6512,
      "intrigued": 6513,
      "Playing": 6514,
      "Ame": 6515,
      "encouraging": 6516,
      "couple": 6517,
      "hawk": 6518,
      "Roo": 6519,
      "dged": 6520,
      "squishy": 6521,
      "Yog": 6522,
      "chosen": 6523,
      "slipping": 6524,
      "University": 6525,
      "iley": 6526,
      "designs": 6527,
      "Shr": 6528,
      "markers": 6529,
      "screwdriver": 6530,
      "Mix": 6531,
      "tigers": 6532,
      "gardener": 6533,
      "Jacky": 6534,
      "secure": 6535,
      "Puppy": 6536,
      "crew": 6537,
      "rivers": 6538,
      "frowns": 6539,
      "respond": 6540,
      "fluttered": 6541,
      "ignoring": 6542,
      "lling": 6543,
      "sharks": 6544,
      "lent": 6545,
      "tighter": 6546,
      "jars": 6547,
      "tissue": 6548,
      "sprinkled": 6549,
      "firefighter": 6550,
      "assur": 6551,
      "ships": 6552,
      "giggles": 6553,
      "creamy": 6554,
      "firmly": 6555,
      "amed": 6556,
      "shown": 6557,
      "audi": 6558,
      "thorns": 6559,
      "ais": 6560,
      "Boys": 6561,
      "lies": 6562,
      "Judy": 6563,
      "performing": 6564,
      "Chewy": 6565,
      "audience": 6566,
      "crossing": 6567,
      "daring": 6568,
      "todd": 6569,
      "drawers": 6570,
      "til": 6571,
      "Todd": 6572,
      "gracefully": 6573,
      "cloudy": 6574,
      "Kip": 6575,
      "addie": 6576,
      "stroke": 6577,
      "yielded": 6578,
      "pedaled": 6579,
      "ilder": 6580,
      "mixture": 6581,
      "sports": 6582,
      "haircuts": 6583,
      "?!\"": 6584,
      "Ali": 6585,
      "Maddie": 6586,
      "respected": 6587,
      "ponies": 6588,
      "Bally": 6589,
      "ias": 6590,
      "ory": 6591,
      "crowns": 6592,
      "Yet": 6593,
      "nervously": 6594,
      "express": 6595,
      "Jojo": 6596,
      "pays": 6597,
      "Dear": 6598,
      "wrink": 6599,
      "hangers": 6600,
      "tested": 6601,
      "ddie": 6602,
      "conne": 6603,
      "obeyed": 6604,
      "avy": 6605,
      "Sparkle": 6606,
      "surfing": 6607,
      "Sadie": 6608,
      "Mina": 6609,
      "drif": 6610,
      "Outside": 6611,
      "beehive": 6612,
      "sails": 6613,
      "Alright": 6614,
      "shady": 6615,
      "Man": 6616,
      "wisely": 6617,
      "bathing": 6618,
      "melons": 6619,
      "enthusias": 6620,
      "enthusiasm": 6621,
      "sever": 6622,
      "stitches": 6623,
      "magician": 6624,
      "Although": 6625,
      "neighbours": 6626,
      "rays": 6627,
      "darlings": 6628,
      "flip": 6629,
      "reminds": 6630,
      "surroundings": 6631,
      "rup": 6632,
      "foc": 6633,
      "temper": 6634,
      "thoughts": 6635,
      "iona": 6636,
      "fleas": 6637,
      "spits": 6638,
      "scooters": 6639,
      "paintbrush": 6640,
      "Samant": 6641,
      "Samantha": 6642,
      "fills": 6643,
      "lever": 6644,
      "ongrat": 6645,
      "Ange": 6646,
      "teams": 6647,
      "Fiona": 6648,
      "eted": 6649,
      "ev": 6650,
      "lessons": 6651,
      "sill": 6652,
      "Mixy": 6653,
      "cleaner": 6654,
      "lves": 6655,
      "amount": 6656,
      "10": 6657,
      "explo": 6658,
      "panicked": 6659,
      "mermaid": 6660,
      "forgiven": 6661,
      "ann": 6662,
      "longest": 6663,
      "Start": 6664,
      "oysters": 6665,
      "beloved": 6666,
      "Everybody": 6667,
      "hoops": 6668,
      "tock": 6669,
      "asing": 6670,
      "Mint": 6671,
      "solving": 6672,
      "fus": 6673,
      "rushing": 6674,
      "elf": 6675,
      "tasting": 6676,
      "certain": 6677,
      "immering": 6678,
      "oni": 6679,
      "magazines": 6680,
      "repeating": 6681,
      "ita": 6682,
      "Herb": 6683,
      "discussed": 6684,
      "licking": 6685,
      "Eddie": 6686,
      "sweetest": 6687,
      "wadd": 6688,
      "tubes": 6689,
      "sprang": 6690,
      "nightmares": 6691,
      "spoonful": 6692,
      "kill": 6693,
      "Yoga": 6694,
      "guide": 6695,
      "sweep": 6696,
      "understands": 6697,
      "Chess": 6698,
      "manners": 6699,
      "pad": 6700,
      "bully": 6701,
      "nood": 6702,
      "breathed": 6703,
      "nur": 6704,
      "compe": 6705,
      "sheets": 6706,
      "Amelia": 6707,
      "neare": 6708,
      "Pop": 6709,
      "onna": 6710,
      "footsteps": 6711,
      "Choo": 6712,
      "deed": 6713,
      "Back": 6714,
      "tered": 6715,
      "bulbs": 6716,
      "grassy": 6717,
      "Meg": 6718,
      "wiggly": 6719,
      "testing": 6720,
      "speeding": 6721,
      "Fairy": 6722,
      "Unt": 6723,
      "spies": 6724,
      "weekend": 6725,
      "imb": 6726,
      "More": 6727,
      "lan": 6728,
      "ilda": 6729,
      "Micro": 6730,
      "polar": 6731,
      "Until": 6732,
      "leap": 6733,
      "joining": 6734,
      "ounced": 6735,
      "focused": 6736,
      "Smo": 6737,
      "Bess": 6738,
      "braver": 6739,
      "mesmerized": 6740,
      "hesitant": 6741,
      "Ruff": 6742,
      "perate": 6743,
      "Deal": 6744,
      "awn": 6745,
      "cutter": 6746,
      "evil": 6747,
      "Raz": 6748,
      "scattering": 6749,
      "changes": 6750,
      "Despite": 6751,
      "worn": 6752,
      "greeted": 6753,
      "camel": 6754,
      "materials": 6755,
      "nuzz": 6756,
      "peacefully": 6757,
      "Mean": 6758,
      "cept": 6759,
      "spice": 6760,
      "dred": 6761,
      "Goodnight": 6762,
      "Judge": 6763,
      "Gary": 6764,
      "Shadow": 6765,
      "ashed": 6766,
      "gonna": 6767,
      "spills": 6768,
      "ongratul": 6769,
      "politely": 6770,
      "terrified": 6771,
      "bicycles": 6772,
      "healing": 6773,
      "asers": 6774,
      "Ruth": 6775,
      "miles": 6776,
      "knives": 6777,
      "Spin": 6778,
      "cafe": 6779,
      "aeroplanes": 6780,
      "burying": 6781,
      "ppies": 6782,
      "scarecrow": 6783,
      "seals": 6784,
      "sation": 6785,
      "gazing": 6786,
      "Razor": 6787,
      "blast": 6788,
      "worrying": 6789,
      "Ice": 6790,
      "Navy": 6791,
      "amboo": 6792,
      "loses": 6793,
      "stacked": 6794,
      "Eat": 6795,
      "puzzled": 6796,
      "ows": 6797,
      "travelled": 6798,
      "donkey": 6799,
      "dump": 6800,
      "soaking": 6801,
      "baskets": 6802,
      "force": 6803,
      "antic": 6804,
      "dripping": 6805,
      "Hug": 6806,
      "locks": 6807,
      "Arr": 6808,
      "pinching": 6809,
      "tar": 6810,
      "rats": 6811,
      "temperature": 6812,
      "ease": 6813,
      "formed": 6814,
      "clue": 6815,
      "reassur": 6816,
      "ipes": 6817,
      "Another": 6818,
      "Mindy": 6819,
      "recor": 6820,
      "oosh": 6821,
      "believing": 6822,
      "humans": 6823,
      "Should": 6824,
      "Dina": 6825,
      "sisted": 6826,
      "punishment": 6827,
      "'.\"": 6828,
      "Climb": 6829,
      "banged": 6830,
      "swimmer": 6831,
      "Meanwhile": 6832,
      "covering": 6833,
      "Stan": 6834,
      "ipper": 6835,
      "Prince": 6836,
      "sandy": 6837,
      "Sofia": 6838,
      "toddler": 6839,
      "crashing": 6840,
      "Still": 6841,
      "een": 6842,
      "hundred": 6843,
      "orrow": 6844,
      "relaxing": 6845,
      "backpacks": 6846,
      "Eliz": 6847,
      "Eliza": 6848,
      "joins": 6849,
      "beeped": 6850,
      "dressing": 6851,
      "Use": 6852,
      "snowflakes": 6853,
      "resisted": 6854,
      "quarreled": 6855,
      "bage": 6856,
      "rows": 6857,
      "Bri": 6858,
      "correct": 6859,
      "delayed": 6860,
      "Maddy": 6861,
      "potion": 6862,
      "Ria": 6863,
      "arran": 6864,
      "encouragement": 6865,
      "toward": 6866,
      "purpose": 6867,
      "py": 6868,
      "ramp": 6869,
      "twinkled": 6870,
      "cheers": 6871,
      "Jonny": 6872,
      "scraped": 6873,
      "hil": 6874,
      "benches": 6875,
      "languages": 6876,
      "permitted": 6877,
      "months": 6878,
      "Maisy": 6879,
      "wounds": 6880,
      "bamboo": 6881,
      "risks": 6882,
      "freedom": 6883,
      "Eva": 6884,
      "La": 6885,
      "rier": 6886,
      "Shelly": 6887,
      "Blinky": 6888,
      "faded": 6889,
      "poppies": 6890,
      "annoyed": 6891,
      "orders": 6892,
      "adults": 6893,
      "Loop": 6894,
      "sniffing": 6895,
      "noodles": 6896,
      "abby": 6897,
      "nodding": 6898,
      "shmall": 6899,
      "Flick": 6900,
      "Tri": 6901,
      "handsome": 6902,
      "tearing": 6903,
      "cells": 6904,
      "Pick": 6905,
      "flown": 6906,
      "floats": 6907,
      "burnt": 6908,
      "opinions": 6909,
      "pand": 6910,
      "cca": 6911,
      "sou": 6912,
      "Tomorrow": 6913,
      "Bon": 6914,
      "pleaded": 6915,
      "damaged": 6916,
      "drifted": 6917,
      "within": 6918,
      "pea": 6919,
      "ientist": 6920,
      "slither": 6921,
      "Ring": 6922,
      "Megan": 6923,
      "height": 6924,
      "sneezes": 6925,
      "bothering": 6926,
      "Gerry": 6927,
      "Muff": 6928,
      "blu": 6929,
      "instruments": 6930,
      "hiss": 6931,
      "Close": 6932,
      "Ricky": 6933,
      "ition": 6934,
      "treated": 6935,
      "Dani": 6936,
      "lipstick": 6937,
      "Fishy": 6938,
      "Cari": 6939,
      "Frankie": 6940,
      "Nut": 6941,
      "wasting": 6942,
      "birdhouse": 6943,
      "pound": 6944,
      "brushing": 6945,
      "seller": 6946,
      "results": 6947,
      "scientist": 6948,
      "flight": 6949,
      "handing": 6950,
      "destroying": 6951,
      "sweaty": 6952,
      "Zippy": 6953,
      "dreamt": 6954,
      "Pret": 6955,
      "talents": 6956,
      "Play": 6957,
      "behavior": 6958,
      "characters": 6959,
      "explains": 6960,
      "oops": 6961,
      "onward": 6962,
      "ousy": 6963,
      "mischie": 6964,
      "files": 6965,
      "Fly": 6966,
      "Tre": 6967,
      "bravest": 6968,
      "Whoever": 6969,
      "decisions": 6970,
      "Shrink": 6971,
      "Mousy": 6972,
      "snuck": 6973,
      "switched": 6974,
      "apologised": 6975,
      "sternly": 6976,
      "Sc": 6977,
      "tuck": 6978,
      "puck": 6979,
      "squeaked": 6980,
      "reminding": 6981,
      "engines": 6982,
      "swirl": 6983,
      "Boom": 6984,
      "bitten": 6985,
      "postman": 6986,
      "minds": 6987,
      "breathing": 6988,
      "mosquitoes": 6989,
      "builder": 6990,
      "Nurse": 6991,
      "scares": 6992,
      "peeled": 6993,
      "Ca": 6994,
      "Tw": 6995,
      "manag": 6996,
      "grandparents": 6997,
      "quie": 6998,
      "purrs": 6999,
      "Curious": 7000,
      "displayed": 7001,
      "planting": 7002,
      "Katy": 7003,
      "smashed": 7004,
      "singers": 7005,
      "scam": 7006,
      "neatly": 7007,
      "tilted": 7008,
      "shines": 7009,
      "Muffin": 7010,
      "rustling": 7011,
      "shor": 7012,
      "gap": 7013,
      "bellies": 7014,
      "Louise": 7015,
      "via": 7016,
      "yelped": 7017,
      "zooms": 7018,
      "Patty": 7019,
      "combed": 7020,
      "marshmall": 7021,
      "failed": 7022,
      "focus": 7023,
      "coloring": 7024,
      "cracks": 7025,
      "business": 7026,
      "charge": 7027,
      "nasty": 7028,
      "squaw": 7029,
      "Rita": 7030,
      "Sweet": 7031,
      "despite": 7032,
      "Speed": 7033,
      "spapers": 7034,
      "edges": 7035,
      "Nancy": 7036,
      "Min": 7037,
      "wider": 7038,
      "pandas": 7039,
      "plug": 7040,
      "spy": 7041,
      "Kelly": 7042,
      "doorway": 7043,
      "sweaters": 7044,
      "nib": 7045,
      "action": 7046,
      "robbers": 7047,
      "tage": 7048,
      "echoed": 7049,
      "tops": 7050,
      "curl": 7051,
      "gobbled": 7052,
      "taped": 7053,
      "backs": 7054,
      "connected": 7055,
      "flaps": 7056,
      "Er": 7057,
      "bably": 7058,
      "goo": 7059,
      "gras": 7060,
      "scolds": 7061,
      "student": 7062,
      "Jax": 7063,
      "Tell": 7064,
      "cond": 7065,
      "plucked": 7066,
      "probably": 7067,
      "Con": 7068,
      "encounter": 7069,
      "rior": 7070,
      "newspapers": 7071,
      "warrior": 7072,
      "magnif": 7073,
      "shinier": 7074,
      "crawls": 7075,
      "Bubba": 7076,
      "Wooly": 7077,
      "several": 7078,
      "Elle": 7079,
      "assm": 7080,
      "stetho": 7081,
      "whistles": 7082,
      "Sl": 7083,
      "plot": 7084,
      "Butter": 7085,
      "swap": 7086,
      "mood": 7087,
      "cares": 7088,
      "waterfall": 7089,
      "gues": 7090,
      "gesture": 7091,
      "quieter": 7092,
      "Ty": 7093,
      "Taking": 7094,
      "simply": 7095,
      "Kevin": 7096,
      "cottage": 7097,
      "aint": 7098,
      "rescuing": 7099,
      "swo": 7100,
      "swimsuit": 7101,
      "Phil": 7102,
      "bothered": 7103,
      "shorter": 7104,
      "swollen": 7105,
      "doorbell": 7106,
      "snaps": 7107,
      "astronauts": 7108,
      "accidents": 7109,
      "grandson": 7110,
      "trusting": 7111,
      "lor": 7112,
      "phones": 7113,
      "belle": 7114,
      "unpacking": 7115,
      "Right": 7116,
      "prayers": 7117,
      "ssss": 7118,
      "dresser": 7119,
      "stalk": 7120,
      "Elsa": 7121,
      "causing": 7122,
      "ibi": 7123,
      "stethoscope": 7124,
      "elbow": 7125,
      "runner": 7126,
      "joyful": 7127,
      "pills": 7128,
      "throughout": 7129,
      "Sal": 7130,
      "munch": 7131,
      "flips": 7132,
      "Sa": 7133,
      "leapt": 7134,
      "Sir": 7135,
      "beaver": 7136,
      "Zipper": 7137,
      "Vi": 7138,
      "Arrr": 7139,
      "Sis": 7140,
      "lowered": 7141,
      "Daniel": 7142,
      "ided": 7143,
      "goats": 7144,
      "Bumpy": 7145,
      "inches": 7146,
      "Flop": 7147,
      "Ot": 7148,
      "Startled": 7149,
      "waddled": 7150,
      "stepping": 7151,
      "explorer": 7152,
      "teachers": 7153,
      "Vivi": 7154,
      "dears": 7155,
      "envelopes": 7156,
      "knocking": 7157,
      "Grow": 7158,
      "anticip": 7159,
      "Becky": 7160,
      "rowed": 7161,
      "gasp": 7162,
      "cowboy": 7163,
      "efforts": 7164,
      "whim": 7165,
      "uniforms": 7166,
      "Ly": 7167,
      "Biggy": 7168,
      "Bibi": 7169,
      "aware": 7170,
      "grandchild": 7171,
      "ruff": 7172,
      "Jolly": 7173,
      "floors": 7174,
      "footprints": 7175,
      "wenty": 7176,
      "except": 7177,
      "glitt": 7178,
      "Joan": 7179,
      "appreciation": 7180,
      "nearly": 7181,
      "llas": 7182,
      "collap": 7183,
      "sets": 7184,
      "trot": 7185,
      "Pretty": 7186,
      "prick": 7187,
      "Seeing": 7188,
      "necks": 7189,
      "burns": 7190,
      "stamped": 7191,
      "Yawn": 7192,
      "Thunder": 7193,
      "checks": 7194,
      "fluttering": 7195,
      "posit": 7196,
      "statues": 7197,
      ".'\"": 7198,
      "Cro": 7199,
      "whoosh": 7200,
      "umbrellas": 7201,
      "engers": 7202,
      "Softy": 7203,
      "shrank": 7204,
      "sandcastles": 7205,
      "Truck": 7206,
      "finishing": 7207,
      "Care": 7208,
      "Jason": 7209,
      "Chick": 7210,
      "tran": 7211,
      "squir": 7212,
      "dodged": 7213,
      "bounces": 7214,
      "hunters": 7215,
      "weeds": 7216,
      "issa": 7217,
      "adds": 7218,
      "germs": 7219,
      "chocolates": 7220,
      "shall": 7221,
      "Gray": 7222,
      "aisle": 7223,
      "plugged": 7224,
      "aprons": 7225,
      "matey": 7226,
      "iscu": 7227,
      "passengers": 7228,
      "Missile": 7229,
      "demanding": 7230,
      "scratching": 7231,
      "sented": 7232,
      "minding": 7233,
      "Sup": 7234,
      "ashes": 7235,
      "becomes": 7236,
      "presented": 7237,
      "novels": 7238,
      "laptop": 7239,
      "address": 7240,
      "driveway": 7241,
      "meows": 7242,
      "Sw": 7243,
      "refresh": 7244,
      "Roger": 7245,
      "discussing": 7246,
      "nurses": 7247,
      "erase": 7248,
      "Mae": 7249,
      "killed": 7250,
      "cas": 7251,
      "attack": 7252,
      "toolbox": 7253,
      "lope": 7254,
      "vented": 7255,
      "friendships": 7256,
      "Bingo": 7257,
      "Lina": 7258,
      "closing": 7259,
      "twists": 7260,
      "slapping": 7261,
      "Snake": 7262,
      ",'": 7263,
      "sprays": 7264,
      "scampered": 7265,
      "Hmm": 7266,
      "ghosts": 7267,
      "models": 7268,
      "belongings": 7269,
      "springing": 7270,
      "supplied": 7271,
      "Gus": 7272,
      "invites": 7273,
      "anticipation": 7274,
      "ford": 7275,
      "newfound": 7276,
      "suggestion": 7277,
      "cotton": 7278,
      "Vicky": 7279,
      "forgives": 7280,
      "mommies": 7281,
      "massages": 7282,
      "aim": 7283,
      "grandfather": 7284,
      "Hallow": 7285,
      "humming": 7286,
      "Halloween": 7287,
      "Flutter": 7288,
      "stroll": 7289,
      "expecting": 7290,
      "snuggle": 7291,
      "lappy": 7292,
      "buckled": 7293,
      "responded": 7294,
      "Piggy": 7295,
      "cheated": 7296,
      "traveling": 7297,
      "battle": 7298,
      "invitations": 7299,
      "although": 7300,
      "ien": 7301,
      "',": 7302,
      "Jet": 7303,
      "Grand": 7304,
      "omb": 7305,
      "duckling": 7306,
      "Freddie": 7307,
      "refreshing": 7308,
      "carries": 7309,
      "laces": 7310,
      "Zack": 7311,
      "twenty": 7312,
      "tricycle": 7313,
      "Caro": 7314,
      "Wolf": 7315,
      "Dotty": 7316,
      "haird": 7317,
      "Charlot": 7318,
      "Elsie": 7319,
      "Tru": 7320,
      "essa": 7321,
      "final": 7322,
      "clicked": 7323,
      "convin": 7324,
      "ats": 7325,
      "Light": 7326,
      "foxes": 7327,
      "Charlotte": 7328,
      "Terry": 7329,
      "designing": 7330,
      "insp": 7331,
      "marshmallows": 7332,
      "William": 7333,
      "jets": 7334,
      "mugs": 7335,
      "Angel": 7336,
      "Feli": 7337,
      "Pig": 7338,
      "oudest": 7339,
      "strips": 7340,
      "usty": 7341,
      "clip": 7342,
      "Book": 7343,
      "greet": 7344,
      "picnics": 7345,
      "travels": 7346,
      "osite": 7347,
      "Cir": 7348,
      "scoops": 7349,
      "coral": 7350,
      "Quacky": 7351,
      "defe": 7352,
      "consid": 7353,
      "tests": 7354,
      "aliens": 7355,
      "opposite": 7356,
      "Twist": 7357,
      "Eric": 7358,
      "Flappy": 7359,
      "Amanda": 7360,
      "questioned": 7361,
      "Brrr": 7362,
      "Tweety": 7363,
      "Nutty": 7364,
      "pant": 7365,
      "fights": 7366,
      "groan": 7367,
      "encountered": 7368,
      "Bun": 7369,
      "rout": 7370,
      "rely": 7371,
      "defin": 7372,
      "bless": 7373,
      "Monkey": 7374,
      "raising": 7375,
      "afford": 7376,
      "odd": 7377,
      "custo": 7378,
      "winners": 7379,
      "realizes": 7380,
      "freezing": 7381,
      "Satur": 7382,
      "upside": 7383,
      "calmly": 7384,
      "byes": 7385,
      "cupcakes": 7386,
      "flashed": 7387,
      "inter": 7388,
      "cock": 7389,
      "conver": 7390,
      "yawning": 7391,
      "buddy": 7392,
      "serv": 7393,
      "Freeze": 7394,
      "Step": 7395,
      "packages": 7396,
      "coach": 7397,
      "messes": 7398,
      "goodbyes": 7399,
      "itely": 7400,
      "cheat": 7401,
      "Per": 7402,
      "ening": 7403,
      "Brian": 7404,
      "sacks": 7405,
      "weapons": 7406,
      "Swim": 7407,
      "chea": 7408,
      "crystals": 7409,
      "App": 7410,
      "Match": 7411,
      "Te": 7412,
      "Andre": 7413,
      "enem": 7414,
      "returning": 7415,
      "admiration": 7416,
      "enemies": 7417,
      "ching": 7418,
      "parted": 7419,
      "yumm": 7420,
      "born": 7421,
      "cosy": 7422,
      "stomp": 7423,
      "yummiest": 7424,
      "unable": 7425,
      "brightest": 7426,
      "sadder": 7427,
      "craft": 7428,
      "prevented": 7429,
      "respon": 7430,
      "Life": 7431,
      "Janey": 7432,
      "response": 7433,
      "Pur": 7434,
      "Yell": 7435,
      "sess": 7436,
      "dragonfly": 7437,
      "ream": 7438,
      "ugging": 7439,
      "journeys": 7440,
      "Cook": 7441,
      "Sil": 7442,
      "Jean": 7443,
      "garbage": 7444,
      "tment": 7445,
      "diamonds": 7446,
      "Auntie": 7447,
      "Saturday": 7448,
      "pout": 7449,
      "Joke": 7450,
      "Floppy": 7451,
      "astic": 7452,
      "whispering": 7453,
      "honking": 7454,
      "spices": 7455,
      "stall": 7456,
      "whoever": 7457,
      "bride": 7458,
      "stretches": 7459,
      "stuffing": 7460,
      "visitors": 7461,
      "Moppy": 7462,
      "Rebe": 7463,
      "awful": 7464,
      "automobiles": 7465,
      "weighs": 7466,
      "Amber": 7467,
      "Cic": 7468,
      "customer": 7469,
      "Cici": 7470,
      "sincere": 7471,
      "opportun": 7472,
      "definitely": 7473,
      "caps": 7474,
      "traps": 7475,
      "honesty": 7476,
      "Math": 7477,
      "awoke": 7478,
      "Gra": 7479,
      "Tippy": 7480,
      "bomb": 7481,
      "Jumpy": 7482,
      "playdate": 7483,
      "examining": 7484,
      "Pine": 7485,
      "washes": 7486,
      "reassured": 7487,
      "Tammy": 7488,
      "erk": 7489,
      "argum": 7490,
      "grily": 7491,
      "wiser": 7492,
      "beetles": 7493,
      "travelling": 7494,
      "weal": 7495,
      "grum": 7496,
      "poses": 7497,
      "tumbled": 7498,
      "bou": 7499,
      "loudest": 7500,
      "emma": 7501,
      "occas": 7502,
      "Hopper": 7503,
      "bouque": 7504,
      "Prom": 7505,
      "inspired": 7506,
      "scrub": 7507,
      "Sasha": 7508,
      "ya": 7509,
      "beanstalk": 7510,
      "offering": 7511,
      "correctly": 7512,
      "Gabby": 7513,
      "welcoming": 7514,
      "Grac": 7515,
      "congratul": 7516,
      "declar": 7517,
      "owns": 7518,
      "type": 7519,
      "Birds": 7520,
      "decoration": 7521,
      "hairdress": 7522,
      "Rebecca": 7523,
      "Jelly": 7524,
      "flowing": 7525,
      "active": 7526,
      "increasing": 7527,
      "whales": 7528,
      "Over": 7529,
      "Super": 7530,
      "Rat": 7531,
      "wrigg": 7532,
      "Olivia": 7533,
      "Gracie": 7534,
      "Jas": 7535,
      "Helping": 7536,
      "Rufus": 7537,
      "recorder": 7538,
      "Cloud": 7539,
      "Im": 7540,
      "cleared": 7541,
      "Ashley": 7542,
      "nuzzled": 7543,
      "athan": 7544,
      "campfire": 7545,
      "declared": 7546,
      "Tyler": 7547,
      "beaks": 7548,
      "thump": 7549,
      "custom": 7550,
      "rewards": 7551,
      "warmly": 7552,
      "cowboys": 7553,
      "Animal": 7554,
      "comforting": 7555,
      "experien": 7556,
      "ots": 7557,
      "dollar": 7558,
      "prizes": 7559,
      "surrend": 7560,
      "sirens": 7561,
      "insisting": 7562,
      "Danger": 7563,
      "customers": 7564,
      "loss": 7565,
      "spoiling": 7566,
      "bends": 7567,
      "Promise": 7568,
      "nch": 7569,
      "troubles": 7570,
      "fantastic": 7571,
      "shares": 7572,
      "supporting": 7573,
      "wrinkled": 7574,
      "moons": 7575,
      "brake": 7576,
      "storms": 7577,
      "trigger": 7578,
      "pipes": 7579,
      "scent": 7580,
      "shorts": 7581,
      "beaming": 7582,
      "surrendered": 7583,
      "scurry": 7584,
      "iri": 7585,
      "cleans": 7586,
      "hairdresser": 7587,
      "thanking": 7588,
      "cular": 7589,
      "chopped": 7590,
      "Isa": 7591,
      "enjoyable": 7592,
      "environ": 7593,
      "streamers": 7594,
      "arranged": 7595,
      "snowy": 7596,
      "wee": 7597,
      "ana": 7598,
      "ooking": 7599,
      "classm": 7600,
      "bruises": 7601,
      "Nora": 7602,
      "environment": 7603,
      "Tiger": 7604,
      "Flora": 7605,
      "shooed": 7606,
      "grat": 7607,
      "example": 7608,
      "tin": 7609,
      "hisses": 7610,
      "exercises": 7611,
      "nibb": 7612,
      "nights": 7613,
      "visits": 7614,
      "steering": 7615,
      "dangers": 7616,
      "Wil": 7617,
      "cuddles": 7618,
      "coug": 7619,
      "convinced": 7620,
      "Ky": 7621,
      "uster": 7622,
      "pilots": 7623,
      "Bert": 7624,
      "signing": 7625,
      "squished": 7626,
      "distra": 7627,
      "nearest": 7628,
      "gratitude": 7629,
      "Turn": 7630,
      "peep": 7631,
      "sunscreen": 7632,
      "ooky": 7633,
      "applauding": 7634,
      "Com": 7635,
      "providing": 7636,
      "earned": 7637,
      "Captain": 7638,
      "Barry": 7639,
      "anny": 7640,
      "unfortunately": 7641,
      "rails": 7642,
      "activity": 7643,
      "wealth": 7644,
      "Cally": 7645,
      "choosing": 7646,
      "lody": 7647,
      "tapping": 7648,
      "Old": 7649,
      "Tessa": 7650,
      "tickles": 7651,
      "Spicy": 7652,
      "munk": 7653,
      "scram": 7654,
      "coughed": 7655,
      "Pene": 7656,
      "cope": 7657,
      "responsib": 7658,
      "hoy": 7659,
      "annoying": 7660,
      "ilities": 7661,
      "ative": 7662,
      "badger": 7663,
      "weighing": 7664,
      "brains": 7665,
      "Berry": 7666,
      "Gilly": 7667,
      "Set": 7668,
      "Boat": 7669,
      "rewarding": 7670,
      "exploded": 7671,
      "bond": 7672,
      "Helen": 7673,
      "Catch": 7674,
      "laws": 7675,
      "tempted": 7676,
      "youngest": 7677,
      "Microscope": 7678,
      "Waff": 7679,
      "Peace": 7680,
      "Gold": 7681,
      "baa": 7682,
      "soapy": 7683,
      "heartbroken": 7684,
      "appreciated": 7685,
      "emerged": 7686,
      "Penelope": 7687,
      "Fay": 7688,
      "Ahoy": 7689,
      "bathed": 7690,
      "ared": 7691,
      "caw": 7692,
      "clerk": 7693,
      "crocodiles": 7694,
      "ribbit": 7695,
      "Fre": 7696,
      "fet": 7697,
      "range": 7698,
      "messed": 7699,
      "hooks": 7700,
      "eggy": 7701,
      "threads": 7702,
      "congratulated": 7703,
      "Li": 7704,
      "attempt": 7705,
      "guarding": 7706,
      "Candy": 7707,
      "Fortun": 7708,
      "Got": 7709,
      "hover": 7710,
      "apolo": 7711,
      "blank": 7712,
      "common": 7713,
      "beast": 7714,
      "erosity": 7715,
      "Yellow": 7716,
      "Fortunately": 7717,
      "Riri": 7718,
      "dee": 7719,
      "manager": 7720,
      "experienced": 7721,
      "Felix": 7722,
      "chipmunk": 7723,
      "boards": 7724,
      "Buster": 7725,
      "erasers": 7726,
      "etah": 7727,
      "digs": 7728,
      "tips": 7729,
      "nibbled": 7730,
      "ketch": 7731,
      "bats": 7732,
      "chews": 7733,
      "cheetah": 7734,
      "finishes": 7735,
      "particularly": 7736,
      "forgiveness": 7737,
      "faith": 7738,
      "observing": 7739,
      "mischievous": 7740,
      "bouquet": 7741,
      "Sand": 7742,
      "kinder": 7743,
      "Squeak": 7744,
      "trotted": 7745,
      "cheaper": 7746,
      "Andrew": 7747,
      "Oxygen": 7748,
      "generosity": 7749,
      "Rub": 7750,
      "Three": 7751,
      "target": 7752,
      "Peggy": 7753,
      "Won": 7754,
      "mered": 7755,
      "rips": 7756,
      "Monster": 7757,
      "Gill": 7758,
      "Har": 7759,
      "Pin": 7760,
      "stores": 7761,
      "fishes": 7762,
      "meowing": 7763,
      "argument": 7764,
      "Mila": 7765,
      "dial": 7766,
      "shopper": 7767,
      "Excitedly": 7768,
      "Circle": 7769,
      "Peep": 7770,
      "instantly": 7771,
      "Zog": 7772,
      "Bobbie": 7773,
      "foam": 7774,
      "cages": 7775,
      "gasps": 7776,
      "passes": 7777,
      "limp": 7778,
      "teles": 7779,
      "whir": 7780,
      "mattered": 7781,
      "sleeps": 7782,
      "abra": 7783,
      "masterpiece": 7784,
      "Lung": 7785,
      "Puffy": 7786,
      "Sing": 7787,
      "mats": 7788,
      "breaths": 7789,
      "Matilda": 7790,
      "farmers": 7791,
      "smartest": 7792,
      "accomplished": 7793,
      "idey": 7794,
      "rumbling": 7795,
      "syrup": 7796,
      "Otto": 7797,
      "telescope": 7798,
      "meaning": 7799,
      "styles": 7800,
      "scrambled": 7801,
      "angrily": 7802,
      "forests": 7803,
      "affect": 7804,
      "fif": 7805,
      "moat": 7806,
      "discoveries": 7807,
      "snapping": 7808,
      "vests": 7809,
      "medals": 7810,
      "experiences": 7811,
      "collapsed": 7812,
      "intent": 7813,
      "skirts": 7814,
      "behaviour": 7815,
      "whined": 7816,
      "gardens": 7817,
      "otters": 7818,
      "vegg": 7819,
      "conqu": 7820,
      "imagin": 7821,
      "acles": 7822,
      "trans": 7823,
      "hardest": 7824,
      "Brad": 7825,
      "types": 7826,
      "Doll": 7827,
      "Rainbow": 7828,
      "lers": 7829,
      "chilly": 7830,
      "movements": 7831,
      "bubbly": 7832,
      "webs": 7833,
      "faint": 7834,
      "adabra": 7835,
      "expression": 7836,
      "grasshopper": 7837,
      "Mus": 7838,
      "Race": 7839,
      "patches": 7840,
      "scores": 7841,
      "idy": 7842,
      "pokes": 7843,
      "extraordinary": 7844,
      "Melissa": 7845,
      "horri": 7846,
      "attitude": 7847,
      "Cars": 7848,
      "unfair": 7849,
      "momma": 7850,
      "toothbrush": 7851,
      "March": 7852,
      "ketchup": 7853,
      "Vio": 7854,
      "Rosa": 7855,
      "prickly": 7856,
      "Mam": 7857,
      "Annabelle": 7858,
      "Feel": 7859,
      "bbling": 7860,
      "erts": 7861,
      "Bonnie": 7862,
      "chin": 7863,
      "sooner": 7864,
      "Bar": 7865,
      "afar": 7866,
      "pleas": 7867,
      "spears": 7868,
      "sprout": 7869,
      "Spidey": 7870,
      "Silver": 7871,
      "classmates": 7872,
      "slithered": 7873,
      "iscuit": 7874,
      "consider": 7875,
      "shrunk": 7876,
      "mony": 7877,
      "squeezes": 7878,
      "Ed": 7879,
      "Fun": 7880,
      "vast": 7881,
      "dock": 7882,
      "chill": 7883,
      "marking": 7884,
      "glittering": 7885,
      "Mixie": 7886,
      "Ac": 7887,
      "thicker": 7888,
      "luckily": 7889,
      "announced": 7890,
      "iff": 7891,
      "court": 7892,
      "expert": 7893,
      "squin": 7894,
      "kneeling": 7895,
      "acts": 7896,
      "concer": 7897,
      "Mole": 7898,
      "deserved": 7899,
      "Riley": 7900,
      "thieves": 7901,
      "costs": 7902,
      "shh": 7903,
      "wolves": 7904,
      "jumper": 7905,
      "Tess": 7906,
      "bluebird": 7907,
      "raking": 7908,
      "trading": 7909,
      "Chip": 7910,
      "thumbs": 7911,
      "ability": 7912,
      "elect": 7913,
      "squeaky": 7914,
      "aret": 7915,
      "cocoon": 7916,
      "zigzags": 7917,
      "aven": 7918,
      "avi": 7919,
      "lunchtime": 7920,
      "tidied": 7921,
      "Paula": 7922,
      "cloths": 7923,
      "Wonder": 7924,
      "Pru": 7925,
      "Park": 7926,
      "seeking": 7927,
      "cheating": 7928,
      "ounce": 7929,
      "hatch": 7930,
      "Jose": 7931,
      "knit": 7932,
      "spilling": 7933,
      "desserts": 7934,
      "dia": 7935,
      "rin": 7936,
      "Inky": 7937,
      "culp": 7938,
      "visible": 7939,
      "explaining": 7940,
      "Smoke": 7941,
      "Waffle": 7942,
      "beating": 7943,
      "snar": 7944,
      "messages": 7945,
      "admit": 7946,
      "Books": 7947,
      "windowsill": 7948,
      "Abra": 7949,
      "zips": 7950,
      "peacock": 7951,
      "hissing": 7952,
      "Carla": 7953,
      "Slinky": 7954,
      "Apr": 7955,
      "actor": 7956,
      "Woolly": 7957,
      "winding": 7958,
      "Tooth": 7959,
      "pressing": 7960,
      "leans": 7961,
      "watermelon": 7962,
      "Steven": 7963,
      "compete": 7964,
      "teen": 7965,
      "April": 7966,
      "discouraged": 7967,
      "flashing": 7968,
      "shallow": 7969,
      "woodcutter": 7970,
      "teapot": 7971,
      "disagreeing": 7972,
      "Ce": 7973,
      "cops": 7974,
      "positive": 7975,
      "Tip": 7976,
      "Val": 7977,
      "papa": 7978,
      "glimmering": 7979,
      "dripped": 7980,
      "storing": 7981,
      "trusts": 7982,
      "burger": 7983,
      "Ze": 7984,
      "tidying": 7985,
      "kangaroos": 7986,
      "Faye": 7987,
      "landing": 7988,
      "Ratty": 7989,
      "fade": 7990,
      "drift": 7991,
      "veggies": 7992,
      "Sit": 7993,
      "keepers": 7994,
      "Drink": 7995,
      "sleds": 7996,
      "apology": 7997,
      "Ravi": 7998,
      "miller": 7999,
      "heels": 8000,
      "worst": 8001,
      "Beef": 8002,
      "situations": 8003,
      "Pink": 8004,
      "scurrying": 8005,
      "Bru": 8006,
      "Glow": 8007,
      "suns": 8008,
      "comets": 8009,
      "whel": 8010,
      "slee": 8011,
      "officers": 8012,
      "conversation": 8013,
      "ying": 8014,
      "foggy": 8015,
      "Liza": 8016,
      "iding": 8017,
      "foreshadow": 8018,
      "snorted": 8019,
      "differences": 8020,
      "overwhel": 8021,
      "granddaughter": 8022,
      "Quickly": 8023,
      "Drag": 8024,
      "cracker": 8025,
      "structures": 8026,
      "Lemon": 8027,
      "quacking": 8028,
      "pos": 8029,
      "gulp": 8030,
      "cubs": 8031,
      "heaven": 8032,
      "pizzas": 8033,
      "Violet": 8034,
      "possess": 8035,
      "hoot": 8036,
      "approach": 8037,
      "seagulls": 8038,
      "Immediately": 8039,
      "Pot": 8040,
      "bino": 8041,
      "Mona": 8042,
      "opportunity": 8043,
      "Animals": 8044,
      "Liam": 8045,
      "sculp": 8046,
      "drip": 8047,
      "rhino": 8048,
      "Ever": 8049,
      "Orange": 8050,
      "Tu": 8051,
      "rent": 8052,
      "robin": 8053,
      "Flopsy": 8054,
      "Par": 8055,
      "Past": 8056,
      "Wha": 8057,
      "Whose": 8058,
      "Pl": 8059,
      "cooperate": 8060,
      "levers": 8061,
      "amused": 8062,
      "acing": 8063,
      "answering": 8064,
      "Coal": 8065,
      "repeats": 8066,
      "sneaks": 8067,
      "idence": 8068,
      "als": 8069,
      "acy": 8070,
      "White": 8071,
      "Move": 8072,
      "dodge": 8073,
      "lowers": 8074,
      "checking": 8075,
      "Cut": 8076,
      "surfed": 8077,
      "Jody": 8078,
      "scowl": 8079,
      "disappointment": 8080,
      "binocular": 8081,
      "speaks": 8082,
      "inj": 8083,
      "puppets": 8084,
      "unwrapped": 8085,
      "bud": 8086,
      "Robot": 8087,
      "groaned": 8088,
      "tab": 8089,
      "numbered": 8090,
      "croaked": 8091,
      "cidents": 8092,
      "sipped": 8093,
      "keyhole": 8094,
      "Bubu": 8095,
      "applause": 8096,
      "Oxy": 8097,
      "Spid": 8098,
      "checkout": 8099,
      "lump": 8100,
      "Cats": 8101,
      "striking": 8102,
      "guards": 8103,
      "risky": 8104,
      "paddling": 8105,
      "Fix": 8106,
      "swimsuits": 8107,
      "pepperoni": 8108,
      "Stand": 8109,
      "Cammy": 8110,
      "Icy": 8111,
      "local": 8112,
      "beautifully": 8113,
      "Uni": 8114,
      "attacked": 8115,
      "Again": 8116,
      "inger": 8117,
      "Heli": 8118,
      "spooky": 8119,
      "Johny": 8120,
      "risk": 8121,
      "Janet": 8122,
      "wig": 8123,
      "waters": 8124,
      "artwork": 8125,
      "inchworm": 8126,
      "facts": 8127,
      "Scissors": 8128,
      "Accidents": 8129,
      "cadabra": 8130,
      "groom": 8131,
      "iment": 8132,
      "lim": 8133,
      "caterpillars": 8134,
      "Bra": 8135,
      "exams": 8136,
      "Sug": 8137,
      "Horsie": 8138,
      "Looking": 8139,
      "shrugs": 8140,
      "sculpture": 8141,
      "Alf": 8142,
      "Imag": 8143,
      "drying": 8144,
      "shoots": 8145,
      "whimpered": 8146,
      "Oink": 8147,
      "shyly": 8148,
      "honks": 8149,
      "Mind": 8150,
      "Bea": 8151,
      "cheerfully": 8152,
      "Fru": 8153,
      "healthier": 8154,
      "Feeling": 8155,
      "Pen": 8156,
      "oken": 8157,
      "hangs": 8158,
      "sobbing": 8159,
      "Martin": 8160,
      "snor": 8161,
      "izzes": 8162,
      "magnifying": 8163,
      "squinted": 8164,
      "Through": 8165,
      "fascinating": 8166,
      "Sleepy": 8167,
      "facing": 8168,
      "frustration": 8169,
      "Lightning": 8170,
      "Triangle": 8171,
      "Number": 8172,
      "fries": 8173,
      "blamed": 8174,
      "Girl": 8175,
      "shimmering": 8176,
      "Things": 8177,
      "suck": 8178,
      "snip": 8179,
      "fans": 8180,
      "Raven": 8181,
      "grumbled": 8182,
      "nibble": 8183,
      "Du": 8184,
      "flock": 8185,
      "sme": 8186,
      "stew": 8187,
      "ron": 8188,
      "snort": 8189,
      "stacks": 8190,
      "raked": 8191
    },
    "merges": [
      [
        "h",
        "e"
      ],
      [
        "a",
        "n"
      ],
      [
        "t",
        "he"
      ],
      [
        "e",
        "d"
      ],
      [
        "t",
        "o"
      ],
      [
        "an",
        "d"
      ],
      [
        "i",
        "n"
      ],
      [
        "r",
        "e"
      ],
      [
        "i",
        "t"
      ],
      [
        "w",
        "a"
      ],
      [
        "o",
        "u"
      ],
      [
        "h",
        "a"
      ],
      [
        "T",
        "he"
      ],
      [
        "e",
        "r"
      ],
      [
        "wa",
        "s"
      ],
      [
        "a",
        "y"
      ],
      [
        "e",
        "n"
      ],
      [
        "o",
        "m"
      ],
      [
        "i",
        "s"
      ],
      [
        "a",
        "r"
      ],
      [
        "o",
        "n"
      ],
      [
        "i",
        "m"
      ],
      [
        "s",
        "a"
      ],
      [
        "i",
        "d"
      ],
      [
        "l",
        "l"
      ],
      [
        "l",
        "e"
      ],
      [
        "in",
        "g"
      ],
      [
        "s",
        "t"
      ],
      [
        "o",
        "t"
      ],
      [
        "a",
        "m"
      ],
      [
        "o",
        "r"
      ],
      [
        "i",
        "r"
      ],
      [
        "n",
        "e"
      ],
      [
        "The",
        "y"
      ],
      [
        "p",
        "l"
      ],
      [
        "i",
        "g"
      ],
      [
        "a",
        "t"
      ],
      [
        "H",
        "e"
      ],
      [
        "b",
        "e"
      ],
      [
        "i",
        "l"
      ],
      [
        "l",
        "o"
      ],
      [
        "a",
        "ll"
      ],
      [
        "r",
        "i"
      ],
      [
        "v",
        "er"
      ],
      [
        "h",
        "is"
      ],
      [
        "d",
        "ay"
      ],
      [
        "u",
        "t"
      ],
      [
        "pl",
        "ay"
      ],
      [
        "sa",
        "id"
      ],
      [
        "T",
        "im"
      ],
      [
        "it",
        "h"
      ],
      [
        "s",
        "e"
      ],
      [
        "w",
        "ith"
      ],
      [
        "p",
        "p"
      ],
      [
        "he",
        "r"
      ],
      [
        "k",
        "ed"
      ],
      [
        "o",
        "w"
      ],
      [
        "c",
        "e"
      ],
      [
        "u",
        "n"
      ],
      [
        "k",
        "e"
      ],
      [
        "S",
        "he"
      ],
      [
        "ha",
        "t"
      ],
      [
        "l",
        "d"
      ],
      [
        "t",
        "h"
      ],
      [
        "b",
        "ig"
      ],
      [
        "en",
        "d"
      ],
      [
        "y",
        "ou"
      ],
      [
        "ver",
        "y"
      ],
      [
        "t",
        "ed"
      ],
      [
        "v",
        "e"
      ],
      [
        "l",
        "i"
      ],
      [
        "c",
        "k"
      ],
      [
        "w",
        "e"
      ],
      [
        "ha",
        "pp"
      ],
      [
        "e",
        "o"
      ],
      [
        "o",
        "f"
      ],
      [
        "ri",
        "end"
      ],
      [
        "f",
        "riend"
      ],
      [
        "u",
        "p"
      ],
      [
        "il",
        "y"
      ],
      [
        "the",
        "y"
      ],
      [
        "ha",
        "d"
      ],
      [
        "a",
        "d"
      ],
      [
        "n",
        "ot"
      ],
      [
        "w",
        "an"
      ],
      [
        "g",
        "e"
      ],
      [
        "it",
        "t"
      ],
      [
        "eo",
        "s"
      ],
      [
        "om",
        "e"
      ],
      [
        "the",
        "r"
      ],
      [
        "d",
        "o"
      ],
      [
        "n",
        "d"
      ],
      [
        "b",
        "o"
      ],
      [
        "a",
        "l"
      ],
      [
        "happ",
        "y"
      ],
      [
        "c",
        "h"
      ],
      [
        "L",
        "ily"
      ],
      [
        "en",
        "t"
      ],
      [
        "f",
        "or"
      ],
      [
        "t",
        "hat"
      ],
      [
        "sa",
        "w"
      ],
      [
        "s",
        "he"
      ],
      [
        "O",
        "ne"
      ],
      [
        "ou",
        "ld"
      ],
      [
        "m",
        "om"
      ],
      [
        "itt",
        "le"
      ],
      [
        "l",
        "ittle"
      ],
      [
        "im",
        "e"
      ],
      [
        "a",
        "s"
      ],
      [
        "s",
        "o"
      ],
      [
        "T",
        "om"
      ],
      [
        "t",
        "ime"
      ],
      [
        "r",
        "o"
      ],
      [
        ".",
        "\""
      ],
      [
        "f",
        "e"
      ],
      [
        "n",
        "am"
      ],
      [
        "ou",
        "nd"
      ],
      [
        "e",
        "s"
      ],
      [
        "the",
        "re"
      ],
      [
        "o",
        "o"
      ],
      [
        "nam",
        "ed"
      ],
      [
        "s",
        "m"
      ],
      [
        "we",
        "re"
      ],
      [
        "!",
        "\""
      ],
      [
        "I",
        "t"
      ],
      [
        "wan",
        "ted"
      ],
      [
        "b",
        "ut"
      ],
      [
        "friend",
        "s"
      ],
      [
        "v",
        "ed"
      ],
      [
        "h",
        "t"
      ],
      [
        "ir",
        "d"
      ],
      [
        "s",
        "h"
      ],
      [
        "r",
        "y"
      ],
      [
        "a",
        "re"
      ],
      [
        "b",
        "ird"
      ],
      [
        "to",
        "o"
      ],
      [
        "r",
        "a"
      ],
      [
        "O",
        "n"
      ],
      [
        "m",
        "y"
      ],
      [
        "ou",
        "t"
      ],
      [
        "u",
        "g"
      ],
      [
        "a",
        "ke"
      ],
      [
        "l",
        "p"
      ],
      [
        "t",
        "er"
      ],
      [
        "w",
        "ent"
      ],
      [
        "id",
        "e"
      ],
      [
        "On",
        "ce"
      ],
      [
        "c",
        "ar"
      ],
      [
        "lo",
        "o"
      ],
      [
        "u",
        "e"
      ],
      [
        "he",
        "lp"
      ],
      [
        "up",
        "on"
      ],
      [
        "th",
        "ing"
      ],
      [
        "in",
        "d"
      ],
      [
        "f",
        "un"
      ],
      [
        "to",
        "y"
      ],
      [
        "i",
        "ll"
      ],
      [
        "am",
        "e"
      ],
      [
        "d",
        "id"
      ],
      [
        "l",
        "y"
      ],
      [
        "ge",
        "ther"
      ],
      [
        "u",
        "r"
      ],
      [
        "wa",
        "y"
      ],
      [
        "s",
        "ome"
      ],
      [
        "on",
        "e"
      ],
      [
        "c",
        "at"
      ],
      [
        "m",
        "e"
      ],
      [
        "to",
        "gether"
      ],
      [
        "o",
        "re"
      ],
      [
        "t",
        "re"
      ],
      [
        "a",
        "ck"
      ],
      [
        "a",
        "g"
      ],
      [
        "ne",
        "w"
      ],
      [
        "c",
        "an"
      ],
      [
        "do",
        "g"
      ],
      [
        "c",
        "ame"
      ],
      [
        "c",
        "ould"
      ],
      [
        "oo",
        "d"
      ],
      [
        "the",
        "ir"
      ],
      [
        "b",
        "all"
      ],
      [
        "i",
        "c"
      ],
      [
        "?",
        "\""
      ],
      [
        "p",
        "ar"
      ],
      [
        "g",
        "ir"
      ],
      [
        "play",
        "ed"
      ],
      [
        "h",
        "im"
      ],
      [
        "B",
        "ut"
      ],
      [
        "gir",
        "l"
      ],
      [
        "g",
        "o"
      ],
      [
        "p",
        "e"
      ],
      [
        "f",
        "u"
      ],
      [
        "h",
        "o"
      ],
      [
        "m",
        "an"
      ],
      [
        "the",
        "m"
      ],
      [
        "he",
        "n"
      ],
      [
        "u",
        "m"
      ],
      [
        "a",
        "x"
      ],
      [
        "sa",
        "d"
      ],
      [
        "S",
        "ue"
      ],
      [
        "r",
        "om"
      ],
      [
        "bo",
        "y"
      ],
      [
        "ha",
        "ve"
      ],
      [
        "tre",
        "e"
      ],
      [
        "M",
        "ax"
      ],
      [
        "lo",
        "ved"
      ],
      [
        "loo",
        "ked"
      ],
      [
        "ou",
        "g"
      ],
      [
        "he",
        "d"
      ],
      [
        "f",
        "ound"
      ],
      [
        "st",
        "ar"
      ],
      [
        "a",
        "b"
      ],
      [
        "s",
        "ide"
      ],
      [
        "o",
        "ther"
      ],
      [
        "b",
        "ack"
      ],
      [
        "B",
        "en"
      ],
      [
        "l",
        "a"
      ],
      [
        "l",
        "t"
      ],
      [
        "par",
        "k"
      ],
      [
        "li",
        "ke"
      ],
      [
        "a",
        "in"
      ],
      [
        "S",
        "am"
      ],
      [
        "fu",
        "l"
      ],
      [
        "ow",
        "n"
      ],
      [
        "d",
        "e"
      ],
      [
        "p",
        "r"
      ],
      [
        "c",
        "o"
      ],
      [
        "e",
        "t"
      ],
      [
        "on",
        "g"
      ],
      [
        "ig",
        "ht"
      ],
      [
        "n",
        "o"
      ],
      [
        "p",
        "ot"
      ],
      [
        "f",
        "a"
      ],
      [
        "r",
        "an"
      ],
      [
        "li",
        "ked"
      ],
      [
        "w",
        "ould"
      ],
      [
        "s",
        "to"
      ],
      [
        "m",
        "ake"
      ],
      [
        "fe",
        "lt"
      ],
      [
        "Y",
        "ou"
      ],
      [
        "se",
        "e"
      ],
      [
        "n",
        "ow"
      ],
      [
        "wan",
        "t"
      ],
      [
        "as",
        "ked"
      ],
      [
        "ou",
        "se"
      ],
      [
        "ar",
        "d"
      ],
      [
        "c",
        "a"
      ],
      [
        "star",
        "ted"
      ],
      [
        "oug",
        "ht"
      ],
      [
        "il",
        "ed"
      ],
      [
        "i",
        "ce"
      ],
      [
        "g",
        "ood"
      ],
      [
        "sm",
        "all"
      ],
      [
        "w",
        "or"
      ],
      [
        "sm",
        "iled"
      ],
      [
        "m",
        "ore"
      ],
      [
        "s",
        "ay"
      ],
      [
        "ri",
        "ed"
      ],
      [
        "e",
        "x"
      ],
      [
        "m",
        "ad"
      ],
      [
        "s",
        "car"
      ],
      [
        "r",
        "ed"
      ],
      [
        "g",
        "r"
      ],
      [
        "S",
        "pot"
      ],
      [
        "p",
        "ut"
      ],
      [
        "k",
        "ing"
      ],
      [
        "f",
        "ind"
      ],
      [
        "M",
        "om"
      ],
      [
        "t",
        "y"
      ],
      [
        "h",
        "ome"
      ],
      [
        "a",
        "way"
      ],
      [
        "w",
        "hat"
      ],
      [
        "some",
        "thing"
      ],
      [
        "f",
        "rom"
      ],
      [
        "mad",
        "e"
      ],
      [
        "u",
        "c"
      ],
      [
        "th",
        "ought"
      ],
      [
        "en",
        "ed"
      ],
      [
        "s",
        "ha"
      ],
      [
        "play",
        "ing"
      ],
      [
        "i",
        "a"
      ],
      [
        "wa",
        "l"
      ],
      [
        "e",
        "very"
      ],
      [
        "a",
        "ch"
      ],
      [
        "m",
        "u"
      ],
      [
        "ar",
        "n"
      ],
      [
        "M",
        "ia"
      ],
      [
        "i",
        "le"
      ],
      [
        "bo",
        "x"
      ],
      [
        "ag",
        "ain"
      ],
      [
        "h",
        "ouse"
      ],
      [
        "la",
        "ug"
      ],
      [
        "re",
        "t"
      ],
      [
        "d",
        "own"
      ],
      [
        "u",
        "se"
      ],
      [
        "too",
        "k"
      ],
      [
        "scar",
        "ed"
      ],
      [
        "le",
        "arn"
      ],
      [
        "o",
        "p"
      ],
      [
        "n",
        "y"
      ],
      [
        "u",
        "re"
      ],
      [
        "toy",
        "s"
      ],
      [
        "ge",
        "t"
      ],
      [
        "s",
        "s"
      ],
      [
        "w",
        "ill"
      ],
      [
        "g",
        "ot"
      ],
      [
        "d",
        "d"
      ],
      [
        "ar",
        "ound"
      ],
      [
        "thing",
        "s"
      ],
      [
        "is",
        "h"
      ],
      [
        "you",
        "r"
      ],
      [
        "ou",
        "d"
      ],
      [
        ",",
        "\""
      ],
      [
        "li",
        "ved"
      ],
      [
        "e",
        "l"
      ],
      [
        "i",
        "ck"
      ],
      [
        "lo",
        "w"
      ],
      [
        "l",
        "ot"
      ],
      [
        "a",
        "ve"
      ],
      [
        "pe",
        "c"
      ],
      [
        "the",
        "n"
      ],
      [
        "s",
        "un"
      ],
      [
        "e",
        "p"
      ],
      [
        "S",
        "o"
      ],
      [
        "d",
        "er"
      ],
      [
        "w",
        "hen"
      ],
      [
        "o",
        "b"
      ],
      [
        "pp",
        "ed"
      ],
      [
        "i",
        "e"
      ],
      [
        "n",
        "a"
      ],
      [
        "b",
        "ot"
      ],
      [
        "r",
        "u"
      ],
      [
        "L",
        "uc"
      ],
      [
        "Luc",
        "y"
      ],
      [
        "i",
        "f"
      ],
      [
        "t",
        "e"
      ],
      [
        "an",
        "t"
      ],
      [
        "ro",
        "om"
      ],
      [
        "t",
        "ried"
      ],
      [
        "k",
        "now"
      ],
      [
        "say",
        "s"
      ],
      [
        "um",
        "p"
      ],
      [
        "it",
        "ed"
      ],
      [
        "w",
        "ho"
      ],
      [
        "an",
        "y"
      ],
      [
        "man",
        "y"
      ],
      [
        "p",
        "ic"
      ],
      [
        "p",
        "le"
      ],
      [
        "ab",
        "out"
      ],
      [
        "u",
        "s"
      ],
      [
        "c",
        "are"
      ],
      [
        "p",
        "ret"
      ],
      [
        "de",
        "c"
      ],
      [
        "W",
        "e"
      ],
      [
        "b",
        "y"
      ],
      [
        "k",
        "new"
      ],
      [
        "ou",
        "s"
      ],
      [
        "is",
        "e"
      ],
      [
        "all",
        "y"
      ],
      [
        "p",
        "u"
      ],
      [
        "is",
        "t"
      ],
      [
        "way",
        "s"
      ],
      [
        "q",
        "u"
      ],
      [
        "learn",
        "ed"
      ],
      [
        "at",
        "e"
      ],
      [
        "wa",
        "ter"
      ],
      [
        "an",
        "k"
      ],
      [
        "A",
        "nd"
      ],
      [
        "f",
        "ter"
      ],
      [
        "be",
        "came"
      ],
      [
        "be",
        "st"
      ],
      [
        "i",
        "ve"
      ],
      [
        "u",
        "st"
      ],
      [
        "g",
        "re"
      ],
      [
        "l",
        "ong"
      ],
      [
        "ne",
        "x"
      ],
      [
        "b",
        "l"
      ],
      [
        "ex",
        "c"
      ],
      [
        "ca",
        "use"
      ],
      [
        "out",
        "side"
      ],
      [
        "laug",
        "hed"
      ],
      [
        "m",
        "o"
      ],
      [
        "loo",
        "k"
      ],
      [
        "al",
        "ways"
      ],
      [
        "he",
        "re"
      ],
      [
        "dec",
        "id"
      ],
      [
        "sh",
        "ow"
      ],
      [
        "e",
        "at"
      ],
      [
        "it",
        "e"
      ],
      [
        "decid",
        "ed"
      ],
      [
        "be",
        "cause"
      ],
      [
        "f",
        "ore"
      ],
      [
        "c",
        "l"
      ],
      [
        "in",
        "to"
      ],
      [
        "p",
        "o"
      ],
      [
        "c",
        "le"
      ],
      [
        "an",
        "g"
      ],
      [
        "L",
        "et"
      ],
      [
        "j",
        "ump"
      ],
      [
        "bot",
        "h"
      ],
      [
        "The",
        "n"
      ],
      [
        "r",
        "un"
      ],
      [
        "h",
        "ug"
      ],
      [
        "er",
        "s"
      ],
      [
        "d",
        "ad"
      ],
      [
        "m",
        "a"
      ],
      [
        "o",
        "k"
      ],
      [
        "A",
        "n"
      ],
      [
        "fa",
        "st"
      ],
      [
        "s",
        "ur"
      ],
      [
        "c",
        "lo"
      ],
      [
        "W",
        "hen"
      ],
      [
        "t",
        "his"
      ],
      [
        "exc",
        "ited"
      ],
      [
        "n",
        "ice"
      ],
      [
        "fe",
        "el"
      ],
      [
        "Y",
        "es"
      ],
      [
        "s",
        "or"
      ],
      [
        "w",
        "h"
      ],
      [
        "b",
        "b"
      ],
      [
        "p",
        "a"
      ],
      [
        "o",
        "ld"
      ],
      [
        "b",
        "u"
      ],
      [
        "in",
        "k"
      ],
      [
        "to",
        "ld"
      ],
      [
        "s",
        "k"
      ],
      [
        "c",
        "ome"
      ],
      [
        "B",
        "ob"
      ],
      [
        "b",
        "r"
      ],
      [
        "in",
        "side"
      ],
      [
        "f",
        "ish"
      ],
      [
        "sur",
        "pr"
      ],
      [
        "H",
        "is"
      ],
      [
        "in",
        "y"
      ],
      [
        "oo",
        "k"
      ],
      [
        "pret",
        "ty"
      ],
      [
        "f",
        "ly"
      ],
      [
        "ar",
        "a"
      ],
      [
        "g",
        "ave"
      ],
      [
        "t",
        "ake"
      ],
      [
        "t",
        "a"
      ],
      [
        "ou",
        "r"
      ],
      [
        "le",
        "t"
      ],
      [
        "e",
        "ach"
      ],
      [
        "j",
        "o"
      ],
      [
        "mu",
        "ch"
      ],
      [
        "it",
        "s"
      ],
      [
        "h",
        "ow"
      ],
      [
        "An",
        "na"
      ],
      [
        "le",
        "w"
      ],
      [
        "un",
        "der"
      ],
      [
        "im",
        "al"
      ],
      [
        "an",
        "imal"
      ],
      [
        "A",
        "my"
      ],
      [
        "u",
        "dd"
      ],
      [
        "ne",
        "ed"
      ],
      [
        "th",
        "an"
      ],
      [
        "v",
        "en"
      ],
      [
        "ab",
        "le"
      ],
      [
        "a",
        "c"
      ],
      [
        "f",
        "low"
      ],
      [
        "A",
        "s"
      ],
      [
        "ha",
        "r"
      ],
      [
        "sor",
        "ry"
      ],
      [
        "s",
        "w"
      ],
      [
        "e",
        "ll"
      ],
      [
        "u",
        "ck"
      ],
      [
        "C",
        "an"
      ],
      [
        "T",
        "h"
      ],
      [
        "S",
        "ara"
      ],
      [
        "g",
        "ed"
      ],
      [
        "is",
        "ed"
      ],
      [
        "ro",
        "ck"
      ],
      [
        "d",
        "re"
      ],
      [
        "Th",
        "ank"
      ],
      [
        "wal",
        "ked"
      ],
      [
        "ur",
        "t"
      ],
      [
        "be",
        "ar"
      ],
      [
        "re",
        "ad"
      ],
      [
        "h",
        "and"
      ],
      [
        "ur",
        "n"
      ],
      [
        "k",
        "ind"
      ],
      [
        "ra",
        "in"
      ],
      [
        "t",
        "ry"
      ],
      [
        "j",
        "ust"
      ],
      [
        "happ",
        "ened"
      ],
      [
        "st",
        "r"
      ],
      [
        "H",
        "er"
      ],
      [
        "l",
        "ist"
      ],
      [
        "f",
        "ood"
      ],
      [
        "be",
        "t"
      ],
      [
        "did",
        "n"
      ],
      [
        "ig",
        "h"
      ],
      [
        "f",
        "i"
      ],
      [
        "animal",
        "s"
      ],
      [
        "wa",
        "r"
      ],
      [
        "s",
        "pec"
      ],
      [
        "I",
        "n"
      ],
      [
        "wa",
        "t"
      ],
      [
        "ne",
        "ar"
      ],
      [
        "sk",
        "y"
      ],
      [
        "in",
        "e"
      ],
      [
        "c",
        "re"
      ],
      [
        "v",
        "ing"
      ],
      [
        "b",
        "ug"
      ],
      [
        "F",
        "rom"
      ],
      [
        "ide",
        "a"
      ],
      [
        "bet",
        "ter"
      ],
      [
        "he",
        "ard"
      ],
      [
        "ne",
        "ver"
      ],
      [
        "ke",
        "t"
      ],
      [
        "c",
        "he"
      ],
      [
        "t",
        "w"
      ],
      [
        "b",
        "ro"
      ],
      [
        "b",
        "ed"
      ],
      [
        "pl",
        "a"
      ],
      [
        "f",
        "f"
      ],
      [
        "t",
        "al"
      ],
      [
        "lo",
        "ve"
      ],
      [
        "n",
        "t"
      ],
      [
        "s",
        "p"
      ],
      [
        "b",
        "er"
      ],
      [
        "care",
        "ful"
      ],
      [
        "sha",
        "re"
      ],
      [
        "to",
        "w"
      ],
      [
        "co",
        "l"
      ],
      [
        "i",
        "al"
      ],
      [
        "f",
        "lew"
      ],
      [
        "any",
        "more"
      ],
      [
        "c",
        "om"
      ],
      [
        "spec",
        "ial"
      ],
      [
        "i",
        "on"
      ],
      [
        "lot",
        "s"
      ],
      [
        "l",
        "f"
      ],
      [
        "p",
        "er"
      ],
      [
        "w",
        "here"
      ],
      [
        "d",
        "on"
      ],
      [
        "w",
        "ind"
      ],
      [
        "g",
        "ive"
      ],
      [
        "bo",
        "ok"
      ],
      [
        "E",
        "very"
      ],
      [
        "sa",
        "fe"
      ],
      [
        "l",
        "ad"
      ],
      [
        "cle",
        "an"
      ],
      [
        "T",
        "hat"
      ],
      [
        "gr",
        "ound"
      ],
      [
        "a",
        "se"
      ],
      [
        "e",
        "ven"
      ],
      [
        "eo",
        "ple"
      ],
      [
        "m",
        "ag"
      ],
      [
        "o",
        "ver"
      ],
      [
        "c",
        "ake"
      ],
      [
        "as",
        "s"
      ],
      [
        "sh",
        "iny"
      ],
      [
        "udd",
        "en"
      ],
      [
        "t",
        "urn"
      ],
      [
        "f",
        "am"
      ],
      [
        "b",
        "ad"
      ],
      [
        "a",
        "fter"
      ],
      [
        "D",
        "o"
      ],
      [
        "udden",
        "ly"
      ],
      [
        "p",
        "eople"
      ],
      [
        "pr",
        "oud"
      ],
      [
        "ra",
        "bb"
      ],
      [
        "e",
        "ver"
      ],
      [
        "do",
        "or"
      ],
      [
        "surpr",
        "ised"
      ],
      [
        "h",
        "igh"
      ],
      [
        "h",
        "urt"
      ],
      [
        "pec",
        "ted"
      ],
      [
        "g",
        "ard"
      ],
      [
        "gard",
        "en"
      ],
      [
        "op",
        "ened"
      ],
      [
        "pic",
        "ked"
      ],
      [
        "l",
        "oud"
      ],
      [
        "cl",
        "im"
      ],
      [
        "f",
        "ar"
      ],
      [
        "nex",
        "pected"
      ],
      [
        "u",
        "nexpected"
      ],
      [
        "f",
        "o"
      ],
      [
        "be",
        "a"
      ],
      [
        "har",
        "d"
      ],
      [
        "a",
        "pp"
      ],
      [
        "W",
        "hat"
      ],
      [
        "pla",
        "ce"
      ],
      [
        "un",
        "t"
      ],
      [
        "col",
        "or"
      ],
      [
        "than",
        "ked"
      ],
      [
        "bl",
        "ue"
      ],
      [
        "st",
        "ill"
      ],
      [
        "e",
        "ar"
      ],
      [
        "hug",
        "ged"
      ],
      [
        "c",
        "t"
      ],
      [
        "c",
        "all"
      ],
      [
        "N",
        "o"
      ],
      [
        "of",
        "f"
      ],
      [
        "m",
        "or"
      ],
      [
        "oug",
        "h"
      ],
      [
        "mag",
        "ic"
      ],
      [
        "um",
        "my"
      ],
      [
        "W",
        "h"
      ],
      [
        "jump",
        "ed"
      ],
      [
        "J",
        "o"
      ],
      [
        "sh",
        "ould"
      ],
      [
        "fam",
        "ily"
      ],
      [
        "k",
        "id"
      ],
      [
        "wal",
        "k"
      ],
      [
        "oo",
        "l"
      ],
      [
        "sm",
        "ile"
      ],
      [
        "s",
[...]
